#version: 0.2
à ¦
à §
Ġ à¦
à¦ ¾
à§ ĩ
à¦ °
à§ į
à¦ ¿
à¦ ¨
à¦ ¯
à¦ ¤
à¦ ķ
à¦ ¼
à¦ ¬
à¦ ²
à¦ ®
Ġà¦ ķ
à§ ģ
Ġà¦ ¸
Ġà¦ ¬
à¦ ¦
Ġà¦ ª
à§ ĭ
à ¥
à¥ ¤
à¦ ¸
à¦ Ł
Ġà¦ ¨
à§ Ģ
à¦ ¶
Ġà¦ Ĩ
à¦ ª
Ġà¦ ı
Ġà¦ ¹
à¦ Ľ
à¦ ĩ
à¦ ·
Ġà¦ ¦
Ġà¦ ¤
à¦ Ĺ
Ġà¦ ®
à¦¼ à§ĩ
à¦ ľ
Ġà¦ķ à¦°
à¦ §
Ġà¦ ħ
à¦ ļ
Ġà¦ ¯
à¦ ¥
à¦ ¹
à¦ Ĥ
à¦ £
à¦ ĸ
Ġà¦ ľ
à¦ ĵ
à¦ ¡
à¦¼ à¦¾
à¦ Ń
à§ĩ à¥¤
Ġà¦ °
Ġà¦ ¶
Ġà¦ Ĺ
Ġà¦ ĵ
Ġà¦ ļ
à¦ ģ
Ġà¦¹ à¦¯
Ġà¦ Ń
Ġà¦ª à¦°
Ġà¦ ī
â Ģ
Ġà¦ı à¦ķ
Ġ à§
Ġà¦¸ à¦®
à¦° à¦¤
à¦¾ à¦ģ
Ġà¦ ¥
à¦° à¦ķ
à§ Ĥ
à§ ĥ
Ġà¦Ĩ à¦®
Ġà¦ħ à¦¨
à¦ ł
à¦ Ļ
à¦ĵ à¦¯
à§ĩ .
Ġà¦ ²
Ġà¦ Ľ
à¦° à¦£
à¦ľ à¦¨
à¦¾ à¦Ĥ
à¦¾ à¥¤
Ġà¦ľ à¦¨
Ġà¦¬ à¦²
Ġà¦ ĸ
Ġà¦ ĩ
Ġà¦ı à¦ĩ
Ġà¦ «
Ġà¦Ĩ à¦°
à¦® à¦¨
Ġà¦ §
à¦ª à¦°
à¦¼ à¥¤
à§ ¦
à¦ «
à¦ĸ à¦¨
Ġà¦¹ à¦¬
à§ Ī
à¦ļ à¦¨
à¦ ı
Ġà¦ ĺ
à¦ ī
à¦¿ à¥¤
à¦¤ à¦°
à¦¬ à¦¸
Ġà¦ı à¦¬
âĢ Ļ
âĢ ĺ
Ġà¦ıà¦ķ à¦Ł
Ġà¦¸ à¦°à¦ķ
Ġ âĢĺ
§ à§
Ġà¦ Ł
Ġà¦ķà¦° à¦¤
à¦¾ .
à¦¼ à¦¿
à¦¬ à¦°
Ġà¦¹ à¦²
à¦ ŀ
Ġà¦¸ à¦¬
Ġà¦® à¦¨
à¦¬ à¦¨
à§ İ
Ġà¦¸ à¦Ļ
à¦¼ .
Ġà¦§ à¦°
Ġà¦Ĩ à¦²
Ġà§ ¨
à¦ª à¦¨
à¦® à¦¤
Ġà¦Ĩ à¦¸
Ġà¦ķ à¦¥
à¦° à¦®
Ġà¦® à¦§
à§ Į
Ġà¦ķ à¦®
Ġà¦¹ à¦¤
à¦ķ à¦°
Ġà¦¦ à¦²
à¦ĩ à¦¨
à¦° à¦¬
Ġà¦Ĩ à¦Ĺ
à¦¶ à¦¨
à¦¤ à¦¨
à¦¸ à¦¬
à¦¿ .
Ġà§ §à§
Ġà¦¨ à¦¯
Ġà¦ħ à¦°
à¦· à¦¯
Ġà¦ı à¦°
à¦° à¦¸
à¦ ĺ
à¦Ľ à¦°
à¦· à¦£
à¦ Ĩ
Ġà¦Ĩ à¦Ľ
Ġà¦Ĩ à¦¨
à¦² à¦¨
Ġà¦ĺ à¦Ł
Ġà¦ħ à¦Ń
à¦¼ à§ĭ
Ġà¦Ĩà¦® à¦°
Ġà¦ı à¦ĸà¦¨
Ġà¦ ¡
à¦° à¦¶
à¦ª à¦¤
Ġà¦ħ à¦¬
Ġà¦¸à¦® à¦¯
Ġà¦¹ à¦ļ
Ġà¦¬ à¦Ľà¦°
Ġ (
Ġà¦ª à¦¡
Ġà¦ī à¦¦
à¦¯ à¦ķ
à¦¯ à¦¬à¦¸
à¦¨ à¦¤
à¦¥ à¦®
Ġà¦ı à¦Ł
à¦° à¦¯
Ġà¦ļ à¦²
Ġà¦® à¦¤
Ġà¦¬ à¦°
à¦¿ à¦Ĥ
Ġà¦Ĩ à¦ĩà¦¨
Ġà¦ī à¦ª
à¦¯ à¦®
à¦² à¦¯
Ġà§¨ à§¦
Ġà¦Ĩ à¦¬
à¦¸ à¦¨
à¦° à¦¥à¦®
Ġà¦Ĺ à¦£
Ġà¦¸ à¦¹
à¦° à¦¦
à¦° à¦§
à¦¦ à¦¨
à¦· à¦ķ
à¦° à¦¹
Ġà¦ħ à¦§
à¦¯ à¦¬
à¦¤ à¦¬
à¦ª à¦ķ
Ġà¦ħ à¦¸
à¦Ĺ à¦¤
Ġà¦ı à¦®à¦¨
Ġà¦¹ à¦ĵà¦¯
à¦ķ à¦²
Ġà¦° à¦ķ
à¦¬ à¦²
Ġà¦ ¢
Ġà¦ķà¦° à¦Ľ
à¦ķ à¦Ł
Ġ Ċ
Ġà¦¬ à¦¨
à¦· à¦®à¦¤
à¦¬ à¦¬
à¦¾ -
Ġà¦ħ à¦¬à¦¸
¯ à§
Ġà¦¯ à¦¦
à¦® à¦²
Ġà¦ĵ à¦ªà¦°
Ġà¦¸ à¦°
à¦ Ŀ
à¦® à¦°
à¦² à¦¤
à¦ķ à¦¤
à¦² à¦ķ
Ġà¦¤ à¦¬
à¦¯ à¦¨
Ġà¦¬ à¦¡
à§ §à§
à¦° à¦ĵ
Ġà¦Ĩ à¦¶
Ġà¦Ĩà¦° à¦ĵ
à¦¸ à¦²
à¦Ĺ à¦°
Ġà¦¸ à¦¨
Ġà¦¶ à¦¤
à¦¤ à¦®
Ġà¦ī à¦¨
Ġà¦Ĩ à¦¦
à¦¼ à§Ģ
Ġà¦ª à¦¦
à¦¥ à¦¨
Ġà¦° à¦¯
Ġà¦« à¦²
à¦ı à¦¨
Ġà¦ĺà¦Ł à¦¨
à¦¹ à¦²
âĢ Ķ
Ġà¦ķà¦° à¦¬
à¦¨ à¦¬
Ġà¦¤ à¦ĸà¦¨
Ġà¦ī à¦ļ
à¦° à¦ļ
Ġà¦Ĺ à¦¤
à¦¸ à¦¦
Ġà¦ı à¦¸à¦¬
Ġà¦ĩ à¦¤
Ġà¦ħ à¦¤
Ġà¦ı à¦¤
à¦¨ à¦¯
Ġà¦¨ à¦¤
à¦¶ à¦ķ
Ġà¦ı à¦¸
à¦¨ à¦¨
Ġà¦ĩ à¦ī
à¦ıà¦¨ à¦ª
Ġà¦§à¦° à¦¨
à¦¸ à¦®
à¦¹ à¦¤
Ġà¦ķà¦° à¦²
à¦Ń à¦¬
à¦°à¦¹ à¦£
à§ĭ .
Ġà¦ ł
Ġà¦ª à¦ķ
Ġà¦ķ à¦¯
Ġà§§à§ ¯à§
Ġà§¨ à§
Ġà¦ĵ à¦ĩ
à¦ļ à¦²
Ġà§ §
Ġà¦ī à¦¤
Ġà¦ıà¦ķ à¦ľà¦¨
Ġà§¨à§¦ à§§à§
à¦¹ à¦°
à¦¦ à¦°
à¦¯ à¦¤
à¦¸ à¦¹
à¦ĸ à¦²
à§ĩ ?
Ġà¦ħ à¦ª
à¦Ĺ à¦£
à¦® à¦ķ
Ġà¦ı à¦²
à¦ĸ à¦¤
à¦ł à¦¨
Ġà§ ©
Ġà¦ī à¦ł
à¦ª à¦¦
à¦¹ à¦®
à¦· à¦¤
Ġà¦¸ à¦¤
Ġà¦® à¦¹
Ġà¦Ĩ à¦ĵà¦¯
à¦ķ à¦¦
à§ģ à¦ģ
à¦¨ à¦ķ
Ġà¦ħ à¦ªà¦°
Ġà¦¯ à¦ĸà¦¨
Ġà¦ ¾
à¦ķ à¦¬
Ġà¦ī à§İ
à¦° à¦Ń
Ġà¦¤ à¦¥
Ġà¦¬ à¦¹
à¦¯à¦¬ à¦¹
à¦° à¦ĩ
à¦ ħ
à¦¦ à¦ķ
Ġà¦Ĩ à¦ªà¦¨
à¦° à¦¨
à§ĭ à¥¤
à§ ¨
Ġà¦ª à¦¥
à¦° à¦²
âĢ ĵ
à¦¨ à¦®à¦¨
Ġà¦ķ à¦²
Ġà¦¸à¦® à¦¸
Ġà¦Ĩ à¦¯
à¦Ł à¦¨
à¦¸ à¦°
à¦¬ à¦ª
à¦® à¦¸
Ġà¦¬ à¦¸
Ġà¦Ĩ à¦ľ
à¦ĩ à¦¯
Ġà¦² à¦ķ
Ġà¦°à¦ķ à¦®
Ġà¦¸ à¦¦
à¦² à¦¬
à¦ĩ à¦²
Ġà¦Ĩ à¦ķ
Ġà§ «
Ġà¦ľà¦¨ à¦Ĺà¦£
à¦« à¦²
à¦° à¦ª
à¦¸ à¦ķ
Ġà¦ Ŀ
à¦¦ à¦²
Ġà¦ķ à¦¤
Ġà¦ıà¦ķ à¦ĩ
Ġà¦ħ à¦¥
Ġà¦¶ à¦ķ
à¦ļ à¦¯
à¦¤ à¦ķ
à¦§ à¦¨
Ġ à§ĩ
à¦ı à¦¸
Ġà¦ĩ à¦¨
à§ §
Ġà§ ª
à¦ķ à¦Ń
Ġà¦Ĺ à¦¡
Ġà¦Ĩ à¦¤
Ġà¦ĩ à¦¸à¦²
Ġà§§ à§¦
à§ «
Ġà¦ī à¦²
Ġà¦ı à¦Ĺ
à¦Ł à¦ķ
à¦ ĥ
à§Ģ .
à¦¯ à¦¦
Ġà¦¤ à¦°
Ġà¦¯ à¦¥
à§Ģ à¥¤
à¦ĩ à¦ķ
à¦¶ à¦Ĺ
Ġà¦¸à¦¦ à¦¸
Ġà¦ĸ à¦¬à¦°
à¦® à¦ķà¦°
Ġà¦ĵ à¦¯
Ġà¦ħà¦¬ à¦¶
Ġà¦¬à¦² à¦²
Ġà¦¸à¦¬ à¦ļ
Ġà¦Ĺà¦£ à¦¤à¦¨
à¦ĩ à¦°
à¦¨ à¦Ł
à¦ı à¦°
à¦Ľ à¦¨
Ġà¦ľ à¦°
à¦¬ à¦¦
à¦¨ à¦®
à¦£ à¦¤
à¦ī à¦¨
à¦· à¦®
Ġ à§į
à¦¿ -
Ġà¦¬à¦² à¦¤
Ġà¦ı à¦ĸ
Ġà¦¦ à¦ķ
à¦¨ à¦¸
Ġà¦ķ à¦ĸà¦¨
à¦° à¦ªà¦¤
Ġà¦¦ à¦°à¦ķ
à¦Ĺ à¦łà¦¨
Ġà§¨à§¦ à§¦
à¦¬ à¦¹
Ġà¦ĩà¦ī à¦¨
à¦¨ à¦°
Ġà¦ ¿
Ġà¦¶ à¦°
à¦¼à§ĩ à¥¤
à¦¯ à¦°
Ġà¦¸à¦® à¦°
Ġà¦¯ à¦¤
Ġà¦¶ à¦¹à¦°
Ġà¦¬ à¦¯
à¦¬ à¦¤
à¦° à¦Ł
à¦¯ à¦¯
Ġà¦Ń à¦¯
à¦ľà¦¨ à¦ķ
à¦¬ à¦ķ
Ġà¦¬ à¦ķ
à¦® à¦¯
à¦¨ à¦¦
à¦¤ à¦¤
à§ ©
Ġà¦ħ à¦Ĺ
Ġà§ ¬
Ġà¦ľ à¦®
Ġà¦¨ à¦¦
Ġà¦¸ à¦ķ
à¦§ à¦¤
Ġà¦ķ à¦ł
à§ ®
Ġà¦Ĺ à¦¬
à¦¯ à¦ĩ
Ġà¦¬à¦² à¦Ľ
à§ Ń
à§İ à¦ķ
Ġà§ Ń
Ġà¦ĵ à¦ł
à¦ļ à¦ķ
à¥¤ âĢĻ
à§ ª
à¦¯ à¦¸
Ġà¦Ĩ à¦ĩ
Ġà¦° à¦¹à¦®
à¦¯ à¦ķà¦°
Ġà¦ľ à¦Ļ
Ġà¦¸ à¦Ń
Ġà¦ķ à¦¬
Ġà¦® à¦°
Ġà¦ª à¦¶
à¦ķ à¦¸
Ġà¦¸ à¦ļ
Ġà¦ıà¦®à¦¨ à¦ķ
Ġà¦¤ à¦¤
à¦°à¦ķ à¦²
à¦· à¦¦
à¦® à¦¦
Ġà¦ħà¦¥ à¦ļ
à¦¸ à¦°à¦ķ
Ġà¦ª à¦¤
à§ ·
à§ĩ à¦ģ
à¦° à¦Ľ
à§ ¬
Ġà¦ļà¦² à¦Ľ
à¦Ĩ à¦®
Ġà¦ Ĳ
Ġà¦¦ à¦°
à¦® à¦¬
à§İ à¦¸
) à¥¤
à¦¶ à¦²
Ġà¦Ń à¦°
à¦ľ à¦°
à¦¶ à¦Ł
à¦¬ à¦¶
Ġà¦ħ à¦ķ
à¦¸ à¦¤
Ġà¦¸ à¦¡
à¦¼ à§ģ
Ġà¦Ĩà¦® à¦²
Ġà¦ĩà¦ī à¦°
à¦ĩ à¦Ł
à¦ľ à¦¯
Ġà¦¸à¦¹ à¦¯
Ġà¦¹ à¦¨
à¦¸ à¦ª
à¦Ł à¦Ĺ
Ġà¦ħ à¦ŀ
à¦ı à¦ĩ
à¦¼à¦¾ .
Ġà¦Ĺ à¦łà¦¨
à¦° à¦Ĺ
Ġà¦¤ à¦¦à¦¨
à¦¾ âĢĻ
à¦¬ à¦ĩ
Ġà§ ®
Ġà¦Ĺ à¦°
Ġà¦Ń à¦¬
à¦¯ à¦ª
à§ĭ à¦ģ
Ġà¦īà§İ à¦ª
Ġà¦¨ à¦¬
Ġà¦¸à¦¹ à¦ľ
ĭ à¦£
Ġà¦¦ à¦¶à¦ķ
à¦ķ à¦ľà¦¨
à¦® à¦§
Ġà¦Ĺà¦£ à¦¤
à¦¹ à¦¸
à¦ĩ à¦¬
à¦ł à¦ķ
à§ ¯
Ġà¦Ĩà¦¸ à¦¨
à¦¾ ?
Ġà¦Ĩà¦¸ à¦Ľ
à¦¼à¦¾ à¥¤
Ġ :
Ġà¦ªà¦¦ à¦ķ
à¦¶ à¦®
Ġà¦Ĩà¦¸ à¦²
à¦° à¦ªà¦°
à¦Ł à¦°
Ġà¦ı à¦¨
Ġà¦Ĩ à¦ļ
à¦¥ à¦ķ
Ġà¦ľà¦¨ à¦¸
Ġà¦ļ à¦Ł
Ġà¦ľ à¦¡
Ġà¦ľ à¦¬
Ġà¦¬ à¦Ļ
Ġà¦¬ à¦¦à¦²
Ġà¦ ĭà¦£
Ġà¦ĩ à¦°
à§¦ à§¦
à¦® à¦ª
âĢĻ à¥¤
à¦² à¦®
à¦Ĺ à¦²
Ġà¦ħ à¦Ļ
Ġà¦Ĩ à¦¹à¦®
à¦¬ à¦¯
à¦ª à¦·
à¦ķ à¦°à¦£
Ġà¦Ĺà¦£ à¦®
Ġà¦ĺ à¦°
à¦Ĩ à¦ĩ
à¦¨ à¦Ĺ
Ġà¦Ĩ à¦ª
à¦ķ à¦ķ
à¦¯ à¦¥
Ġà¦ı à¦Ń
Ġà¦īà¦ª à¦¸
Ġà§§à§¯à§ Ń
à¦ª à¦¥
Ġà§§à§ «
à¦° à¦ľ
à¦Ń à¦°
à¦ľ à¦Ł
o m
Ġà¦ľ à¦¯
Ġà¦īà¦ª à¦ľ
Ġà¦® à¦ľ
à§Į à¦ģ
Ġà¦¦ à¦ĸà¦²
à§ĩ -
à¦° à¦°
à¦¤ à¦Ń
à¦ľ à¦¸
Ġà¦Ľ à¦¬
Ġà¦ħà¦¥ à¦¬
à¦¦ à¦®
à§ĩà¥¤ âĢĻ
à§ĭ :
à§ģ à¦ĥ
à¦« à¦°
à¦ķ à¦¶
Ġà¦¬ à¦ĩ
Ġà¦Ĺ à¦²
à¦Ł à¦¤
à¦ĺ à¦Łà¦¨
Ġà¦ķà¦° à¦ª
à¦Ĺ à¦¬à¦¨
Ġà¦¹ à¦ķ
Ġà¦ķà¦¤ à¦Ł
Ġà¦Ľ à¦¯
Ġà¦Ĩà¦ļ à¦°à¦£
Ġà¦ıà¦° à¦ªà¦°
à¦ĸ à¦ķ
Ġà¦ļ à¦°
à¦¿ )
Ġà¦īà§İ à¦¸
à¦Ĺ à¦®
Ġà¦¦ à¦¶à¦®
à¦ª à¦Ł
Ġà¦Ĩ à¦¹
à¦² à¦¸
c om
m a
à¦ī à¦¦
Ġà¦ ·
à¦° à¦ĸ
à¦¶ à¦¬
à¦® à¦Ĺ
Ġà¦Ĩà¦° à¦¬
Ġà¦Ĩà¦¸ à¦¤
Ġà¦Ĩ à¦§
Ġà¦Ĩ à¦«
. .
à¦Ń à¦¯
Ġà¦§ à¦¨
à§ĩ âĢĶ
Ġà¦ Ī
à¦ĩ à¦¸
Ġà¦ª à¦£
Ġà¦¶ à¦¬
Ġà§© à§¦
Ġà¦¨ à¦®
à¦ī à¦Ł
à¦¾. )
Ġà¦Ĩà¦¬ à¦¦
Ġà¦ĩ à¦¸
Ġà¦ħ à¦«
Ġà§§à§ ¨
Ġà¦Ľ à¦¡
Ġà¦ļà¦² à¦¤
Ġà¦ı à¦®
à¦ ¢
Ġà¦ĸ à¦°à¦ļ
Ġà¦ľà¦¨ à¦ª
à¦¬ à¦§
à¦¯ à¦¤à¦®
à¦¨ à¦Ń
à¦ī à¦ķ
Ġà¦Ĩà¦¶ à¦Ļ
à¦¹ à¦°à¦£
à¦® à¦ľ
à¦·à¦ķ à¦¦
à¦Ĺ à¦ķ
à¦ĵ à¦¤
à¦ŀ à¦¤
Ġà¦Ĩ à¦Łà¦ķ
à¦°à¦® à¦£
à§Ģ -
à¦Ĩ à¦²
Ġà¦¡ à¦²
à¦ľ à¦®
Ġà¦Ń à¦¬à¦¨
Ġà¦ı à¦¶
Ġà¦Ĩà¦¸ à¦¬
à¦¸à¦² à¦®
à¦ĸ à¦Ľ
Ġà¦ĩ à¦¯
à¦Ŀ à¦¤
à¦¬ à¦Ľà¦°
à¦¿ âĢĻ
à§ĩ ;
Ġà¦¨ à¦¨
à¦ľ à¦¤
Ġà¦² à¦¡
à¦Ĺ à¦ŀ
à¦§ à¦¬
à¦ı à¦®
Ġà¦Ĩà¦ĩà¦¨ à¦¶
à¦¿ ?
à¦ª à¦£
à¦² à¦Ł
à¦°à¦¹à¦£ à¦¯
Ġà¦¸ à¦ł
Ġà¦¸ à¦ª
à¦¼à§ĩ .
âĢ Į
Ġà§§à§¯à§ ¯à§
à¦° à¦Ĺà¦¤
Ġà¦ľ à¦²
Ġà¦Ĺ à¦Ń
à¦ķ à¦¨
à¦¸à¦® à¦¯
à§ģ -
Ġà¦ı à¦¦
Ġà¦ĺ à¦£
à¦§ à¦°
à¦¼ ?
Ġà¦ī à¦Ńà¦¯
Ġà¦ªà¦° à¦ĵ
Ġà¦¬à¦² à¦¬
Ġà¦¦à¦² à¦Ĺ
à¦ĸ à¦¬
à¦ĺ à¦°
à¦² à¦Ĺ
Ġà¦ªà¦° à¦¬à¦°
Ġà¦¨ à¦ľà¦°
à¦° à¦ľà¦¨
à¦Ĺ à¦¬
Ġà¦¹ à¦ľ
à¦¹ à¦¨
Ġà§§à§ ®
Ġà§ ¯
Ġà¦ıà¦ķ à¦¦
à¦¤ à¦²
à¦Ĩ à¦¨
Ġà¦Ĳ à¦ķ
à¦¹ à¦¬
à¦Ĩ à¦°
Ġà¦Ī à¦¦
Ġà¦¶ à¦¹
Ġà¦¨ à¦Ĺà¦°
Ġà¦¸à¦® à¦¨
à¦ľ à¦ķ
à¦¥ à¦¤
i l
Ġà¦Ĩà¦¦ à¦°
à¦¸ à¦Ń
Ġà¦ĩ à¦¸à¦°
Ġà§§à§ ª
à¦¤à¦¬ à¦¤
Ġà¦ħ à¦²
Ġà¦« à¦°
à¦¨ à¦ĩ
à§ģ .
Ġà§¨à§ «
à¦§ à¦ķ
Ġà¦ļ à¦°à¦®
Ġà¦¦ à¦®à¦¨
à¦ģ à¦¾
à§Ģ ?
Ġà¦Ĩà¦¨ à¦¨
Ġà¦ı à¦¡
Ġà¦ĩ à¦®
Ġà¦ħ à¦®
Ġà¦ĩ à¦ļ
à¦· à¦ľ
à¦ķ à¦Ĺ
à¦ľ à¦§
Ġà¦ħà¦¬ à¦ķ
à¦¼à§Ģ .
à¦¶ à¦¤
à¦ª à¦¡
Ġà¦¶ à¦°à¦£
ma il
Ġà¦Ĳ à¦¤
à¦ħ à¦¨
à§ĩ âĢĻ
Ġà¦ķ à¦·
Ġà¦Ĩ à¦ĵà¦¤
Ġà§¨à§¦à§§à§ ª
Ġà¦ıà¦° à¦¶
Ġà¦ıà¦ķ à¦¬
Ġà¦Ĩà¦ĩ à¦ıà¦¸
à¦¿ à¦ĥ
à¦¦ à¦ª
Ġà§§à§ ¬
à¦Ĺ à¦¨
à¦ī à¦°
à¦¨ à¦ĵ
à¦ļ à¦°
à¦ĩ à¦¡
à¦ķ à¦®
Ġà¦¤ à§İ
à¦Ńà¦¬ à¦¤
g mail
Ġà¦Ĩ à¦¡
à¦ī à¦²
à¦°à¦¸ à¦Ļ
à¦° à¦¥
Ġà¦® à¦¸
Ġà¦¸ à¦«à¦°
Ġà¦ªà¦° à¦°
Ġà¦ħ à¦ľ
Ġà¦ıà¦ķ à¦®
à¦¬à¦¹ à¦¨
Ġà¦Ĩ à¦Ł
Ġà§§à§ §
à¦£ à¦¬
Ġà¦ª à¦²
à¦¾à¥¤ âĢĻ
à¦¾ âĢĵ
à¦¸ à¦¡
Ġà¦¨ à¦ľ
à¦® à¦°à¦£
Ġà§§à§ ©
à¦¬ à¦ľà¦¨
Ġà¦¸à¦¬ à¦ķ
à¦ľ à¦¬
Ġà¦¹ à¦°à¦¤
Ġà¦° à¦ª
Ġà¦¦ à¦«
Ġà¦Ĩà¦¨ à¦¤
à¦¤ à¦¦
à¦¼ -
Ġà§« à§¦
Ġà¦Ĩà¦Ĺ à¦¸
à¦ĩ à¦Ľ
à¦² à¦Ń
à¦® à¦ļ
Ġà¦¸ à¦«à¦²
à¦¸ à¦Ļ
Ġà¦Ĩà¦® à¦¦
Ġà¦Ĩà¦ľ à¦ķ
Ġà¦¹ à¦¸
Ġà¦ĺ à¦¨
Ġà¦¬ à¦Ł
à¦Ĩ à¦®à¦°
à¦® à¦¹
Ġà¦ľ à¦Ł
Ġà¦ħ à¦¬à¦°
Ġà¦ħà¦¸ à¦®
à¦¯ à¦ĵ
à¦ĩ à¦¤
à¦ĺ à¦¨
à¦ª à¦°à¦¤
Ġà¦ıà¦ķ à¦¸à¦®à¦¯
à¦¾ âĢĶ
à¦² à¦ĺ
à¦¸ à¦°à¦£
Ġà¦° à¦¬
à¦¦ à¦¶
à¦°à¦£ à¦¯
Ġà¦¸ à¦¤à¦°
Ġà¦ľà¦¨ à¦Ĺ
à¦¬ à¦®
à¦ª à¦¸
Ġà§ª à§¦
Ġà¦¨ à¦Ń
à¦ĩ à¦ľ
à¦¦ à¦¯
Ġà¦ı à¦ª
à§İ à¦¸à¦ķ
Ġ à§ģ
à¦Ĺ à¦ľ
à¦°à¦¬ à¦£à¦¤
à§ĩ !
à¦£ à¦¦
Ġà¦¸à¦® à¦Ŀ
à§ģ à¥¤
à¦¶ à¦ĩ
à¦Ł à¦Ń
Ġà§¨à§¦à§§à§ ©
Ġà§ ¯à§
à¦ľ à¦¶
Ġà¦° à¦®à¦ľ
à¦¯ à§İ
à§¨ à§¦
Ġà§¨à§¦à§§à§ «
à¦ĵ à¦°
Ġà¦ħ à¦¶
à¦¥ à¦²
à¦² à¦¦
à¦Ł à¦®
à¦Ń à¦ķ
Ġà¦īà¦ª à¦¯
Ġà¦ĩ à¦²
Ġà¦® à¦¹à¦²
Ġà§§à§ Ń
à¦ı à¦«
à¦¼ à¦Ĥ
Ġà¦¬ à¦ŀ
Ġà¦īà¦ª à¦¦
à¦¾ ;
Ġà¦¬ à¦ľ
Ġà¦¯ à¦¨
Ġà¦® à¦¯
Ġà¦¬ à¦¸à¦¬
Ġ à¥¤
Ġà¦ĩà¦¨ à¦¸
à¦¡ à¦¨
Ġà¦¸à¦° à¦¬à¦°
à¦¤ à¦ª
Ġà§§à§¯à§ ®
Ġà¦¦à¦² à¦Ł
Ġà¦ħà¦¸ à¦¹
Ġà¦Ĺ à¦ł
à¦¸ à¦ļ
) .
à¦ļà¦¨ à¦ķ
Ġà§¨à§ ª
Ġà¦¤à§İ à¦ªà¦°à¦¤
à¦ļ à¦Ł
Ġà§¨à§¦à§§à§ ¬
à¦¯ à¦Ł
à¦°à¦¦ à¦°
à¦° à¦®à¦¨
Ġà¦ķ à¦Ł
à§į âĢĮ
à¦² à¦Ľ
Ġà¦īà¦ł à¦¤
à§§ à§¦
à¦¨ à¦¶
à¦¦à¦° à¦¬à¦¨
à¦¾ :
à¦¤ à¦°à¦£
à¦°à¦¸ à¦¨
à¦¨ à¦ªà¦¤
à¦¬ à¦Ń
à¦¦ à¦¦
Ġà¦īà§İ à¦¸à¦¬
à¦ıà¦¸ à¦¸
à¦¨ à¦²
à¦¦ à¦£
Ġà¦Ĩ à¦ķà¦°
à¦ľ à¦²
à¦ĩ à¦Ń
à¦· à¦°
Ġà¦® à¦ŀ
Ġà¦ķ à¦¨
Ġà¦Ĩà¦¹à¦® à¦¦
Ġà¦ļà¦² à¦¬
à¦² à¦²
à¦Ł à¦ª
à¦ı à¦ķ
Ġà¦ī à¦¡
Ġà¦Ĩà¦² à¦®
Ġà¦Ĩ à¦¹à¦¤
Ġà¦ĵ à¦°
à¦¬ à¦ļ
Ġà¦ª à¦¬
Ġà¦ĵ à¦¬
à¦ª à¦¯
Ġà¦ħà¦¬ à¦¦
Ġà¦¨ à¦°
à¦ı à¦¸à¦¬
Ġà¦ļ à¦ķ
à¦¦ à¦ªà¦¤
Ġà¦ª à¦ŀ
Ġà¦ª à¦Ľà¦¨
à¦ĺ à¦¦
à¦¹ à¦ķ
Ġà¦īà¦ª à¦ķ
Ġà¦¸ à¦ŀ
Ġà¦Ĩà¦« à¦Ĺ
à¦ı à¦Ł
Ġà¦² à¦Ļ
Ġà¦ķ à¦²à¦ķ
Ġ à§ĭ
à¦° à¦Ĩà¦¨
Ġà¦¨ à¦·
Ġà¦Ĩ à¦ŀ
Ġà¦ĺà¦Ł à¦Ľ
à¦£ à¦®
Ġà¦¹à¦ľ à¦°à¦¤
Ġà¦¶ à¦¨
Ġà¦¹ à¦ł
à¦« à¦¤
à¦Ł à¦²
Ġà§¨à§ ¨
Ġà¦ĵ à¦·
à¦¤ à¦ĩ
Ġà¦Ĩà¦ĩà¦¨ à¦ľ
à¦² à¦ª
Ġà¦ıà¦ķ à¦§
Ġà¦¦ à¦£
Ġà¦ª à¦¯
Ġà¦® à¦®à¦¤
à¦Ĺ à¦¦
Ġà¦ļ à¦¤
à¦ĺ à¦Ł
Ġà¦ıà¦ķà¦§ à¦°à¦¨
Ġà¦Ĩ à¦ĺ
Ġà¦ħ à¦¯
a n
Ġà¦ Ĭ
à¦ĸ à¦¯
Ġà§§à§¦ à§¦
Ġà¦¤ à¦¦
à¦Ł à¦¬
à¦ĩ à¦®
à¦¼ ;
à¦£ à¦¨
Ġà¦¦à¦² à¦ķ
à¦ı à¦®à¦¨
à¦¾ !
à¦Ł à¦¸
à¦¬ à¦°à¦£
Ġà¦ıà¦¤ à¦Ł
Ġà§§à§ ¯
à¦ı à¦¬
à¦ķ à¦¥
à¦¶ à¦¯
à¦ķ à¦ĩ
Ġà¦ī à¦Ĺ
à¦®à¦¬ à¦Ļ
à¦Ĺ à¦¡
Ġà¦¸à¦¹ à¦ķ
Ġà¦² à¦¨
à¦ļ à¦®
Ġà¦ı à¦ľ
à¦Ń à¦Ļ
à¦¥ à¦®à¦¨
à¦ī à¦¸
à¦¨à¦¬ à¦¤
à¦ Ī
Ġà¦¤ à¦²
à¦¬à¦¸ à¦®
Ġà¦ħà¦¬ à¦¹
à¦¬ à¦ľ
Ġà¦¯à¦¤ à¦Ł
Ġà¦¸ à¦«
à¦ķ à¦¡
à§ĩ :
à¦· à¦Ń
Ġà¦ĩ à¦Ļ
Ġà§¨à§ §
Ġà¦® à¦Ļ
à¦¼à¦¾ -
âĢĻ -
Ġà¦« à¦¸à¦²
Ġà¦ħ à¦¦
Ġà¦īà¦ł à¦Ľ
Ġà¦Ĭ à¦°
Ġà¦¦ à¦ª
à¦Ĺà¦¤ à¦Ń
à§§à§ ¯à§
Ġà¦ĩ à¦¬
à¦« à¦¸
Ġà¦¬ à¦ĩà¦¯
à¦¨ à¦¬à¦¨
à¦ľ à¦¦
Ġà§¨à§ ®
à¦ķ à¦Ľ
à¦¦ à¦Ł
Ġà§¬ à§¦
Ġà¦® à¦¡
à¦¯ à¦®à¦¨
à¦ī à¦ľ
à¦¿à¥¤ âĢĻ
à¦¤à¦¨ à¦¤
Ġà§¨à§ Ń
à¦°à¦¬ à¦²
à¦£ à¦Ĺà¦ŀ
Ġà¦ī à¦ľ
à¦ª à¦²
Ġà¦ķ à¦ķ
Ġà¦Ĺà¦£ à¦¹à¦¤
Ġà¦Ĺ à¦¨
Ġà¦ıà¦®à¦¨ à¦Ł
à¦°à¦ļ à¦²
à¦® à¦ªà¦¨
à¦ĸ à¦°
à¦¨ à¦ľ
Ġà¦¤ à§İà¦ķ
à¦¸ à¦¯
à¦¤ à¦Ł
Ġà¦ªà¦¦ à¦¤
Ġà§¨à§ ©
âĢĻ .
.. .
Ġà§¨à§¦à§§à§ Ń
Ġà§Ń à§¦
Ġà¦ľà¦¨à¦Ĺà¦£ à¦ķ
à¦¨à¦¤ à¦®
à¦¨ à¦¶à¦¨
à¦¸ à¦®à¦°
à¦¶ à¦¸
Ġà§¨à§¦à§§à§ ¨
Ġà¦ľ à¦²à¦¬
à¦ľ à¦Ĺ
Ġà§§à§¯à§ ¬
Ġà¦Ĩ à¦ªà¦¤
à¦ļ à¦¶
Ġà¦¸à¦¨ à¦¦
Ġà§¨à§¦à§§à§ §
à¦Ĺ à¦ĩ
à¦¨ à¦¹
Ġà¦Ĩ à¦ĸ
Ġà¦ıà¦ķ à¦ķ
Ġà¦ļà¦² à¦®
Ġà¦¤à¦ĸà¦¨ à¦ĩ
à¦ķ à¦ļ
Ġà¦īà¦ł à¦²
Ġà¦ħà¦¨ à¦²
à¦ķà¦¸ à¦ĩ
Ġà¦®à¦¸ à¦ľ
à¦¿ âĢĶ
Ġà§¨à§¦à§¦ à§®
à¦¨ à¦Ĺà¦°
Ġà¦ĺà¦Ł à¦²
à¦ı à¦²
Ġà§¨à§ ¬
à¦¸ à¦Ł
à¦²à¦¨ à¦ķ
à¦°à¦ªà¦° à¦ĵ
Ġà¦ī à¦ªà¦¨
à§Ģ :
à¦ĩ à¦«
à¦°à¦¥ à¦®à¦¤
Ġà¦ķ à¦£
Ġà§§à§¯à§Ń à§§
à¦ī à¦¬
à¦¦ à¦¤
à¦² à¦°
à¦°à¦£ à¦¤
à¦Ľ à¦¤
à¦¯ à¦Ń
à¦¶ à¦ª
Ġà¦ªà¦° à¦®
Ġà¦ıà¦ķ à¦¸à¦Ļ
Ġà§® à§¦
Ġà¦ī à¦ªà¦°
Ġà§§à§¯à§ «
Ġà¦ªà¦° à¦ªà¦°
à¦ķ à¦¯
à¦¨ à¦ľà¦Ł
à¦² à¦Ļ
Ġà¦īà¦ª à¦²à¦¬
à¦Ł à¦¦
à¦ı à¦ķà¦Ł
Ġà¦Ĩà¦¤ à¦Ļ
à¦² à¦ľ
à¦Ĺ à¦ĵ
à¦¨ à¦¸à¦®
à¦£ à¦ķ
Ġà¦ķà¦® à¦¬
Ġà§¨à§¦ à§§à§¦
à¦ī à¦ĩà¦¯
à¦® à¦¹à¦¤
Ġ .
Ġà¦¹ à¦ĩ
Ġà¦§ à¦°à¦¤
Ġà¦ª à¦¤à¦¨
à¦ł à¦¤
Ġà¦Ĩ à¦Ļ
à¦ķ à¦¶à¦¨
à¦ª à¦ľ
Ġà¦² à¦ľ
à¦ļ à¦¤
à¦¥ à¦Ĺ
à¦¶à¦¨ à¦ķ
Ġà¦ľà¦¨ à¦¤
Ġà¦īà¦ł à¦¬
à¦Ĩ à¦ĩà¦¨
à¦£ à¦Ń
à¦Ĺ à¦Ĺ
Ġ à§Ģ
à¦¸ à¦¸
à§Ģ âĢĻ
à§ĭ ?
à¦ĩ à¦ī
à¦¬à¦¨ à¦¯
à¦° à¦¬à¦°
Ġà¦ħà¦ª à¦¸
à¦ľà¦¨ à¦¶
Ġà¦· à¦¡
à¦Ĺ à¦¸
Ġà¦ıà¦ĸà¦¨ à¦ĩ
à¦® à¦®
à¦¡ à¦¬
à¦¶ à¦°
à¦§ à¦®
à¦¬ à¦¤à¦¨
à§ĭ -
à¦°à¦¸ à¦¹
à¦ī à¦ĩ
à¦¬à¦² à¦¤
à¦°à¦ķ à¦¦
à¦ļ à¦¬
Ġà¦ĵ à¦¦
à¦¿ :
Ġà¦¶ à¦Ļ
Ġà¦ļ à¦¡
à¦ľ à¦ª
à¦° à¦«
Ġà¦ªà¦° à¦¸
Ġà§© à§«
à¦¿ ;
à¦¨ à¦ª
à¦¬ à¦Ł
Ġà¦¬à¦¹ à¦¨
Ġà§§à§¯à§ ª
Ġà§¨à§¦à§¦ à§¯
Ġà¦¦à¦° à¦ľ
à¦¦ à¦¸
à¦§ à¦ķà¦¤
à¦ĵ à¦²
à¦¥ à¦¬à¦Ľà¦°
Ġà¦¬à¦¸ à¦¤
Ġà¦Ń à¦Ļ
a l
à¦¾ )
à¦² à¦¶
à¦¶ à¦ĵ
à¦¦ à¦¬
à¦¥ à¦°
à¦¡ à¦²
Ġà¦ı à¦®à¦ª
Ġà¦ĺà¦Ł à¦¤
Ġà¦ħà¦¬à¦¸ à¦°
Ġà¦Ĩà¦¶ à¦ª
Ġà§¯ à§¦
à¦¥ à¦¬
à§¨à§¦ à§§à§
à¦ĸ à¦£
à¦¬ à¦¡
à¦® à¦¶
Ġà¦¸ à¦¦à¦°
à¦· à¦ĩ
à¦¼à¥¤ âĢĻ
à¦ļ à¦¡
Ġà¦¸à¦¬ à¦ĩ
Ġà¦ħà¦ª à¦¬
à¦¶ à¦¦
Ġà¦ıà¦ķà¦ĩ à¦Ń
Ġà¦ª à¦¨
Ġà¦ĸ à¦¨
à¦Ń à¦°à¦¶
h o
Ġà¦Ł à¦¨
à§ĩ )
Ġà¦ħ à¦Ł
Ġà¦¯à¦¤ à¦ĩ
à¦Ł à¦¬à¦²
à¦ª à¦®
Ġà¦¨à¦ľ à¦°à¦¦
Ġà¦¶à¦¤ à¦ķ
? âĢĻ
à¦¨ à¦ľà¦¨
à¦¿ à¦ģ
à¦Ĺ à¦ł
Ġà¦ Ķ
Ġà§¨à§¦à§§à§ ®
Ġ âĢ
Ġà¦¦ à¦¶
Ġà¦Ĩà¦® à¦¨
Ġà¦¨ à¦¡
à¦® à¦¡
à¦ľ à¦īà¦¦
i n
à¦·à¦ķ à¦¤
Ġà¦Ń à¦°à¦¸
Ġà¦ĩ à¦ķ
à¦¹ à¦Ń
Ġà¦ıà¦ķ à¦®à¦¤
à¦ľ à¦¤à¦¨
à¦¼ âĢĶ
Ġà¦¸ à¦¶à¦¸
Ġà¦ħà¦ª à¦¹à¦°à¦£
Ġà¦Ĩà¦ľ à¦ĵ
à¦¨ à¦ļ
à¦¡ à¦ķ
Ġà¦ĺà¦Ł à¦¬
à¦ħ à¦°
Ġà¦Ĩà¦ĩ à¦¸
Ġà¦Ĺà¦¤ à¦ķ
Ġà¦¤ à¦¹à¦¬
Ġà§¨à§ ¯
Ġà¦ı à¦«
à¦Ĩ à¦ªà¦¨
. )
à¦ħ à¦Ń
à¦¼à¦¾ à¦Ĥ
Ġà¦īà¦ª à¦²à¦ķ
à¦Ĺà¦łà¦¨ à¦Ĺ
à¦ĩ à¦®à¦¸
Ġà¦ķà¦° à¦£
à¦°à¦¸ à¦Ń
Ġà¦® à¦¶
à¦® à¦£
à¦« à¦²à¦¨
Ġà¦ķ à¦ª
Ġà¦ħ à¦ļà¦²
à¦¨ à¦¸à¦¹
Ġà¦ĩ à¦®à¦°
à¦· à¦ª
Ġà¦¸ à§İ
Ġà¦ħ à¦¹
Ġà¦ľà¦¨ à¦ķ
à¦ĵ à¦¨
à¦¨ à¦®à¦¤
à¦¼ âĢĻ
à¦¸à¦¨ à¦ķ
Ġà¦¤à¦° à¦«
à¦Ĩ à¦¬
Ġà¦ĸ à¦¸à¦¡
à¦¤ à¦¶
h a
Ġà¦¬ à¦¦
Ġà¦¨ à¦ĵà¦¯
Ġà¦ħà¦¨ à¦¨
à¦Ĺ à¦Ł
à¦ķ à¦·
à¦¯ à¦Ĺ
Ġà¦° à¦¹
Ġà¦ĸ à¦¤
à¦ªà¦° à¦¬à¦°
Ġà¦¶ à¦ªà¦¥
ï ģ
Ġà¦ī à¦¸à¦ķ
Ġà¦ļà¦² à¦ļ
à¦ľ à¦ªà¦¥
à§İ à¦ªà¦°
Ġà¦° à¦ļà¦¨
à¦· à¦Ĺ
Ġà¦Ĩà¦ĩà¦¨ à¦Ł
Ġà§¨à§¦à§¦ à§§
à¦¹ à¦ľ
à¦Ĺ à¦ª
à¦¬ à¦Ľ
ïģ ¬
Ġà¦ıà¦ĩ à¦ļ
à¦¬ à¦£
à¦¹ à§İ
à¦§ à¦Ń
à¦² à¦«
Ġà¦ıà¦ķ à¦¤
à¦¬ à¦ĵ
Ġà¦ĩ à¦ŀ
à¦ĩ à¦¦
à¦¿ !
Ġà¦¹ à¦°
à¦®à¦¨ à¦Ł
à¦ĩ à¦ª
Ġà¦¬ à¦Ĺ
y a
à¦¯à¦¬ à¦§
Ġà¦ıà¦° à¦ĩ
à¦ķ à¦ª
Ġà§© à§¦à§¦
à¦¦à¦¨ à¦¶
à¦® à¦°à¦¤
Ġà¦ľà¦¨ à¦®à¦¤
Ġà¦ĸ à¦£
ho o
à¦ª à¦¶
à¦£ à¦¹
à¦¤à¦° à¦«
à¦¸ à¦«
Ġà¦¸ à¦ľ
Ġà¦° à¦¸
à¦® à¦Ł
à¦Ł à¦ĵà¦¯
à¦¹ à¦¯
à¦ĸ à¦ľà¦¨à¦ķ
à§ ¯à§
Ġà§ª à§«
à¦ķà¦¸ à¦Ń
ya hoo
à¦¼à¦¿ .
à¦¤ à¦ĵ
âĢ Ŀ
Ġà¦¤ à¦«à¦¸
Ġà¦ħà¦ª à¦®
r a
Ġà§« à§¦à§¦
à¦Ĺ à¦°à¦£
à¦¨ à¦Ľ
Ġà¦« à¦°à¦®
Ġà¦Ĺ à¦Ńà¦°
Ġà¦ĩ à¦¹
à¦ı à¦ĸà¦¨
ĠâĢ ľ
à¦°à¦¸ à¦°
à¦° à¦¬à¦¨
Ġà§© à§§
Ġà¦ıà¦ķ à¦¤à¦°à¦«
à¦ĺ à¦®
Ġà¦īà¦ª à¦¹
Ġà¦ıà¦ķ à¦¦à¦²
à¦ķ à¦¤à¦°
Ġà¦¨ à¦¥
Ġà¦¸à¦® à¦¤
à¦Ł à¦Ľ
à¦ķ à¦ĵ
à¦¤ à¦¸
à¦¼ !
à¦°à¦¦ à¦²
Ġà¦¸à¦® à¦Ĺ
Ġà¦§ à¦¸
Ġà¦° à¦¹à¦¸
à¦¾à¦ģ .
Ġà¦¸à¦¹ à¦ķà¦°
Ġà¦ĩ à¦¶à¦¤
à¦¯ à¦ľà¦¨à¦ķ
à¦Ĩ à¦¸
Ġà§© à§¨
à¦ļ à¦°à¦£
à¦ĵ à¦Ń
à¦ªà¦ķ à¦Ń
à¦°à¦¥à¦® à¦¬
à¦¬ à¦¦à¦²
à¦¥ à¦¸
Ġà¦¸ à¦ķà¦²
Ġà¦īà¦ª à¦®à¦¹
à¦Ĺ à¦Ľ
à¦®à¦¨ à¦¸
Ġà¦¨ à¦Ĺ
Ġà¦ĩ à¦«à¦¤
Ġà¦¦ à¦®
à¦ħ à¦¬
à¦° à¦ªà¦¨
à¦¸à¦¨ à¦¬
Ġà¦ķ à¦¨à¦¸
à¦¶ à¦ķà¦¤
Ġà¦¯ à¦¶
à¦°à¦ļ à¦£
Ġà§§à§¯à§¯à§ ¬
à¦ª à¦Ĺ
Ġà¦ħà¦¤ à¦ıà¦¬
âĢĮ à§į
Ġà¦ħ à¦¬à¦¨
Ġà¦ªà¦° à¦ĩ
âĢ į
à¦® à¦ĺ
Ġà¦ªà¦° à¦¦
Ġ ïģ¬
à¦· à¦Ł
Ġà¦Ĩà¦¬ à¦¶
à¦¿ âĢĵ
Ġà¦¹ à¦¨à¦¨
o n
Ġà¦Ŀ à¦¡
Ġà¦ıà¦¨ à¦ľ
à¦ī à¦ª
Ġà¦ħà¦¬ à¦®
Ġà¦ľ à¦Ĺà¦¤
à¦ĵ à¦¬
à§¨ à§¦à§¦
Ġà¦ī à¦°
Ġà¦® à¦£
Ġà¦® à¦¦
Ġà¦ļ à¦¨
à¦Ĺ à¦²à¦¬
Ġà¦Ĺ à¦°à¦®
Ġà¦ī à¦ķ
à¦¶ à¦ľ
à¦¼à§Ģ à¥¤
Ġà§§à§ §à§
âĢį à§į
à¦¯ à¦ľ
à¦ĸ à¦¬à¦°
Ġà¦ķ à¦¡
Ġà¦ľà¦¨à¦¸ à¦Ń
Ġà¦Ŀ à¦°
à¦¡ à¦®
à¦¬à¦² à¦®
à¦¡ à¦¸
Ġà¦ĩ à¦ľ
à¦ħ à¦§
à§© à§¦
Ġà¦¤à¦¤ à¦Ł
Ġà¦ĸà¦¬à¦° à¦Ł
Ġà¦Ĩà¦ļà¦°à¦£ à¦¬
à¦¤ à¦Ĺ
à¦¤ à¦ľ
à¦ł à¦ª
Ġà§¨à§¦à§¦ à§Ń
Ġà§¨à§¦à§¦ à§¬
à¦® à¦ĵ
Ġà¦ £
à¦£ à¦Ĺà¦¤
Ġà¦« à¦ľà¦²
Ġà¦ıà¦ķ à¦¦à¦®
Ġà¦Ĺà¦£ à¦ªà¦°
Ġà¦®à¦¨ à¦¸
Ġà¦¬ à¦£
Ġà¦¸à¦« à¦²à¦¤
Ġà¦ Ĥ
à¦² à¦ļ
à¦ļà¦¨ à¦Ł
à¦°à¦® à¦¬à¦°
à¦¾.) -
Ġà¦ĸ à¦°
¯ à§¦
à¦¤ à¦ªà¦ķ
Ġà¦¦ à¦¯
à¦¡ à¦°
Ġà¦Ń à¦¦
à¦« à¦Ł
à¦°à¦¤ à¦ķ
b d
Ġà¦ħ à¦ļ
à¦· à¦ĵ
Ġà¦ħà¦¬ à¦²à¦®
à¦Ī à¦¦
Ġà¦ªà¦°à¦ªà¦° à¦ĩ
à¦ľà¦¨ à¦ķà¦Ń
Ġà¦ıà¦° à¦¦
à¦² à¦ĵà¦¯
à¦°à¦¨ à¦Ĺà¦°
Ġà¦ħà¦¬à¦¨ à¦¤
à¦¬ à¦ķà¦¦
Ġà¦¶à¦¤ à¦ķà¦°
à¦¼ à¦¿à¥¤
à¦¥ à¦ķà¦¦
Ġà¦« à¦ĸà¦°
Ġà¦ĵà¦ªà¦° à¦ĩ
Ġà§§à§¯à§Ń à§¨
Ġà§§à§¯à§¯à§ §
à¦¼ à§į
Ġà¦Ĺà¦£ à¦Ń
Ġà¦ıà¦ķ à¦ªà¦°
Ġà¦ħ à¦Ĺà¦£
Ġà¦¶à¦¤ à¦Ń
à¦ī à¦¤
à¦¾âĢĻ à¥¤
h an
o h
Ġà¦° à¦Ļ
à¦°à¦¹à¦£ à¦ķ
Ġà¦¸à¦¤ à¦¤
Ġà§« à§Ń
à¦¶à¦² à¦Ĺà¦¤
à¦Ĺ à¦ľà¦¨à¦ķ
Ġà¦¤à§İ à¦ªà¦°
Ġà¦ıà¦ķ à¦ļ
à¦¯ à¦¹
Ġà¦ķ à¦¦à¦°
à¦ķ à¦®à¦¤
Ġà¦ı à¦ĸà¦¤
à¦² à¦¥
Ġà§ª à§¨
à¦® à¦Ń
Ġà¦Ĩ à¦ĩà¦¯
à¦°à¦¸ à¦«
Ġà¦ĩà¦ī à¦ª
Ġà¦ıà¦ķ à¦¨
e r
Ġà¦ı à¦¯
t h
Ġ âĢĻ
à¦¸à¦¦ à¦¦
Ġà§© à§©
Ġà¦ĩ à¦Ł
à¦ı à¦Ĺ
Ġà¦¤à¦¤ à¦ĩ
Ġà¦° à¦¶
à¦¤à¦ķ à¦°à¦£
Ġà¦ĵ à¦¸à¦®
Ġà¦¬ à¦ĩà¦Ł
à¦Ļ à¦ļ
Ġà¦ĩà¦ī à¦ķ
Ġà¦Ĩà¦¬ à¦¹
Ġà§© à§¬
Ġà¦¤ à¦¨
Ġà¦ķà¦® à¦ªà¦ķ
à¦°à¦² à¦¬
à¦ķ à¦ľà¦¨à¦ķ
à¦² à¦ĸ
à¦°à¦¹à¦£ à¦®
à¦² à¦ĵ
Ġà¦ıà¦ķ à¦°
à¦¿ )à¥¤
Ġà¦ħ à¦¸à¦¨
a r
à¦ª à¦¬
Ġà¦ĩà¦ī à¦ıà¦¨
Ġà¦¬ à¦¸à¦¨
Ġà¦¸à¦® à¦¬
Ġà¦ļ à¦®à¦ķ
à¦ŀ à¦°
Ġà¦ķ à¦¬à¦°
Ġà¦¨ à¦ķà¦¶
à¦ī à¦®
Ġà¦ĩ à¦¦
à¦°à¦¤ à¦°
à¦¬ à¦¬à¦°
à¦¯ à¦Łà¦¨
à¦¬ à¦ĩà¦¯
Ġà¦ıà¦®à¦¨ à¦Ń
à¦ŀ à¦¦
à¦¦à¦¨ à¦ķ
Ġà¦®à¦¤ à¦¬
à¦¨ à¦¡
à¦¶ à¦Ń
à¦°à¦ķ à¦Ł
à¦¬ à¦°à¦¤
Ġà¦Ĩà¦ĩà¦¨ à¦Ĺà¦¤
à¦¸ à¦ĵ
Ġà¦ľà¦¨ à¦¸à¦®
à¦§ à¦¸
à¦§ à¦Ĺà¦®
Ġà¦ħ à¦·
Ġà¦ĺ à¦°à¦¬
à¦Ĩ à¦Ĺ
à¦¬ à§İ
à¦® à¦ªà¦°
Ġà¦ħà¦ª à¦ļà¦¯
Ġà¦ħà¦ª à¦ķà¦°
Ġà¦®à¦¤ à¦ª
Ġ s
à¦ī à¦¡
Ġà§§à§¯à§ ¯à§¦
à¦® à¦ĺà¦Ł
Ġà¦ĩ à¦Ń
à¦¯à¦¬ à¦¦
Ġà¦Ł à¦ķ
Ġà§Ń à§«
à¦°à¦¬ à¦¹
Ġ l
Ġà¦¨ à¦ĩ
à¦°à¦£ à¦Ń
à¦Ł à¦Ł
Ġà¦ħà¦¬ à¦¤
Ġà¦ļà¦² à¦²
à¦¯à¦¥ à¦Ń
à¦Ĩ à¦ĩà¦¯
à§§à§ «
à¦ ĭà¦£
à¦¼ :
Ġà¦ļ à¦®
à¦¼à¦¾ âĢĻ
Ġà¦¦à¦² à¦ĩ
à¦²à¦ķ à¦¦
à¦·à¦£ à¦¶
Ġà¦ļà¦°à¦® à¦ªà¦¨
Ġà¦¨ à¦«à¦²
à§Ģ à¦Ĥ
Ġà¦ľà¦¨ à¦®à¦¨
à¦·à¦ķ à¦ķ
Ġà¦Ĩà¦Ł à¦Ł
k han
à¦¸ à¦ķà¦¦
à¦ļ à¦ľà¦¨
m u
Ġà§ª à§®
à¦¨ à¦ªà¦¨
à¦¤ à¦°à¦ķ
à¦¾à¦Ĥ .
à¦Ļ à¦¨
Ġà§¨à§¦ à§¨
Ġà¦ħ à¦¦à¦ķ
à¦ĵ à¦¦
à¦ľ à¦ĵ
Ġà¦¶ à¦¯
Ġà¦° à¦®
à¦Ń à¦¨
Ġà¦® à¦²
Ġà¦¬à¦ĩ à¦®
à¦« à¦¨
à¦²à¦ķ à¦Ń
Ġà§© à§ª
à¦°à¦£ à¦ķ
à¦² à¦§
à¦® à¦ŀ
Ġà¦ĵ à¦ĸ
à¦² à¦ĩ
à¦Ĺ à¦ªà¦¤
Ġà¦ĸ à¦¨à¦¨
à¦ıà¦ĩ à¦ļ
à¦ıà¦¨ à¦ľ
à¦Ł à¦°à¦¸
à¦Ĩ à¦ĩà¦¬
à¦°à¦§ à¦°
à¦ħ à¦¸
à¦¶ à¦Ĺà¦¤
à¦Ĩ à¦¦
Ġà¦® à¦ķ
Ġ à§ĩà¥¤
Ġà¦ıà¦¸ à¦ıà¦¸à¦¸
Ġà¦Ĳà¦ķ à¦®à¦¤
Ġà¦¸ à¦ĩ
Ġà¦² à¦®
à¦¤ à¦«
Ġà¦Ķ à¦ªà¦¨
à¦Łà¦® à¦¹à¦²
Ġà§¬ à§«
à¦¸ à¦Ĺ
à¦°à¦ķ à¦®
Ġà¦¦à¦ĸà¦² à¦¦
à¦° à¦¸à¦¬
Ġà§« à§ª
Ġà¦Ĩà¦ª à¦¸
Ġà¦ī à¦·
à¦¬à¦¨ à¦ķ
à§ĩ? âĢĻ
Ġà¦ıà¦®à¦¨ à¦ĩ
à¦ħ à¦¬à¦°
Ġà§¨à§¦à§§à§ ¯
Ġà¦° à¦¤
Ġà¦Ĩ à¦Ń
Ġ [
à¦ª à¦ļ
Ġà¦° à¦«
Ġà¦Ĺà¦£ à¦ª
Ġà¦īà§İ à¦ķ
à¦®à¦¸ à¦®à¦°
r o
Ġà¦¬à¦° à¦ĸ
Ġà¦¨à¦¬ à¦ľ
à§ģ âĢĻ
Ġà§ª à§©
à¦² à¦®à¦¨
Ġà¦ª à¦Ļ
Ġà¦ļà¦® à§İà¦ķ
à¦ĸ à¦ª
Ġà¦ıà¦ĸà¦¨ à¦ķ
Ġà§¨à§¦à§¦ à§«
Ġ *
Ġà¦¸ à¦ĵà¦¯
à¦ıà¦¸ à¦ª
Ġà¦ķ à¦®à¦¤
à¦ª à¦ª
à§ĩ âĢĻà¥¤
Ġà¦īà¦ªà¦° à¦¨
à§ĭ âĢĻ
à¦ī à¦¯
à¦ľ à¦ķà¦°
Ġà¦Ĩà¦¶ à¦°
à¦ĩà¦ķ à¦®
Ġà§« à§«
à¦° à¦Ļ
à¦¹ à¦ķà¦°
à¦¡ à¦ĵà¦¯
à¦Ĺ à¦«
à¦Ń à¦ľà¦¨à¦ķ
à¦ĺ à¦¸
à¦Ĩà¦ĩ à¦ª
Ġà§§à§¯à§Ń à§«
Ġà¦« à¦¯
Ġà¦« à¦°à¦ľ
Ġà§© à§Ń
ra b
Ġà¦¨à¦Ĺ à¦°à¦¬
à¦§ à¦Ł
Ġà¦° à¦ĩà¦²
Ġà¦ĵ à¦¸
à¦¯à¦® à¦ķ
Ġà¦īà§İ à¦ĸ
Ġà¦ķ à¦¦
Ġà¦ĩ à¦ķà¦¬
à¦¬ à¦Ĺ
oh rab
Ġà¦Ń à¦ķ
Ġà¦ľà¦¨ à¦¬à¦²
à¦® à¦Ľ
Ġà¦¬ à¦¦à¦°
Ġà¦§à¦° à¦²
à¦¤à¦¨ à¦ķ
à¦°à¦¶ à¦¸
à¦ĸ à¦¸
Ġà¦ ¼
Ġà¦ľ à¦¬à¦°
s s
à¦¯ à¦ŀ
à¦Ĩ à¦ĵà¦¯
à¦°à¦ķ à¦°
à¦Ĩ à¦°à¦¸
à¦¦ à¦Ĺ
Ġà§ª à§Ń
à§§à§ ¨
à§§à§ ¬
à¦ķ à¦¬à¦²
à¦°à¦¦ à¦¤
à¦¨à¦¬ à¦ľ
Ġà¦¸ à¦¸
à§§à§ ®
Ġà¦ħà¦¬à¦¸ à¦°à¦ª
Ġà§ª à§ª
à¦¨ à¦¬à¦¸à¦®
à¦¦ à¦ĵ
à¦Ĺ à¦Ń
à¦Ĩ à¦ľ
u m
Ġà¦¶ à¦«
Ġà¦ıà¦ķ à¦¶
Ġà¦ľ à¦Ĺ
Ġà¦īà¦ª à¦Ń
Ġà¦Ĩà¦¨ à¦¬
à¦¨à¦¦ à¦£
à¦Ŀ à¦ĸ
à¦¨à¦¸ à¦Ń
à¦ı à¦ķà¦ľà¦¨
Ġà¦Ĩà¦ĩà¦¨ à¦ķ
à¦ĩ à¦¸à¦²
Ġà¦ĵ à¦Ł
Ġà¦Ĩà¦Ĺ à¦®à¦¨
Ġà¦ķ à¦¨à¦Ń
Ġà¦ħà¦¬ à¦§
à¦ħ à¦¤
à¦¯ à¦®à¦¤
Ġà¦¤à¦ĸà¦¨ à¦ķ
à¦Ĩ à¦¤
Ġà¦ľà¦¨ à¦¶à¦ķ
Ġà¦ľà¦¨ à¦ªà¦¦
Ġà¦¬à¦Ľà¦° à¦Ĺ
à¦°à¦¹ à¦°
à¦ħ à¦ª
Ġà¦¬ à¦¶
à¦°à¦¬ à¦¤
à¦¿ âĢĻà¥¤
Ġà¦ĩ à¦¬à¦¨
à¦²à¦ª à¦®
à¦¬ à¦Ļ
Ġà¦² à¦ŀ
Ġà¦¸à¦° à¦²
à§ĭà¥¤ âĢĻ
à¦°à¦® à¦ľ
Ġà¦ħ à¦®à¦°
à¦ľà¦¨ à¦ĩ
à¦Ľ à¦²
à§§à§ ª
Ġà¦Ĩ à¦¬à¦°
Ġà¦® à¦¦à¦¦
Ġà¦¸à¦¬ à¦ľ
Ġà¦ķà¦² à¦®
à¦¼à§ĩ -
Ġà¦ķà¦® à¦Ľ
à§ĭ à¦Ĥ
Ġà¦ªà¦¥ à¦ļ
à¦ıà¦¸ à¦ıà¦¸
Ġà¦ıà¦ķ à¦ķà¦Ń
à¦Ľ à¦¡
à¦ľ à¦īà¦ķ
Ġà¦ķà¦¤ à¦ľà¦¨
Ġà¦¨à¦¬ à¦®
Ġà¦ª à¦Łà¦Ń
à¦ī à¦¶à¦¨
Ġà§© à§®
à¦Ĺà¦łà¦¨ à¦Ł
à§§à§¯à§ Ń
à¦ķ à¦«
à¦¥ à¦ĩ
à§§à§ §
Ġà¦ĩà¦¨ à¦¡
Ġà¦ª à¦Ł
à¦ł à¦¦
à¦ĩà¦¨ à¦¸
Ġà¦¬ à¦¸à¦²
Ġà¦¹ à¦Ł
Ġà¦ĵ à¦ª
à¦¬à¦° à¦ĩ
Ġà¦ľ à¦ľ
à¦Ń à¦°à¦¤
à¦ĺ à¦ķ
à¦¤ à¦ļ
à¦·à¦£ à¦ķ
Ġà¦°à¦¹ à¦®à¦¤
Ġà§¨à§¦à§¦ à§ª
à¦°à¦° à¦«
à¦ıà¦® à¦ĩ
Ġà¦®à¦¨ à¦ľ
Ġà¦ħà¦¬ à¦²
Ġà¦īà¦ª à¦ķà¦°à¦£
Ġà¦ķà¦¤ à¦Ĺ
e e
à¦ľ à¦Ľ
à¦Ĺà¦£ à¦¤à¦¨
Ġà¦Ĩà¦ķ à¦¸
Ġà¦° à¦ĵ
Ġà¦ī à¦ĩ
à¦ŀ à¦ª
Ġà¦ıà¦¤ à¦ĩ
Ġà§§à§¯à§Ń à§©
à¦Ľ à¦ķ
à¦¯à¦® à¦Ĺ
Ġà§© à§¯
à¦¥ à¦Ń
Ġà¦ĵ à¦ľà¦¨
à§ĩ âĢĵ
à¦¬ à¦ŀ
Ġà¦ķ à¦®à¦¨
à¦· à¦¬
Ġà¦ī à¦®
à¦ı à¦¤
à¦®à¦Ĺ à¦ŀ
Ġà¦Ĺà¦£ à¦ľ
u l
à¦Ł à¦ĸ
Ġà¦ķà¦® à¦²
à¦Ĩ à¦°à¦Ł
à¦Ĩ à¦¶
Ġà¦ľà¦¨ à¦ľ
Ġà§ª à§¦à§¦
à¦Ĩà¦ĩ à¦¡
Ġà¦° à¦£
à§İà¦¸ à¦ķà¦¦
p ro
à¦¯ à¦«
Ġà¦Ŀ à¦Ĺà¦¡
à¦¨ à¦ľà¦¨à¦ķ
Ġà¦®à¦¹ à¦¡
à¦ĩ à¦īà¦°
Ġà¦¸à¦¹ à¦¨à¦¶
Ġà§ª à§¬
à¦¤ à¦ľà¦¨
à¦°à¦¸ à¦®
à¦ľà¦¨ à¦¤
à¦°à¦¬ à¦£
à¦¼ )
à¦ª à¦ĵ
Ġà¦Ĺ à¦Ļ
ma n
à¦¯ à¦¬à¦°
à¦Ľ à¦ª
à¦ı à¦®à¦¬
à¦® à¦ĩ
à§ĭ âĢĶ
à¦ı à¦®à¦ª
à¦ľ à¦ĩ
Ġà¦² à¦¤
! âĢĻ
à¦ĵ à¦ķ
Ġà¦Ľ à¦¤
Ġà¦Ĩà¦ĩà¦¨ à¦®à¦¨
à¦· à¦¸
s h
à¦ħ à¦ªà¦°
à¦¨ à¦Łà¦¨
à§ģ à¦Ĥ
à¦ľ à¦¡
à¦£ à¦¯
à§§à§ Ń
à¦®à¦¨ à¦ĩ
5 5
Ġà¦ ĭ
à¦°à¦£ à¦¬
Ġà¦¬ à¦ĸ
à¦¿à¦Ĥ .
Ġà¦ĵ à¦®à¦°
à¦Ł à¦ĩ
âĢ ĭ
Ġà¦ıà¦ķà¦ľà¦¨ à¦ķ
Ġà¦¨ à¦ķà¦²
Ġà¦ħà¦ª à¦ª
Ġà¦¸à¦¬ à¦Ł
à¦¶ à¦¸à¦¹
à¦¸à¦¦ à¦ķ
à¦ķ à¦¸à¦¹
Ġà¦¨ à¦Ĺà¦¦
à¦¥ à¦¹
à§§à§ ©
à¦ł à¦ªà¦°
Ġà¦®à¦¨ à¦®
Ġà§¨à§¦à§¦ à§¦
Ġà¦ľà¦¨à¦¸ à¦®à¦°
à§Ģ âĢĶ
à¦Ĩ à¦ķ
w a
à¦¯ à¦ľà¦¨à¦ķà¦Ń
à¦ļ à¦¤à¦°
Ġà¦Ĩà¦ķ à¦¬à¦°
à¦ī à¦ļ
à¦ķ à¦ľ
à¦¯à¦ķ à¦²
Ġà¦Ĩà¦² à¦®à¦Ĺ
à¦° à¦·
à¦Ł à¦ĵ
Ġà¦® à¦ķà¦¸
Ġà§¬ à§ª
à¦ĵ à¦®
Ġà¦° à¦ļ
Ġà¦ľà¦¨ à¦¨
à¦°à¦® à¦¬
à¦Ŀ à¦¡
à¦¤ à¦¬à¦¸à¦®
Ġà¦ķ à¦¬à¦²
Ġà¦ķà¦® à¦ª
à¦¦à¦¨ à¦Ł
à¦°à¦¤ à¦¨
Ġà¦ĵà¦ªà¦° à¦ĵ
Ġà¦ıà¦ĩà¦ļ à¦ıà¦¸à¦¸
Ġà¦ħà¦Ĺà¦£ à¦¤
Ġà¦ķ à¦«
Ġà¦¬à¦² à¦ª
Ġà¦Ĩà¦¦ à¦®
Ġà§§à§¯à§Ń à§¦
à¦ķ à¦ĵà¦¯
à¦¨à¦¬ à¦¬à¦¨
à¦²à¦¸ à¦¡
n i
t i
à¦ĵ à¦Ĺ
Ġà¦¸à¦¹ à¦¸
Ġà¦¸ à¦²
à¦Ĩà¦ĩ à¦¸
à¦¡ à¦Ń
Ġà§¨à§¦à§¦ à§¨
Ġà¦¨à¦¬ à¦¬à¦°
Ġà¦ĭà¦£ à¦ĸ
Ġà¦ħ à¦ĺà¦Łà¦¨
à¦¡ à¦ª
ha ss
Ġà¦¯à¦ĸà¦¨ à¦ĩ
al o
hass an
e d
à¦ł à¦ķà¦¦
th om
pro thom
Ġà¦ĵ à¦¡
Ġà¦Ĺà¦£ à¦¨
Ġà¦ķà¦² à¦Ļ
Ġà§« à§¬
Ġà¦¶à¦¹à¦° à¦Ĺ
à¦¤ à¦¹
à¦¼à¦¿ à¦Ĥ
à¦ķà¦² à¦®
à¦¸à¦¹ à¦¯
Ġà§§à§¯à§ª à§Ń
à§İ à¦¸à¦¬
Ġà¦§à¦° à¦Ľ
Ġà§® à§«
à¦£ à¦ª
à¦¼à¦¾ :
à¦¬à¦² à¦ĩ
ohrab hassan
Ġà¦Ĩà¦¨ à¦¸
Ġà¦¡ à¦ľà¦¨
Ġà¦® à§İà¦¸
à¦ħ à¦ķ
à¦ļà¦¨ à¦Ĺ
Ġà§Ń à§¨
à¦¤ à¦¦à¦¨
Ġà§§à§¯à§ ©
à¦¬à¦ľà¦¨ à¦¦
à¦ļ à¦ªà¦°
à¦Ĩ à¦ª
Ġà§¨à§¦à§¦ à§©
à¦Ĺà¦ľ à¦ªà¦¤
Ã ¿
à¦¡ à¦Ĺ
à¦°à¦£ à¦Ĺ
Ġà¦ħà¦¬ à¦ľ
à¦Ŀ à¦²
Ġà¦ľà¦Ĺ à§İ
à¦¯ à¦¶
Ġà§« à§®
à¦¯ à¦ªà¦¦
Ġà¦Ĩ à¦īà¦Ł
à¦Ľ à¦¬
à¦ľ à¦ĸà¦¬à¦°
à¦ķ à¦ł
Ġà§ ¦
Ġà¦¸ à¦ļà¦²
Ġà¦Ĺ à¦®
à¦² à¦ªà¦¥
à¦§ à¦ª
Ġà¦² à¦¬à¦£
Ġà§¨à§¦ à§©à§¦
à¦¨ à¦ĸ
à¦¸à¦Ń à¦¬à¦¨
a k
Ġà¦¯ à¦®
à¦°à¦Ĺ à¦ŀ
à¦¸ à¦ĩ
Ġà¦¬à¦Ľà¦° à¦ĩ
Ġà¦Ĺà¦£ à¦¶
à¦¹ à¦¦
Ġà¦¹ à¦ĩà¦¬
Ġà¦ıà¦¸ à¦¡
Ġà§§à§¯à§® à§¦
à§§à§¯à§ ¯à§
à¦® à¦°à¦ķ
Ġà¦¸à¦° à¦ŀ
Ġà¦¬ à¦°à¦£
à§Ģ )
à¦ĵ à¦¡
à¦¶à¦¨ à¦¸
Ġà¦¢ à¦²
Ġà¦ıà¦°à¦ªà¦° à¦ĵ
Ġà¦ľà¦¬à¦° à¦¦à¦¸
e t
à¦¯ à¦Łà¦ķ
Ġà¦ķà¦¨ à¦«
e n
o r
Ġà¦Ĺà¦£ à¦¬
à¦¬à¦¶ à¦°
Ġà¦ļ à¦²à¦¨
âĢĻ âĢĶ
Ġà§¬ à§¨
à¦Ĺ à¦®à¦¨
à¦ľ à¦Ļ
Ġà¦ĩ à¦Łà¦Ń
Ġà¦¹à¦² à¦«à¦¨
mu s
Ġà§¨à§¦à§¨ à§§
à¦² à¦¸à¦¹
Ġà¦ķ à¦ľà¦¨
Ġà¦¸à¦® à¦¤à¦²
à¦¸à¦¬ à¦ķ
m r
à¦° à¦ŀ
Ġà¦ķ à¦¨à¦Ł
Ġà¦ī à¦ĩà¦²
Ġà¦°à¦ķà¦® à¦ĩ
Ġà§§à§¯à§Ń à§ª
à¦¦ à¦ĩ
à¦ĩ à¦Ĺ
à¦ľ à¦Ń
à¦ľà¦¨ à¦¬
à¦¼à¦¿ -
Ġà¦ ģ
à¦°à¦¤ à¦®
à¦ªà¦ķ à¦²
Ġà¦¸ à¦°à¦¬
à¦ª à¦ĩ
à¦¥ à¦ªà¦¤
Ġà§¬ à§¬
à¦ıà¦® à¦ıà¦«
à¦« à¦ķ
à¦¯à¦® à¦¯
à¦°à¦ļ à¦²à¦¨
à¦° à¦ĵà¦¯
à¦Ľ à¦¯
Ġà¦ĵ à¦Ń
Ġà¦ħà¦¸ à¦¤
Ġà§¬ à§¦à§¦
à¦¦ à¦ķà¦¦
à¦Ĺ à¦Ļ
Ġà¦ıà¦ķ à¦°à¦ķà¦®
à¦°à¦¹ à¦¸à¦¨
Ġà¦ªà¦¦ à¦ª
khan bd
à¦§ à¦¦
à¦ĵ à¦ĩ
Ġà¦ıà¦ķ à¦¯
à¦¶à¦ķ à¦¦
Ġà§¬ à§®
à¦Łà¦¤ à¦ĩ
à¦¤ à¦Ľ
Ġà¦Ĺ à¦¦
Ġà§« à§¨
à¦¨ à¦·
Ġà¦ľ à¦ĺà¦¨
à¦ĵ à¦ª
Ġà¦ī à¦ĩà¦ķ
Ġà§ª à§§
mr khanbd
à¦« à¦²à¦ķ
à¦¶ à¦¹
Ġà¦° à¦¨
à¦ıà¦ĩ à¦ļà¦¡
a m
b a
Ġà¦ķ à¦ĩ
à¦Ń à¦°à¦¯
Ġà¦ĸ à¦²
à¦Ĩà¦ĩ à¦ıà¦¸
Ġà¦¨ à¦ĩà¦²
à¦Ľ à¦®
Ġà¦¯ à¦¤à¦ķ
à¦°à¦¤ à¦²
Ġà¦Ĩà¦¨ à¦²
à¦Ł à¦«
à¦· à¦Ļ
Ġà¦Ī à¦¶
à¦°à¦¯ à¦¨
à¦Ĩà¦ĩ à¦ı
à¦Ŀ à¦¬
Ġà¦ķ à¦¸
Ġà¦Ĩ à¦¹à¦¸
à¦¬à¦¸ à¦¤
Ġà¦®à¦¹ à§İ
Ġà§§à§« à§¦
Ġà¦ħà¦¨ à¦¶à¦¨
Ġà§¯à§ ¯
à¦² à¦§à¦¨
à¦ĸ à¦Ń
à¦Ĩ à¦°à¦¬
Ġà§® à§¦à§¦
à§ĩ. ..
à§ģ :
Ġà¦Ĩà¦¸ à¦°
à¦°à¦® à¦¶
Ġà§Ń à§¦à§¦
à¦Ī à¦ĸ
Ġà¦¨ à¦¸
Ġà¦Ĩà¦¦ à¦²
Ġà¦ķà¦¤ à¦ĸ
Ġà¦¹ à¦°à¦£
à¦£ à¦¸
à¦°à¦ļ à¦°
Ġà¦· à¦·
Ġà¦Ĺ à¦ľ
à¦¸à¦¬ à¦ĩ
à§« à§¦
à¦¤ à¦ĸà¦¨
Ġà¦ĩ à¦ĩà¦ī
à¦¬à¦¨ à¦®
Ġà§« à§§
Ġ -
à¦°à¦£ à¦Ł
à¦ĩà¦¨ à¦¬
g on
à¦® à¦®à¦¤
à¦¦ à¦ĸà¦²
Ġà¦¤ à¦¤à¦ķ
à¦§ à¦ĵ
à¦ı à¦ĸ
Ġà¦¦ à¦¤
Ġà§¯à§ «
.) -
à¦° à¦¬à¦¸
Ġà¦ī à¦Ľà¦®
à¦°à¦£ à¦ĵ
à§§à§ ¯
Ġà§« à§©
à¦ĩà¦Ł à¦¸
Ġà¦¨ à¦®à¦¨
à§Ģ !
à¦² à¦¡
à¦ľà¦¨ à¦¦
Ġà¦¬à¦° à¦Ĺ
Ġà§« à§¯
Ġà¦Ĩà¦¹ à¦°à¦£
Ġà¦¹à¦ĩ à¦ļ
Ġà¦¨ à¦°à¦®
Ġà§¬ à§Ń
man gon
à¦¯ à¦¸à¦¹
à¦ĸ à¦®
à¦¬à¦¨ à¦¬
Ġà¦Ĩà¦¸ à¦®
Ġà§§à§¯à§ ¨
Ġà¦ Ļ
Ġà¦¦ à¦°à¦¬
à¦ĺ à¦¬à¦¦
Ġà¦ıà¦¤ à¦Ĺ
Ġà¦ı à¦ĵ
Ġà¦Ĩà¦® à¦ľà¦¨à¦¤
Ġà¦¸à¦¹ à¦®à¦°
mangon ee
Ġà§§à§¯à§¯à§ ¨
Ġà¦ıà¦« à¦¬
à¦° à¦ªà¦ķ
Ġà¦¬ à¦°à¦ķ
Ġà¦ĸ à¦¡
Ġà¦¾ à¦ģ
Ġà§§à§¯à§¯à§ Ń
Ġà¦¶à¦¹à¦° à¦Ł
à¦¾âĢĻ .
à§ĭ !
à¦¶ à¦«
Ġà¦¤ à¦®
à¦£ à¦ĵ
Ġà§ ĥ
à¦¤à¦° à¦¸
Ġà¦¸à¦¹ à¦ª
mus mangonee
à¦¨ à¦¬à¦¸
à¦£ à¦ł
Ġà¦Ł à¦²
Ġà¦īà¦¦ à¦¯
h in
Ġà¦® à¦ĵà¦¦
Ġà¦ľà¦¨ à¦¬
à§İ à¦ª
à¦ıà¦¸ à¦ıà¦«
Ġà§ª à§¯
Ġà¦ĩà¦ī à¦¸
Ġà¦¦ à¦¸
Ġà¦² à¦°
Ġà¦ħà¦¬ à¦Ĺà¦¤
Ġà§¬ à§©
Ġà¦ľà¦¨à¦¸à¦® à¦ķ
Ġà¦Ĩ à¦ĸà¦¤
Ġà¦ħ à¦ľà¦¸
Ġà¦ľ à¦Ĺà¦¨
à¦°à¦¤ à¦¬
Ġà¦Ĩà¦° à¦ıà¦¸à¦ıà¦¸
Ġà¦Ĩà¦² à¦¤
Ġà¦ķà¦® à¦ĩ
Ġà§§à§¯à§¯à§ ®
Ġà§¯à§ ¬
Ġà¦ħà¦¨ à¦¡
Ġà¦ħà¦Ń à¦¯
d er
Ġà¦« à¦Ł
à¦¶à¦¨ à¦Ĺ
à¦ĺ à¦¬
Ġà¦ħà¦¸ à§İ
à¦¯ à¦Ļ
à¦ĩ à¦¶
à¦¼ à§Ĥ
à¦ľ à¦Ĺà¦ŀ
Ġà¦«à¦² à¦ª
à§ĩ )à¥¤
Ġà¦¸ à¦¯
à¦¼à¦¾ âĢĶ
Ġà¦§à¦° à¦¬
Ġà¦ħà¦¸ à¦®à¦¤
Ġà¦¬ à¦§
à¦ª à¦²à¦¸
Ġà¦Ĩà¦ĩ à¦¡
Ġà¦ķà¦®à¦¨ à¦ĵà¦¯
à¦¨ à¦ķà¦°
Ġà¦ªà¦° à¦ķ
à¦ī à¦¥
Ġà¦¹à¦¤ à¦Ń
à¦Ĩ à¦¯
à¦ķ à¦¹
Ġà¦ĵ à¦²
Ġà¦ı à¦¹
à¦°à¦¥à¦® à¦Ł
à¦®à¦ķ à¦°à¦£
à¦ķ à¦ªà¦ķ
à§¨ à§«
à¦¤ à¦Ĺà¦¤
à¦· à¦ľà¦¨à¦ķ
à¦£ à¦ķà¦°
Ġà¦ľà¦¨ à¦®
Ġà¦¸à¦¬ à¦Ĺ
à¦Ĩ à¦¸à¦²
Ġà¦ħà¦§ à¦¸
2 0
à¦Ł à¦«à¦°
Ġà¦¸à¦® à¦ķ
à¦¾? âĢĻ
à¦¬à¦Ľà¦° à¦ĩ
Ġà¦ªà¦¦ à¦ļ
Ġà¦¤ à¦«
Ġà¦ĵ à¦ķ
Ġà¦Ń à¦Ł
Ġà¦¹à¦ĩà¦ļ à¦ĩ
à¦¨ à¦ļà¦°
Ġà¦° à¦ĵà¦¨
Ġà¦ľà¦¨ à¦¬à¦¹
à¦Ł à¦ķà¦°
à¦ĵ à¦¸
Ġà¦° à¦®à¦¨
à¦¬à¦¤ à¦ĩ
Ġà¦Ķ à¦¦
à§ģ âĢĵ
Ġà¦¹ à¦ĵ
à¦ĩ à¦ļ
Ġà¦¤ à¦ĵà¦¬
à¦Ń à¦¸
Ġà¦¶ à¦¸
Ġà¦« à¦¤
Ġà§§à§¯à§ §à§
ma j
à¦Ľ à¦Ĺ
à¦ł à¦Ĺà¦¡
à¦¯à¦¬ à¦ĩ
à¦ıà¦° à¦ªà¦°
Ġà§§à§¯à§¯à§ ¯
à¦® à¦¸à¦®
Ġà¦ķ à¦ķà¦Ł
à¦ª à¦°à¦ķ
à¦§ à¦Ĺ
à¦°à¦¤ à¦¬à¦°
Ġà§¬ à§§
Ġà§§à§¯à§® à§®
à¦¡ à¦Ł
Ġà¦° à¦ľà¦¨
Ġà¦ıà¦®à¦¨ à¦ĵ
à¦ıà¦¸ à¦¡
à¦¬à¦¦ à¦®
d u
Ġ à§ĩ.
à¦¸ à¦ĺ
Ġà¦¨ à¦Ĺà¦£
à¦ł à¦¸
Ġà¦² à¦Ĺ
Ġà¦¬à¦² à¦¯
Ġà¦Ńà¦¬à¦¨ à¦Ł
Ġà¦ī à¦¬
um der
maj umder
i f
à¦ļà¦¨ à¦ĩ
à¦ħ à¦¬à¦¶
Ġà§® à§Ń
Ġà§§à§¯à§Ń à§¯
à¦¬ à¦ªà¦°
Ġà¦¸à¦¹à¦ľ à¦²à¦Ń
Ġà§ Ĥ
à¦Ļ à¦¤
à¦¤à¦° à¦Ł
Ġà¦¸à¦¬ à¦ĸ
à¦ķà¦° à¦ŀ
Ġà¦ħà¦¸ à¦¹à¦¨
Ġà¦ıà¦¸à¦¬ à¦ĩ
à¦¯à¦ķà¦° à¦Ń
Ġà¦°à¦ĵ à¦¶à¦¨
Ġà¦¦ à¦°à¦ªà¦¤
à¦Ļ à¦²
à¦°à¦®à¦£ à¦ķ
à¦Ĺ à¦łà¦ķ
à¦ļ à¦²à¦ķ
à¦¹ à¦«
à¦ı à¦¡
à¦²à¦ķ à¦ķ
Ġà¦Ĩà¦ĩ à¦Ń
Ġà¦¤à¦¦ à¦¬
à¦® à¦«
Ġà¦¸ à¦ªà¦ķ
Ġà¦¸à¦¬ à¦¶
Ġà¦Ĩà¦ĩ à¦ľ
à¦¸à¦¯ à¦ľ
à¦¯ à¦ªà¦¨
Ġà¦Ĩà¦ĩ à¦ıà¦®à¦ıà¦«
Ġà¦¬à¦ĩ à¦¤
à¦Ī à¦®
Ġà¦¸à¦« à¦°à¦ķ
à¦¬ à¦¹à¦¤
à¦® à¦£à¦¬
Ġà¦¨ à¦¬à¦¨
Ġà¦® à¦°à¦£
Ġà¦ĩà¦¨ à¦«
Ġà¦Ĩà¦« à¦¸
à¦¬ à¦¶à¦ķ
Ġà¦Ĺà¦łà¦¨ à¦®
à¦¿) .
à¦ļ à¦ķà¦¦
Ġà¦« à¦ķ
Ġà¦¦à¦² à¦ĵ
à¦ķà¦¬ à¦ļ
Ġà¦¹ à¦ĩà¦¤
Ġà¦® à¦«à¦¸
Ġà¦® à¦ĵà¦ķ
Ġà¦¸à¦® à¦ªà¦°
à¦ķà¦Ł à¦ķ
à¦ľ à¦Ĺà¦¤
à¦ĵ à¦ķà¦¤
à¦ľà¦¨ à¦Ĺà¦£
Ġà¦« à¦ľ
Ġà¦« à¦²à¦¨
Ġà¦īà§İ à¦ķà¦°
à¦¦à¦ķ à¦ķ
Ġà§¯à§ Ń
Ġà§§à§¯à§® à§¨
Ġà¦¬ à¦ī
Ġà¦¦à¦² à¦®à¦¤
Ġà¦¡ à¦¬
à¦°à¦ľà¦¨ à¦¨
Ġà§Ń à§Ń
Ġà¦Ĺà¦łà¦¨ à¦¤à¦¨
Ġà§® à§¨
à¦Łà¦° à¦ªà¦¨
Ġà¦ħà¦¨ à¦¸
à¦ı à¦ª
à¦¸à¦ķ à¦Ĺ
Ġà¦ħ à¦Łà¦²
Ġà¦Ĩà¦¨ à¦Ľ
à¦ĩ à¦ĵà¦¯
à¦£ à¦ªà¦¨
Ġà¦ĭ à¦¤
Ġà¦ķ à¦ĵà¦®
à¦ĸ à¦Ł
Ġà¦ıà¦ķ à¦Ĺ
Ġà¦² à¦¬
Ġà¦ĸ à¦¸à¦°
Ġà¦Ĩà¦ĩà¦¨ à¦¸
Ġà¦¬à¦¨ à¦Ń
Ġà§Ń à§®
à¦¥ à¦¬à¦¹
à¦ĵ à¦¹à¦°
Ġà¦Ĩà¦ĩà¦¨ à¦ª
Ġà¦¸à¦¹ à¦¨
à¦¹à¦¤ à¦Ń
à¦®à¦ķ à¦Ń
Ġà§Ń à§©
n et
Ġà¦¤ à¦ķà¦®
Ġà¦ħà¦¨ à¦Ń
Ġà¦Ĩà¦¦ à¦¤
Ġà¦Ĩà¦ľ à¦¹
Ġà§§à§¯à§¯à§ «
Ġà¦ĵà¦° à¦«
Ġà§§à§¯à§ª à§®
à¦¾ )à¥¤
Ġà¦Ĩ à¦¯à¦®
Ġà¦¯ à¦ķ
à¦ļà¦¨ à¦¬
à¦¤ à¦ķà¦¦
Ġà¦® à¦ĩà¦¨
à¦¹ à¦°à¦¤
Ġà¦ī à¦ĩà¦®
Ġà¦ıà¦ķ à¦ª
à¦°à¦¸ à¦ļ
Ġà§¨à§¦ à§¨à§¦
Ġà¦īà§İà¦ķ à¦£
à¦¨ à¦°à¦¤
à¦® à¦¸à¦¹
Ġà¦Ĺà¦£ à¦¸
Ġà§Ń à§§
à¦¯à¦ª à¦£
Ġà¦ĭà¦£ à¦Ĺ
s ohrabhassan
à¦ĩ à¦¹
à¦°à¦¤ à¦¤
à¦¸ à¦°à¦¤
à¦§ à¦¶
à¦§ à¦ĩ
à¦¹ à¦ķà¦¦
à¦ĵ à¦¹
Ġà¦Ł à¦¨à¦ķ
à¦Ĩ à¦°à¦ĵ
Ġà§Ń à§ª
à¦¯ à¦Ĺà¦¤
à¦¯ à¦¸à¦®
à¦¤ à¦ķà¦°
à¦¡ à¦ĵ
Ġà¦ħà¦¬ à¦¬
à¦¿à¦Ĥ à¥¤
Ġà¦¾ à¥¤
à¦ Ĳ
Ġà¦¸ à¦ĸ
à¦ĩ à¦¸à¦°
à¦Ĩ à¦ľà¦ķ
Ġà¦¹ à¦ĩà¦²
Ġà¦¤ à¦¡
Ġà¦¸à¦¹ à¦¸à¦Ń
Ġà§® à§©
à¦¨ à¦§
Ġà¦¸ à¦ªà¦°
à¦¸ à¦Ľ
à¦Ł à¦¸à¦¹
Ġà¦ħ à¦¡
à¦ļà¦¨ à¦ĵ
à¦ı à¦¦
à¦ıà¦®à¦ĩ à¦ı
d r
à¦ļ à¦¦à¦¶
Ġà¦¶ à¦ĵà¦ķà¦¤
Ġà¦ıà¦® à¦¡
à¦¬ à¦²à¦¨
à¦¦ à¦®à¦¯
à¥¤ âĢĺ
Ġà¦¡ à¦ķ
Ġà¦ħà¦¸ à¦ļ
Ġà¦Ĩà¦ĩ à¦ı
Ġ f
à¦¯ à¦ľà¦¨
à§ĭ ;
à¦°à¦ķ à¦ķ
à¦« à¦«
Ġà§§à§¯à§Ń à§®
Ġà§§à§¯à§¯à§ ª
mu ni
t u
à¦°à¦¬ à¦ķ
à¦¿à¦Ĥ -
Ġà¦¶à¦¹ à¦°à¦ķ
à¦° à¦ľà¦¨à¦ķ
à¦ķ à¦ĸ
à¦® à¦ĸ
à¦¶ à¦ĸ
à¦¥ à¦ļ
Ġà¦ıà¦ķ à¦ķà¦¥
Ġà¦ħà¦¸ à¦¦
à¦¯ à¦ļ
à¦ķ à¦ªà¦¥
à§Ģ âĢĵ
Ġà¦¹à¦¤ à¦¬
Ġà§§à§¯ à§¦
Ġà¦ªà¦° à¦¨
à¦ªà¦¨ à¦ķ
à¦ķà¦Ł à¦²
i a
Ġ o
à¦¤ à¦¬à¦°
Ġà¦¦ à¦¡
à§Ĥ à¦ģ
à¦® à¦Ļ
Ġà¦¹ à¦ĩà¦¯
Ġà§§à§¨ à§¦
à¦¼ âĢĵ
Ġà¦ķ à¦ļ
à¦ĩ à¦ªà¦²
Ġà¦Ľ à¦ķ
à¦°à¦¬ à¦ļ
à§ª à§¦
Ġà¦Ī à¦°
i s
à§ĩ à¦Ĥ
à¦· à¦°à¦¤
à¦Ĺ à¦¸à¦¹
Ġà¦Ł à¦®
Ġà¦¦à¦² à¦¬
Ġà¦ªà¦¦ à¦Ł
Ġà¦Ĩà¦ĩ à¦ª
Ġà¦Ĺà¦² à¦¦
Ġà¦ħà¦¸à¦¹ à¦¯
k a
à¦° à¦¡
à¦®à¦¤ à¦²
Ġà§¨à§« à§¦
à¦ıà¦« à¦ª
à¦¯ à¦ĸà¦¨
à¦¤ à¦¥
à¦ķ à¦²à¦¨
Ġà¦¬ à¦¦à¦¨
à¦¸ à¦¸à¦¹
à¦ĩ à¦ĵà¦Ń
Ġà¦¦ à¦Ĺ
Ġà¦ĩ à¦¨à¦ķ
Ġà¦Ĩà¦¸ à¦ķ
Ġà¦ıà¦² à¦ıà¦¨à¦ľ
à¦ª à¦ªà¦¤
à¦Ľ à¦¦
à¦¯à¦¬ à¦¶à¦¤
Ġà§Ń à§¬
Ġà§¯à§ ¨
à¦¼ âĢĻà¥¤
Ġà¦¤ à¦°à¦²
à¦ĸ à¦ķà¦¦
à¦Ń à§İà¦¸
à¦¤à¦¬ à¦¯
Ġà¦ªà¦¦ à¦®à¦°
à¦ĩà¦² à¦Ł
Ġà§§à§¯à§Ń à§Ń
à¦¦ à¦°à¦¬
Ġà¦¨ à¦°à¦¸
Ġà¦Ł à¦¯
à¦¶à¦¨ à¦ľà¦Ł
Ġà¦¦à¦° à¦ĸ
20 0
à¦£ à¦¸à¦®
à¦¤à¦® à¦¯
à¦¹à¦°à¦£ à¦¸
à¦¬ à¦²à¦¯
Ġà¦¥ à¦®à¦ķ
Ġà§® à§ª
sh i
à¦² à¦¹à¦ľ
à¦ĸ à¦ķà¦°
Ġà¦ī à¦®à¦°
Ġà¦ħà¦¨ à¦Ĺ
à¦°à¦® à¦¶à¦ķ
à¦Ĩ à¦¬à¦¦
à¦ªà¦ķ à¦¤
Ġà¦®à¦° à¦Ľ
à¦£ à¦ĺ
à¦¬à¦¸ à¦¹
à¦¶à¦¨ à¦ĵ
Ġà¦®à¦¤ à¦Ń
à¦ħ à¦¥à¦ļ
à§į -
à¦® à¦¹à¦²
à§ĭ )
à¦· à¦¦à¦°
Ġà§® à§®
à§¨à§¦à§§à§ ª
à¦¬ à¦Ĺà¦ŀ
Ġà¦¸ à¦°à¦¦
Ġà¦¬ à¦Ľ
Ġà¦¬ à¦ķà¦°
à¦¼à¦¾ )
à¦°à¦¤ à¦ķà¦°
Ġà¦ªà¦¦ à¦Ĺ
à¦¯à¦ª à¦Ł
Ġà¦ī à¦ªà¦¤
à¦·à¦£ à¦®
Ġà¦ħà¦¤ à¦Ł
Ġà¦¸à¦« à¦Łà¦ĵà¦¯
Ġà¦ª à¦ļ
à¦ļ à¦¸
à¦£ à¦Ł
à¦Ĩà¦ĩ à¦ľ
à¦ıà¦ķ à¦ĩ
à¦¿ /
Ġà¦¨ à¦ķ
Ġà¦ħ à¦®à¦¨
Ġà¦ħ à¦ķà¦²
Ġà¦ªà¦° à¦¤
Ġà§® à§¬
Ġà¦®à¦ľ à¦¬
à¦¨ à¦ľà¦°
à¦¼à§ĩ ?
à¦¥ à¦ª
Ġà¦ľ à¦ĸà¦®
à¦¤à¦° à¦¬à¦Ļ
Ġà¦ķà¦® à¦°
Ġà¦ħà¦ª à¦¹
Ġà¦¨ à¦Īà¦®
à¦£ à¦°
à¦ĸ à¦²à¦ķ
à¦¯à¦¬ à¦ĩà¦¯
Ġà¦¾ à¦Ĥ
Ġà§§à§¯à§® à§¯
Ġà¦¬à¦°à¦ķ à¦¤
muni m
Ġà¦ħà¦¨ à¦¤
Ġà¦ĩ à¦°à¦¶
à¦¬à¦¨ à¦§
Ġà¦Ĩà¦Ĺ à¦°à¦¤à¦²
à§¨ à§ª
Ġà§§à§¯à§® à§§
munim khan
Ġ th
à¦¸ à¦ªà¦¤
Ġà¦¹ à¦łà¦ķ
à¦ĩ à¦ĵ
Ġà¦ħ à¦¯à¦¥
Ġà¦ī à¦§
Ġà¦² à¦¸
Ġà¦Ĺ à¦¤à¦¬
à¦ł à¦Ń
à¦ªà¦ķ à¦¥à¦¨
à¦¯ à¦§
à¦¦ à¦®à¦¤
à¦· à¦¹
Ġà¦ľ à¦¹
à¦ĵ à¦ľ
Ġà¦ĵ à¦¨
à¦ĺ à¦¡
Ġà¦īà¦ª à¦¬
Ġà¦ħà¦ª à¦°à¦ķ
à¦ªà¦¥ à¦Ĺ
à¦¿âĢĻ .
Ġà§§à§¯à§¬ à§¨
a y
à¦ķ à¦¸à¦¬
à¦§ à¦¶à¦¤
Ġà¦ħ à¦ĸ
Ġà¦ħ à¦ĸà¦£
Ġà¦ĵ à¦¹
Ġà¦Ľ à¦¨
à¦²à¦¤ à¦ķ
à¦ĩà¦¡ à¦²
à¦®à¦® à¦Ń
Ġà§§à§§à§ ¬
Ã¿ à¦ķ
w w
Ġ com
Ġà¦ķà¦° à¦¦
Ġà¦Ĩà¦° à¦¸
à¦¿à¦Ĥ âĢĻ
à¦ª à¦¶à¦¨
à¦£ à¦«
à¦Ĩ à¦¦à¦°
à§¨ à§¨
à¦Ĺà¦łà¦¨ à¦ķ
Ġà¦¸à¦«à¦² à¦Ń
à¦¨ à¦¸à¦¨
à¦ķ à¦ĭà¦£
à¦Ł à¦¹
Ġà¦®à¦¨ à¦Ł
à¦ıà¦¨ à¦¸
à¦ıà¦¸ à¦Ł
Ġà¦Ĩà¦ĩ à¦Ł
al am
) -
à¦¬ à¦°à¦ķ
à¦ª à¦ŀ
Ġà¦¸à¦® à¦·
à¦ī à¦ªà¦ľ
à¦·à¦£ à¦Ń
Ġà¦Ĩà¦ĩà¦¨ à¦¸à¦Ń
Ġà¦ĸà¦¬à¦° à¦ĵ
à¦¯à¦¸ à¦Ń
Ġà§§à§¯à§¬ à§¦
à¦ª à¦Ń
à¦ł à¦®
à¦ı à¦Ń
à¦°à¦® à¦ķ
Ġà¦¦à¦² à¦¨
à¦Ĩ à¦ĩà¦Ł
Ġà¦ķà¦¨ à¦ľ
à¦ıà¦² à¦¡
à¦² à¦ªà¦¤
Ġà¦ĵ à¦¸à¦¬
à¦°à¦£ à¦ª
à¦Ĩ à¦Ł
à¦²à¦¨ à¦°à¦¤
Ġà§§à§¯à§¬ à§¯
à§ģ ?
à¦¸ à¦ľ
à¦¸ à¦ĵà¦¯
Ġà¦ªà¦¦ à¦¬
Ġà¦īà§İ à¦¸à¦°
ma shi
Ġà§¯à§ ®
Ġà¦ħà¦¹ à¦°à¦¹
Ġ a
à¦¸ à¦īà¦¦
Ġà¦¹ à¦ľà¦¯
à¦ĩ à¦īà¦¨
à¦£ à¦ĩ
Ġà¦¸à¦® à¦®
âĢĶ âĢĺ
Ġà¦ĩà¦ī à¦ľ
Ġà¦ħà¦ª à¦Ľà¦¨
Ġà¦ľà¦¨à¦¸ à¦ļ
à§¨à§¦à§§à§ ©
Ġà¦¸ à¦ĩà¦¤
à¦¦ à¦ķà¦°
Ġà¦® à¦°à¦¤
Ġà¦« à¦Łà¦ķ
à¦°à¦¥à¦® à¦Ĩà¦²
à§Ń à§§
à¦ĩà¦¦ à¦¹
ti on
mashi ul
e s
à¦ľ à¦ľ
Ġà¦ħ à¦°à¦£
à¦¬à¦¨ à¦Ĺà¦°
à¦¤à¦¨ à¦¬
Ġà¦Ĩà¦Ł à¦ľà¦¨
à§§à§¯à§ ®
u r
Ġà¦ĸ à¦ª
Ġà¦Ĩà¦² à¦¬
Ġà¦ıà¦¸ à¦ª
Ġà¦ıà¦¨ à¦¡
Ġà§§à§¯à§® à§¬
à¦¯à¦Ł à¦ķà¦¦
Ġ ...
à¦² à¦¹
à¦Ł à¦ľ
Ġà¦ı à¦®à¦¬
Ġà¦ľ à¦ĵà¦¹à¦°
Ġà¦ī à¦ĩà¦¨
Ġà¦Ĩà¦° à¦®
à¦ªà¦¦ à¦ķ
Ġà¦ªà¦¥ à¦Ł
à¦Ī à¦¨
Ġà¦ļà¦®à¦ķ à¦ª
à¦· à¦§
Ġà¦ħ à¦°à¦ķ
Ġà¦ħà¦¨ à¦§
Ġà¦¸à¦¬ à¦²
Ġà¦¹à¦¤ à¦¦à¦°
à¦Ĩ à¦§
à¦ª à¦¤à¦¨
Ġà¦ı à¦¨à¦¬
Ġà¦Ľ à¦¦
à¦¬à¦¨ à¦Ł
à¦¨à¦¬ à¦¦
à¦Ĺà¦£ à¦¤
à¦¬à¦¹ à¦¨à¦¬
h t
à¦² à¦¸à¦¨
à¦® à¦·
Ġà¦¨ à¦Ł
à¦¸à¦¦ à¦¸
à¦¨à¦® à¦§
à¦¥à¦² à¦¬à¦¨
Ġà§§à§¯à§« à§¦
ha r
à¦ķà¦¸à¦¬ à¦ľ
à¦¾ ).
à¦² à¦¬à¦¨
Ġà¦ķ à¦Ļ
à¦Ń à¦Ł
à¦ıà¦¨ à¦ı
à¦ıà¦¨ à¦ıà¦¨
Ġà¦ħà¦ª à¦¶à¦ķ
à¦ĩà¦² à¦«à¦²à¦ķ
à¦¯ à¦¶à¦¸
à¦¤ à¦¤à¦®
à¦Ł à¦ļ
Ġà¦ı à¦¨à¦¸
à¦ľ à¦¸à¦¹
à¦Ĩ à¦ļà¦°à¦£
Ġà¦ıà¦¤ à¦ķ
à¦¨à¦® à¦ľ
Ġà§¬ à§¯
à§ĩâĢĻ .
à¦Ĺà¦Ń à¦¬à¦¨
Ġà¦® à¦¹à¦°
à¦¼à¦¾ ;
Ġà¦§à¦° à¦ª
Ġà¦¬à¦° à¦«
à¦¸à¦® à¦¸
à§¨ à§§
Ġà¦ĩà¦¨ à¦Ń
à§Ģà¥¤ âĢĻ
à¦Ĩà¦ĩ à¦ıà¦°
Ġà§¯à§ ©
à¦¤ à¦ªà¦¨
à¦Ł à¦ķà¦²
Ġà¦® à¦Ĺ
à¦ľ à¦ĵà¦¯
Ġà¦« à¦°à¦¹
Ġà§§à§¯à§¯à§ ©
Ġà¦ľà¦ĵà¦¹à¦° à¦²
m z
à¦ķ à¦¬à¦°
à¦ļ à¦ªà¦¦
à¦£ à¦¬à¦¨
Ġà¦ĩà¦ī à¦Ł
ha ka
à¦¡ à¦¶
Ġà¦ĩ à¦ª
à¦ªà¦° à¦¬
à¦ıà¦² à¦ĵ
Ġà§§à§¯à§« à§¨
Ġà§§à§¯à§« à§ª
Ġth e
à¦¦ à¦¸à¦¹
Ġà¦Ĩ à¦ĩà¦²
à¦¤à¦¨ à¦Ń
Ġà§Ń à§¯
à¦ıà¦®à¦¨ à¦Ł
à¦ĩà¦ī à¦ıà¦¨
ar u
Ġo f
à¦¶ à¦ªà¦¥
à¦Ĺ à¦¹
à¦¾. ..
Ġà¦Ĩà¦² à¦ľ
Ġà¦īà¦ª à¦¡
d haka
Ġà¦Ĺ à¦¯
Ġà¦Ĩà¦° à¦ľ
à¦¬à¦¸ à¦Ł
à¦Ĩ à¦¬à¦°
Ġà¦ĺà¦¨ à¦«
à¦¾ à¦¿
à¦ķ à¦¤à¦¨
à¦· à¦°à¦£
à¦ı à¦ķà¦¦
à¦Ĩ à¦«
Ġ Ã¿à¦ķ
Ġà¦¦ à¦°à¦¦
Ġà¦¦ à¦¶à¦Ł
à¦¼à§ĩ âĢĻ
à¦¯à¦ķ à¦¤
Ġà¦Ŀ à¦ķ
Ġà¦Ĺà¦¡ à¦«
à§Ń à§¦
Ġà¦Ĳ à¦¶
Ġà¦¬à¦ĩ à¦Ĺ
Ġà¦Ĺà¦£à¦Ń à¦¬à¦¨
Ġs musmangonee
2 3
f o
m oh
à¦· à¦ľà¦¨
à¦Ĥ -
Ġà¦ªà¦° à¦¶
Ġà¦² à¦ĺ
Ġà¦ĩ à¦¥
à¦ķà¦Ł à¦¬à¦°
Ġà§¯à§ §
Ġà§¯à§ ª
q u
Ġà¦° à¦¦à¦¬
Ġà¦Ń à¦°à¦£à¦ª
Ġà¦ħà¦¬ à¦¤à¦°à¦£
à¦¬à¦¶ à¦¤
Ġà¦°à¦¦à¦¬ à¦¦à¦²
Ġà¦Ĺ à¦ĵà¦¹
à¦·à¦£ à¦ª
t l
Ġ an
à§Ģ ;
à¦Ń à¦²
Ġà¦° à¦¥
Ġà¦ıà¦ķ à¦ľ
Ġà¦ĩ à¦¶
à¦ĩà¦¨ à¦Ł
à¦ħ à¦¯
Ġ |
à¦¨ à¦Ĺà¦¤
à¦¬ à¦¦à¦¨
à¦¬ à¦¹à¦°
Ġà¦¹ à¦°à¦¹
à¦ľ à¦¹
à¦Ŀ à¦ķ
Ġà¦ĩà¦ī à¦ıà¦¸
Ġà¦Ĩà¦ľ à¦®
à¦°à¦ª à¦¥
Ġà¦¦à¦ĸà¦² à¦®
Ġà§§à§¯à§® à§ª
moh i
à¦° à¦ĭà¦£
à¦¤ à¦®à¦¨
à¦¤ à¦ķà¦¤
Ġà¦Ĺà¦£ à¦§à¦°
à¦ıà¦® à¦ıà¦¸
ar ia
Ġà¦ĩà¦īà¦ıà¦¨ à¦ĵ
200 5
23 4
à§ĩ /
à¦¤ à¦¸à¦®
à¦® à¦ĵà¦¯
Ġà¦¬ à¦¬
à¥¤ ...
à¦§ à¦¨à¦ķ
Ġà¦¶ à¦ª
Ġà¦ľà¦¨ à¦ķà¦²
Ġà¦ĩ à¦ľà¦¤
à§¨ à§©
à§¨ à§®
à§¬ à§¦
Ġà¦Ńà¦¬à¦¨ à¦Ĺ
à¦¿? âĢĻ
ak aria
Ġà¦¤ à¦²à¦¬
à¦Ĩ à¦¹
Ġà§® à§§
Ġà¦¨à¦° à¦ĵà¦¯
al i
b i
à¦ķ à¦Ĺà¦ŀ
à§ģ )
à¦· à¦¨
à¦ľà¦¨ à¦ª
Ġà¦ıà¦ĩ à¦Ł
à§İ à¦ªà¦¦
à¦ĺ à¦¨à¦¤
à¦ħ à¦²
à¦Łà¦¨ à¦®
à¦®à¦¦ à¦ª
Ġà§§à§¯à§¬ à§¬
à§§à§¯à§Ń à§§
Ġà¦īà¦ĩ à¦ĺ
ak mz
à¦¨ à¦¬à¦°
à¦® à¦īà¦¦
à¦¸ à¦ŀ
à¦· à¦¤à¦¬
Ġà¦® à¦Ĺà¦¬
à¦¹ à¦ª
à¦ľà¦¨ à¦ĵ
Ġà¦Ĩà¦ĩà¦¨ à¦¬
Ġà§¯ à§¦à§¦
Ġà¦Ĩ à¦£à¦¬
à¦Ń à¦¦
Ġà¦ľà¦¨ à¦ĩ
Ġà¦Ĩà¦° à¦ª
Ġà¦Ł à¦¹à¦²
Ġà¦¹à¦² à¦Ĺ
Ġà¦¬à¦Ľà¦° à¦Ł
Ġà¦ªà¦¦ à¦¸
à¦ıà¦® à¦ıà¦²
à¦ªà¦£ à¦¨
à§¨à§¦à§§à§ «
in fo
à§¯à§ ¬
Ġà¦ĩà¦¨à¦« à¦°à¦®
akmz akaria
Ġà¦¸ à¦¦à¦ķ
Ġà¦¹ à¦¦
à¦ľ à¦ķà¦²
Ġà¦ľ à¦¸
Ġà§ Ī
à§Ĥ -
Ġà¦ľà¦¨ à¦ĺà¦¨à¦¤
Ġà¦īà¦² à¦«
à¦Ĳ à¦¤
Ġà¦Ĩà¦ĩà¦ı à¦¸à¦ķ
Ġ t
Ġà¦ķ à¦¦à¦®
Ġà¦¹ à¦ľà¦®
à¦ªà¦¦ à¦Ĺ
à¦®à¦¯ à¦ľ
Ġà¦¬à¦²à¦¬ à§İ
à¦ıà¦®à¦ĩ à¦ıà¦°
i c
à¦¬ à¦®à¦¯
Ġà¦® à¦¹à¦¤
Ġà¦° à¦¦
à¦²à¦¨ à¦Ł
Ġà¦ħà¦ª à¦ļ
à§¨à§¦à§§à§ ¬
wa s
h hin
à¦° à¦ĺ
à¦¬ à¦ĺ
à¦§ à¦ªà¦°
Ġà¦ħ à¦¦à¦®
Ġà¦Ĺ à¦ļ
Ġà¦Ń à¦Ĺ
à¦¬à¦² à¦Ľ
à¦¦à¦° à¦Ń
Ġà¦¬à¦¹ à¦¨à¦ķ
à¦¨à¦¦ à¦°à¦¬
à¦¬à¦ľà¦¨ à¦ª
à§ĩ! âĢĻ
hhin tl
1 9
à¦¾ /
à¦¨ à¦«
à¦¤ à¦¸à¦¹
à¦¬ à¦ĸ
âĢĻ âĢĵ
Ġà¦Ĩà¦¸ à¦¨à¦¸
à¦·à¦£ à¦Ł
à¦Ĩ à¦īà¦Ł
à¦°à¦¶ à¦ķ
à¦¸à¦¨ à¦ĵ
à§¨ à§¬
hhintl bd
à¦ļ à¦¤à¦²
à¦ī à¦Ńà¦¯
Ġà¦Ł à¦Ļ
à¦ħ à¦¬à¦¸
Ġà¦¸à¦¹à¦ľ à¦¤à¦°
Ġà¦ıà¦¨ à¦Ĩà¦°à¦¸
Ġà§§à§§ à§¦
Ġà§§à§¯à§¬ à§Ń
à¦¤ à¦¹à¦¤
à¦² à¦Ĺà¦ŀ
à¦¦ à¦¹
à¦¤à¦° à¦ªà¦¤
à¦¨à¦¤ à¦ķ
à¦ħ à¦ľ
à§¯ à§¦
à¦ĸ à¦¢
Ġà¦ĵ à¦Ĺ
Ġà¦ļ à¦ķà¦¬
Ġà¦ľà¦¨ à¦¦
à¦·à¦£ à¦ĵ
à¦®à¦² à¦®à¦¤
à¦ħ à¦®
Ġà§§à§¯à§® à§Ń
aru k
à¦¦ à¦ķà¦¬
à¦¶ à¦¹à¦°
Ġà¦ı à¦®à¦¸
Ġà¦¦ à¦ĸà¦²à¦ķ
à¦Ĩ à¦¡
Ġà¦Ĺà¦£ à¦¯
Ġà¦ħà¦§ à¦®
Ġà¦ľà¦¨à¦Ĺà¦£ à¦ĩ
Ġà¦ķà¦¬à¦° à¦¸
à¦ıà¦ĩà¦ļ à¦¸
à¦ķ à¦£
à¦¬ à¦Ĺà¦¤
à¦¬ à¦īà¦¦
à¦ı à¦®à¦¸
à¦®à¦¤ à¦ķ
Ġà¦īà¦ª à¦ªà¦°
Ġà¦īà¦ª à¦¸à¦°
Ġà¦īà¦ªà¦¸ à¦ļ
à¦ıà¦®à¦¨ à¦ķ
j u
à¦Ł à¦¬à¦¦
à¦¶ à¦Ľ
à¦ª à¦¸à¦¹
Ġà¦ı à¦®à¦¤
Ġà¦Ĺ à¦®à¦¨
Ġà¦¥ à¦®
à§İ à¦¸à¦°
à¦Ĩ à¦°à¦ª
Ġà¦ķà¦² à¦¸
à§© à§«
Ġà¦Ķ à¦·à¦§
à¦¨ à¦ĵà¦¯
à¦¥ à¦²à¦¸
à¦¹ à¦¬à¦§
à¦ĸ à¦¡
à¦°à¦¤ à¦ĵ
à¦°à¦£ à¦ĩ
Ġà¦¹à¦² à¦«
Ġà¦¬à¦Ľà¦° à¦ĵ
Ġà¦ł à¦ķ
Ġà§¨à§ ¯à§
Ġà¦ĸà¦¬à¦° à¦¦
Ġà¦Ĩà¦ª à¦¸à¦¹
à¦² à¦ľà¦¯
à¦ľ à¦°à¦¤
à¦ļ à¦Ĺà¦¡
à¦Ń à¦¬à¦¨
Ġà¦ĩ à¦¸à¦®
Ġà¦« à¦°à¦¸
Ġà¦¡ à¦¨
à¦® à¦ªà¦ķ
à¦¹ à¦ľà¦¨à¦ķ
Ġà¦ī à¦ĸ
Ġà¦īà¦ª à¦ļ
à§¨ à§¯
Ġà¦¸à¦¦ à¦¯
à¦Ľà¦¨ à¦Ľ
Ġs ohrabhassan
Ġà¦¤ à¦Ľà¦¨à¦Ľ
Ġà¦ħ à¦ĺ
à¦¸à¦¬ à¦ļ
Ġà¦īà¦ª à¦¦à¦²
Ġà¦ħà¦§ à¦°
à¦ļà¦² à¦Ĺ
Ġà§§à§¯à§® à§©
à§Ģ âĢĻà¥¤
Ġà¦Ĩ à¦īà¦¯
à¦Ľ à¦Ł
Ġà¦Ń à¦°à¦ª
Ġà¦ī à¦¹
à§İ à¦ªà¦°à¦¤
Ġà¦Ĩà¦² à¦Ł
à¦ķà¦° à¦Ń
à¦¦à¦¨ à¦ĵ
Ġà¦ªà¦¥ à¦ļà¦²
Ġà¦ķà¦¬ à¦ľ
Ġà¦ıà¦°à¦ªà¦° à¦ĩ
Ġà¦ļà¦°à¦® à¦Ń
Ġà§§à§¯à§® à§«
Ġà¦®à¦¹à¦° à¦°à¦®
Ġ p
Ġà¦ª à¦ª
à¦¶ à¦¸à¦®
à¦ī à¦Łà¦°
à¦°à¦¬ à¦¦
à¦°à¦¶ à¦®à¦¨
Ġà¦ĺà¦¨ à¦¬à¦¸à¦¤
à¦¯ à¦Ŀ
à¦¤ à¦²à¦ķ
à¦® à¦®à¦°
Ġà¦ª à¦łà¦¨
à¦Ł à¦°à¦¯
à¦ľ à¦ķà¦¤
à¦£ à¦§
Ġà¦īà¦¨ à¦¸à¦¤
Ġà§§à§« à§©
Ġà§§à§® à§¦
Ġà§§à§¯à§¬ à§«
à¦² à¦°à¦¦
à¦¦ à¦Ľ
à¦Ĺ à¦°à¦®
à¦Ĥ .
à¦£ à¦®à¦¨
Ġà¦° à¦£à¦ķ
Ġà¦Ĺ à¦¹
Ġà¦ĵ à¦®
Ġà¦īà¦ª à¦Ĺ
à¦Ŀ à¦°
à§§à§¯à§ ¬
ay um
Ġ S
Ġà¦ª à¦ļà¦¨
à¦¾à¦ģ à¥¤
Ġà¦Ľ à¦²
ĠâĢĺ ...
Ġà¦¦à¦² à¦Ń
à¦¶à¦¨ à¦ĩ
à¦ªà¦¦ à¦¬
Ġà¦īà§İ à¦ªà¦¤
à¦ħ à¦Ĺ
à¦¾.) âĢĵ
qu ayum
was if
i t
Ġà¦¬ à¦¹à¦°
à¦¼à§ĩ ;
à¦§ à¦ķà¦°à¦£
Ġà¦² à¦²
Ġà¦¶à¦¤ à¦¬à¦°
à¦¬à¦ķ à¦ķ
Ġà§§à§¯à§Ń à§¬
Ġà§§à§¨ à§«
a h
à¦¼ )à¥¤
à¦§ à¦ķà¦°
à¦¼à¦¾ ?
à¦Ń à¦®
à§ĩà¥¤ ...
à¦®à¦¤ à¦Ń
à¦¸à¦¨ à¦¦
Ġà¦¾ .
Ġà¦ħà¦ķ à¦ªà¦Ł
à¦¯à¦Łà¦¨ à¦¶
Ġà¦Ĩ à¦ł
à¦Ĺ à¦¸à¦¨
Ġà¦¯ à¦¤à¦¬
à¦¥ à¦Ł
Ġà¦¸à¦® à¦Ń
Ġà¦®à¦¨ à¦¨
à¦¸à¦ķ à¦ķ
à¦¾! âĢĻ
à¦ĩà¦ī à¦ª
à¦ļà¦ªà¦¦ à¦¸
/ /
Ġ B
à¦° à¦²à¦¯
Ġà¦® à¦Īà¦¨
à¦ĸ à¦²à¦¨
Ġà¦° à¦¡
Ġà¦² à¦¯
Ġà§¨à§¦ à§ª
à¦¤à¦¬ à¦¬
à¦Ĺà¦¤ à¦ķ
Ġà§§à§ª à§¦
à¦ĩà¦Ń à¦¸
à§¨à§¦à§§à§ §
in g
Ġà¦Ĩà¦īà¦Ł à¦¸
e l
t p
Ġ C
à§ĩ à§į
à§ĭ âĢĵ
à¦¸ à¦°à¦²
à¦Ľ à¦²à¦¤
Ġà¦ħ à¦ľà¦¯
à¦£ à¦¶
à¦£ à¦¶à¦ķ
à¦Ń à¦§
à¦®à¦¨ à¦Ń
Ġà¦Ĩà¦Ĺ à¦²
Ġà¦ªà¦¥ à¦ĩ
Ġà¦¿ à¥¤
à¦Ĩà¦° à¦Ĩà¦ĩ
Ġà§§à§ª à§ª
Ġà¦°à¦® à¦°à¦®
Ġà¦¼ à§ĩ
a s
o l
s musmangonee
à¦¨ à¦¤à¦°
à¦¤ à¦¯
à¦£ à¦¸à¦¹
Ġà¦° à¦¸à¦¦
à¦°à¦¤ à¦¸à¦¹
Ġà¦ĩ à¦¹à¦°
Ġà¦ĩ à¦ĩà¦īà¦°
Ġà¦Ĩà¦° à¦¬à¦¦
à¦¬à¦¹à¦¨ à¦¶
à¦¦à¦°à¦¬à¦¨ à¦ķ
Ġà§§à§¯à§« à§¬
à¦² à¦¸à¦®
à¦ĩ à¦ĸ
à¦¡ à¦¤
à¦°à¦£ à¦®
Ġà¦§ à¦¨à¦ķ
Ġà¦Ĩà¦ĩà¦¨ à¦¤
à¦ªà¦ķ à¦¦
à¦¥à¦¨ à¦¯
à§¨à§¦ à§§à§¦
r i
à¦° à¦Ŀ
à¦® à¦§à¦¨
à¦§ à¦¯
Ġà¦° à¦Ł
à¦ł à¦¤à¦®
Ġà¦ľà¦¨ à¦¶
à¦°à¦® à¦¹
Ġà¦Ĩà¦ĩà¦¨ à¦Ĺà¦¤à¦Ń
à¦¯à¦® à¦ķà¦°
à¦·à¦ķ à¦ĩ
Ġà¦ĭà¦£ à¦¦
Â Ń
à§ĩ ).
Ġà¦¨ à¦²à¦ķ
Ġà¦ħ à¦¶à¦¨
à¦¹ à¦Ł
à¦ĸ à¦ľà¦¨à¦ķà¦Ń
à¦¡ à¦¸à¦¹
à¦¼à¦¾ âĢĵ
Ġà¦° à¦ŀ
à¦ı à¦ķà¦¬
à¦ĺ à¦£
à¦¬à¦¬ à¦Ļ
Ġà¦īà§İ à¦ªà¦¨
Ġà¦¬à¦ĩ à¦Ľ
à§¨à§¦à§¦ à§§
ni v
ht tp
Ġ T
à¦° à¦®à¦¤
à¦° à¦¡à¦¬
à¦¤ à¦°à¦¤
Ġà¦® à¦°à¦¬
Ġà¦ħ à¦°à¦¬
à¦¹ à¦£
Ġà¦Ń à¦¨
à¦¬à¦¸ à¦¹à¦ķ
Ġà¦ħà¦¬ à¦¯
Ġà¦īà¦ª à¦ª
à¦°à¦¹ à¦¤
à¦ķà¦² à¦ķ
Ġà¦ªà¦¦ à¦§
Ġà¦ħà¦¥ à¦°
à¦¬à¦¹ à¦¨à¦®à¦¨
Ġà¦¸à¦ļ à¦°
Ġà§§à§¯à§« à§®
prothom alo
d e
â ĸ
Ġà¦ķ à¦Ń
Ġà¦¨ à¦°à¦ķ
Ġà¦ªà¦° à¦®à¦¤
Ġà¦ľà¦¨ à¦ªà¦¥
Ġà¦ıà¦ĩ à¦¡
à¦ªà¦° à¦®
Ġà¦ĺ à¦¡
à¦¯à¦® à¦£
Ġà¦ħà¦ªà¦° à¦¦
Ġà§® à§¯
à¦¼? âĢĻ
à¦ıà¦« à¦¸
Ġà¦ħà¦ªà¦¹à¦°à¦£ à¦ķ
âĸ ł
: //
Ġ A
à¦° à¦Ĺà¦£
Ġà¦¨ à¦¬à¦¬
Ġà¦ı à¦¨à¦Ł
Ġà¦® à¦ĵà¦²
à¦¥ à¦ķà¦¤
à§ĩà¥¤ âĢĺ
Ġà¦§ à¦®à¦ķ
à¦ı à¦¶
à¦ı à¦ľ
à¦ī à§İà¦ķ
à¦¨à¦¤ à¦¤à¦°
Ġà¦ıà¦ķà¦ľà¦¨ à¦ĵ
à¦¯à¦¸ à¦ļ
Ġà¦®à¦ľ à¦²
à¦ıà¦® à¦¡
Ġà§§à§® à§«
Ġà§§à§© à§¦
à¦¤ à¦®à¦¤
à¦¦ à¦Ń
Ġà¦¹ à¦°à¦«
Ġà¦® à¦°à¦¦
Ġà¦® à¦¸à¦²
à¦ľà¦¨ à¦¨
Ġà¦®à¦¨ à¦ķ
à¦°à¦¬ à¦²à¦Ń
Ġà¦Ĩà¦Ĺ à¦¤
à¦¶à¦¨ à¦¸à¦¹
à¦¤à¦¨ à¦ĵ
à¦²à¦¨ à¦ĵ
Ġà¦¡ à¦Ĺ
à¦Ĺà¦¤ à¦¦
Ġà¦¬à¦¸ à¦Ľ
à¦ļà¦ķ à¦ķ
Ġà¦ıà¦¨ à¦ıà¦²à¦¡
Ġà¦ľà¦² à¦ľ
à§ĩâĢĻ âĢĶ
Ġà§§à§¯à§ª à§¯
à¦Ĺà¦ª à§İ
wa du
tu hin
ju niv
à¦¼à§ĩ âĢĶ
à¦§ à¦¸à¦¹
à¦ī à¦¶
à¦ķà¦Ł à¦¤à¦®
Ġà§§à§¬ à§¦
Ġà¦īà§İà¦¸à¦¬ à¦®
Ġà§©à§« à§¦
Ġà¦Ĩà¦²à¦¬ à¦¦à¦°
Ġ P
Ġà¦Ĩ à¦«à¦°
Ġà¦ħ à¦®à¦²
Ġà¦° à¦ľ
à¦ĺ à¦¶
Ġà¦īà¦ª à¦¸à¦®
Ġà¦ħà¦ªà¦° à¦Ł
Ġà¦ªà¦¥ à¦¶
Ġà¦ĩà¦¨ à¦ľ
Ġà¦Ĩà¦¸à¦¨ à¦Ĺ
Ġà§§à§¯à§¬ à§§
ĠâĢ ĭ
d tuhin
à¦¯ à¦°à¦¤
à¦¶ à¦Ļ
à¦§ à¦§à¦°
à¦ļ à¦ķà¦Ń
à¦£ à¦ļ
Ġà¦¶ à¦ĸ
à¦¤à¦° à¦Ļ
à§İ à¦ľ
Ġà¦«à¦² à¦®
à¦¸à¦¹ à¦ķ
Ġà¦ħà¦ª à¦¶
Ġà¦ıà¦² à¦¡
à¦ıà¦ĩ à¦¡
à§§à§¯à§ ª
à¦¹à¦ľ à¦°à¦¤
à¦ķ à¦¢
Ġà¦¹ à¦ķà¦ķ
à¦ľ à¦ĸ
à¦§ à¦¸à¦®
Ġà¦ħ à¦ªà¦ķ
à¦¹ à¦¶
à¦Ļ à¦°
à¦ı à¦°à¦¶
à¦¦à¦¨ à¦¬
à¦¸à¦ķ à¦¶
Ġà¦¯à¦¤ à¦Ĺ
Ġà¦Ĩà¦ļ à¦®à¦ķ
Ġà§§à§¨ à§©
Ġà¦Ĩà¦Ł à¦²
wadu dtuhin
r e
Ġ =
Ġ w
Ġà¦ħ à¦Ľ
à¦¹ à¦ĵ
à¦ĸ à¦ļ
à¦ĵ à¦Ł
Ġà¦ªà¦° à¦¬
Ġà¦ī à¦¤à¦°
à¦ł à¦°
Ġà¦ĩ à¦®à¦ª
à§¦ à§®
à¦ĺ à¦Łà¦ķ
Ġà¦Ĩà¦ªà¦¨ à¦ľà¦¨
Ġ b
Ġà¦ ŀ
à¦² à¦¤à¦¬
à¦® à¦¹à¦°
à§ģ âĢĶ
Ġà¦¨ à¦²
Ġà¦¹ à¦ĩà¦¨
Ġà¦ħ à¦²à¦¸
Ġà¦Ń à¦²
Ġà¦Ń à¦Ĺà¦¬
à¦¬à¦¨ à¦ĩ
à¦®à¦ķ à¦®
à¦°à¦² à¦®
à§§à§¯à§ «
Ġà¦ĩà¦īà¦ıà¦¨ à¦¡
ba g
Ġà¦ª à¦¥à¦¨
à¦¸ à¦°à¦¶
à¦¥ à¦°à¦ķ
Ġà¦« à¦ľà¦°
à¦¤à¦¨ à¦¶
à¦ªà¦Ł à¦ª
Ġà¦«à¦¸à¦² à¦¹
har u
Ġ ?
à¦¯ à¦ªà¦°
à¦Ł à¦§à¦°
à¦ª à¦Ľ
Ġà¦® à¦Ĺà¦ľ
à¦¥ à¦ĵ
Ġà¦ľ à¦²à¦ķ
Ġà¦ĸ à¦¸
à¦·à¦£ à¦¤
à¦·à¦£ à¦¬
à¦°à¦¶ à¦®
Ġà¦Ĩà¦¦ à¦Ń
Ġà¦ķà¦² à¦¹
à§¨à§¦à§¦ à§®
Ġà¦¼ à¦¾
en t
bag haru
à¦ķ à¦¨à¦¸
à¦¥ à¦ªà¦°à¦¤
à¦ĵ à¦ªà¦°
Ġà¦ĵ à¦ıà¦¸à¦¡
à¦¶à¦¨ à¦Ł
à§¨ à§Ń
Ġà¦ľà¦® à¦ľà¦®
à¦¦à¦¸ à¦ĩ
à§¨à§¦à§¦ à§¯
Ġà¦ªà¦°à¦®à¦¤ à¦¸à¦¹
s ohrab
à¦° à¦«à¦¤
à¦¨ à¦ªà¦°
à¦¨ à¦ĺ
à¦¦ à¦Ĺà¦ŀ
à¦¸ à¦ķà¦²
Ġà¦¨ à¦ĸ
à¦¹ à¦Ĺ
à¦¡ à¦ĩ
à¦¿. ..
à¦ĺ à¦¬à¦¬
à¦Ĩ à¦ļ
Ġà¦īà¦ª à¦ķà¦®
à¦¦à¦¨ à¦ªà¦¤
à¦ļà¦² à¦Ł
Ġà¦Ŀ à¦²à¦¸
à¦¾âĢĻ âĢĶ
Ġà¦ĸà¦°à¦ļ à¦ĵ
à¦ıà¦¸à¦¬ à¦ĩ
Ġà§§à§¯à§¬ à§ª
à§¨à§¦à§§à§ ¨
ed u
! !
Ġ I
à¦¸ à¦ªà¦¨
à¦· à¦°à¦ķ
Ġà¦® à¦¬
Ġà¦ļ à¦¶à¦®
Ġà¦ľà¦¨ à¦¸à¦¨
à¦¬à¦¨ à¦ĵ
à¦ħ à¦¶
Ġà¦°à¦ķà¦® à¦Ł
Ġà¦ķà¦¤ à¦ķ
à§¦à§¦ à§¦
à§¯à§ ®
u s
à¦¤ à¦¸à¦¨
à¦ķ à¦¸à¦®
Ġà¦ķ à¦ĩà¦°
à¦§ à¦²
à¦¹ à¦ĩ
Ġà¦ĵ à¦¤
Ġà¦ĵ à¦¤à¦ª
à¦Ļ à¦¬
à¦ľà¦¨ à¦Ł
Ġà¦Ł à¦°
à¦¬à¦¨ à¦¸
Ġà¦Ĩà¦² à¦Ĺ
à¦ĩà¦¨ à¦ķ
Ġà¦¸à¦¹à¦ľ à¦Ń
âĢĮ à§ģ
à¦ĩà¦ľ à¦¡
Ġà¦ľà¦¬à¦° à¦¦à¦ĸà¦²
Ġan d
19 5
à¦īà§İà¦ķ à¦£
l a
à¦° à¦īà¦¦
à¦¨ à¦ªà¦ķ
à¦¯ à¦¨à¦¤
à¦· à¦¡
à¦¹ à¦¹
à¦¡ à¦ľ
Ġà¦¡ à¦Ł
à¦ªà¦ķ à¦¥
à¦¸à¦° à¦«
Ġà§§à§® à§®
à§Ģ? âĢĻ
Ġà§§à§§à§ §
à¦¬ à¦®à¦¤
à¦Ł à¦°à¦¬
à¦ł à¦¬
Ġà¦² à¦Ń
Ġà¦ĩ à¦®à¦¤
Ġà¦¤à¦° à¦Ļ
à§Ń à§¨
à¦Ĺà¦² à¦ľà¦¨à¦ķ
Ġà¦§à¦¨ à¦¸à¦®
Ġà¦ıà¦ĩà¦ļ à¦Ĩà¦ĩ
à¦¬ à¦ļà¦¨
à¦ľà¦¨ à¦¸
Ġà¦ĩ à¦¹à¦¸
Ġà¦Ĩà¦° à¦¬à¦ķ
à¦¤à¦° à¦ĵ
Ġà¦Ĩà¦ĩà¦¨ à¦Ĺ
Ġà¦Ĺà¦£ à¦¹
à¦°à¦¹ à¦ķ
à§© à§¨
à¦¨à¦¬à¦¸ à¦Ń
majumder ali
Ġ c
à¦¾ à§ĩ
à¦¯ à¦Ĺà¦¤à¦Ń
à¦¹ à¦¨à¦¤
Ġà¦ľ à¦Ĺà¦¦
Ġà¦ĵ à¦Ĩà¦ĩà¦¸
à§ĥ .
Ġà¦ħà¦¨ à¦®à¦¨
Ġà¦² à¦Ł
Ġà¦« à¦¨
à¦Ĩ à¦¨à¦¨
à¦¸à¦® à¦Ŀ
à¦łà¦ķ à¦ķ
à¦°à¦ªà¦° à¦¨
Ġà¦ıà¦¡ à¦ĵà¦¯
195 0
Ġ in
à§ģ à§ģ
à¦Ł à¦¯
Ġà¦Ĩ à¦·
à¦§ à¦ľ
à¦¹ à¦¬à¦¨
Ġ( âĢĺ
Ġà¦ªà¦¥ à¦ĵ
Ġà¦¬à¦¸ à¦¤à¦¬
à¦¨à¦¶à¦¨ à¦Ń
à§¯à§ §
à¦Ĩà¦« à¦Ĺ
e c
à¦¦ à¦°à¦ķ
à¦¦ à¦ĩà¦¯
Ġà¦® à¦¶à¦Ĺ
à¦§ à¦°à¦¦
à¦¥ à¦ªà¦°
à¦ĵ à¦¥
à¦ł à¦Ł
à¦ī à¦ªà¦°
à¦ī à§İà¦¸à¦¬
à¦¤à¦° à¦Ĺ
à¦°à¦¬ à¦ŀ
à¦°à¦¬ à¦®à¦¯
à¦ıà¦¸ à¦Ĩà¦ĩ
à§įâĢĮ -
Ġà§§à§¯à§ª à§¬
bi sh
à¦® à¦Ĺà¦¤
Ġà¦¨ à¦°à¦¹à¦¤
à¦§ à¦®à¦ķ
Ġà¦ħà¦¨ à¦¬à¦°à¦¤
Ġà¦ľà¦¨ à¦°
à§İ à¦¬
à¦¤à¦¨ à¦®
à¦·à¦£ à¦ĩ
Ġà¦®à¦¤ à¦²à¦¬
à¦·à¦ķ à¦ĵ
à¦Ŀ à¦ªà¦¥
Ġà¦Ĩà¦ª à¦¸à¦°à¦«
Ġà§§à§¯à§« à§©
Ġà¦¨à¦Ĺ à¦°à¦ķ
bish wa
à§ ´
à§ĭ âĢĻà¥¤
Ġà¦Ĩ à¦ĵà¦¡
à¦· à¦¦à¦ķ
Ġà¦ıà¦ķ à¦ĺà¦°
Ġà¦ĩ à¦¡
Ġà¦Ĩà¦¬ à¦°à¦£
Ġà¦¸à¦¹ à¦¸à¦®
à¦ıà¦ķ à¦¸à¦®à¦¯
Ġà§ªà§« à§¦
à¦¤à¦¸ à¦ĩ
Ġà¦ĩà¦īà¦ıà¦¨ à¦ıà¦ĩà¦ļà¦¸
Ġà¦¬à¦¶ à¦¬à¦°
ww w
bishwa bd
t a
à¦¬ à¦ªà¦¨
à¥¤ )
à§Ģ âĢĻ.
à¦· à§İ
Ġà¦¤ à¦°à¦ķ
à¦¥ à¦¦à¦£
Ġà¦ī à¦Ł
Ġà§ İ
Ġà¦ĸ à¦¤à¦®
à¦°à¦® à¦ĵ
à¦¯à¦® à¦ĵ
à¦ļà¦ķ à¦£
Ġà¦ªà¦¶ à¦¤
Ġà¦Ńà¦¬à¦¨ à¦§à¦¸
Ġà§§à§¯à§« à§§
à§¨à§¦à§¦ à§¬
) ;
: âĢĺ
i d
i r
à¦¯ à¦²
à¦® à¦¦à¦ķ
à¦Ĺ à¦ķà¦°
à¦¼à¦¾ à¥¤âĢĻ
Ġà¦° à¦ľà¦¬
Ġà¦ĵ à¦²à¦Ł
Ġà¦Ń à¦£
à¦°à¦£ à¦¹
à¦ī à¦«
à¦ªà¦¨ à¦Ĺà¦°
à¦¤à¦¬ à¦¦à¦²
Ġà¦Ĩà¦¶ à¦ķ
à¦¨à¦¬ à¦¦à¦²
Ġà¦ıà¦² à¦ª
à¦¨à¦ķ à¦ķ
à§Ń à§«
à¥¤âĢĻ âĢĺ
à§ª à§«
à¦¯à¦Ł à¦¨à¦ķ
Ġà§§à§¯à§¬ à§®
Ġà¦Ĩà¦ĸ à¦¡
à¦¨ à¦Ĺà¦£
Ġà¦¬ à¦®
Ġà¦¨ à¦ĵà¦Ĺ
à¦ª à§İà¦¸
Ġà¦¦ à¦¨
Ġà¦¤ à¦ķ
à¦ľ à¦ªà¦°
Ġà¦¸à¦® à¦®à¦¨
à¦ł à¦ķà¦Ł
Ġà¦ħà¦¸ à¦¤à¦°
à¦¼à§Ģ -
Ġà¦®à¦¹ à¦ķ
à¦ıà¦¸ à¦ı
à¦¤à¦¤ à¦ªà¦ķ
à§¨à§¦à§§à§ Ń
u d
à§į .
Ġà¦¸ à¦°à¦¸
Ġà¦¹ à¦°à¦®
à¦· à¦¬à¦°à¦£
à¦ĸ à¦ĵ
à¦ĸ à¦°à¦ļ
à¦ĵ à¦²à¦ľ
Ġà¦ĩ à¦¹à¦ķ
Ġà¦Ĩà¦ĩà¦¨ à¦¸à¦®
à¦¦à¦¨ à¦®
à¦²à¦¤ à¦²
Ġà§§à§¯à§« à§¯
à§¯à§ ©
Ġà¦ıà¦ĩà¦ļà¦Ĩà¦ĩ à¦Ń
Ġ n
à¦¦ à¦¬à¦¨
à¦Ł à¦°à¦¦
Ġà¦® à¦²à¦®
Ġà¦¶ à¦ļ
Ġà¦¸à¦® à¦®à¦°
Ġà¦Ĺà¦£ à¦«
Ġà¦Ĺà¦£ à¦ķà¦¬à¦°
Ġà¦ıà¦¸ à¦ıà¦®à¦ıà¦¸
à¦²à¦¬ à¦¦
Ġà¦ĩà¦¨ à¦Ł
Ġà¦Ĩà¦¤ à¦¤
à§¯à§ ¯
à¦ķ à¦ĸà¦¨
à¦® à¦¦à¦°
Ġà¦Ĩ à¦°à¦ķ
à¦ĩ à¦¬à¦¨
à¦¥ à¦ķà¦Ń
Ġà¦° à¦¤à¦¨
Ġà¦ıà¦ķ à¦²
à¦Ĩ à¦ªà¦¦
à¦¬à¦¬ à¦²à¦¯
Ġà§§à§¦ à§¨
Ġà¦¦à¦ĸà¦² à¦¬
Ġà§¨à§¦à§ª à§§
a tion
à¦¸ à¦®à¦¨
Ġà¦¹ à¦°à¦ķ
Ġà¦ľ à¦²à¦¸
Ġà¦ļ à¦ĵà¦¡
à¦¤à¦° à¦¬
Ġà¦®à¦¨ à¦¨à¦¶
à¦¤à¦¨ à¦Ł
à¦·à¦£ à¦Ĺ
à¦·à¦£ à¦¸à¦¹
à¦°à¦¹ à¦¸
Ġà¦¸à¦° à¦·
à¦«à¦² à¦ĵ
Ġà§§à§¦ à§¦à§¦
à§® à§¦
à¦Ĩà¦ĩ à¦¡à¦¬
à§ĩâĢĶ âĢĺ
à¦¾.) .
Ġà¦ıà¦® à¦ı
Ġà§§à§¯à§¬ à§©
à§¯à§ Ń
Ġà¦ĩà¦īà¦ıà¦¨ à¦ıà¦«à¦ª
Ġà§¨à§¦à§¨ à§«
à¦° à¦°à¦®
à¦Ł à¦®à¦¸
Ġà¦¤ à¦²à¦¦
Ġà¦ľ à¦ŀ
Ġà¦ľ à¦²à¦®
Ġà§ Į
Ġà¦īà¦ª à¦§
à¦ħ à¦¸à¦®
Ġà¦ªà¦¥ à¦ķ
à¦¤à¦ķ à¦¡
Ġà¦Ī à¦·à§İ
Ġà§§à§¯à§ª à§«
Ġà¦¸à§İ à¦ķà¦°
h e
à¦¤ à¦§à¦°
Ġà¦¨ à¦«à¦¸
Ġà¦® à¦ķà¦¬
à¦£ à¦Ĺ
Ġà¦ħà¦¨ à¦°
Ġà¦ĩ à¦¬à¦°
à§İ à¦«
Ġà¦Ĩà¦¸ à¦¨à¦Ł
à¦Łà¦ķ à¦®
Ġà¦¬à¦ĩ à¦ªà¦¤
.. ..
Ġà§§à§© à§«
Ġà¦¸à¦« à¦°à¦¸à¦Ļ
à§ĭ? âĢĻ
à§¯à§ ¨
à¦ħà¦¤ à¦ıà¦¬
t e
Ġ D
à¦¸ à¦ĸ
Ġà¦Ĩ à¦ĩà¦°
Ġà¦® à¦¸à¦¨à¦¦
à¦ĸ à¦ķà¦ķ
à¦Ń à¦ª
Ġà¦« à¦²à¦ķ
à¦¬à¦¸ à¦¨
âĢĻ !
à¦·à¦£ à¦¸
Ġà¦¸à¦¹ à¦®à¦¤
à¦¦à¦° à¦Ł
à¦ĩà¦² à¦¸
Ġà¦¶à¦° à§İ
Ġà§§à§¯à§« à§Ń
à¦°à¦« à¦°à¦®
d in
Ġ R
à¦ķ à¦Ĩà¦ª
à¥¤ âĢĿ
à¦¶ à¦¶
Ġà¦Ĩ à¦¦à¦¨
à¦ł à¦¶
à¦ªà¦¦ à¦¶
Ġà§§à§¦ à§¯
à§© à§§
m ed
Ġà¦ķ à¦¤à¦¬
à¦¸ à¦¶
à¦· à¦¸à¦¹
à¦ľà¦¨ à¦Ĺ
Ġà¦ľà¦¨ à¦¬à¦¸à¦¤
à¦ī à¦ĩà¦¨
à¦ħ à¦«
à¦®à¦¸ à¦Ł
Ġà¦Ĩà¦ļà¦°à¦£ à¦ķ
à¦Łà¦Ľ à¦¡
à¦®à¦ĺ à¦£
à¦Łà¦®à¦¹à¦² à¦¬
Ġà¦ªà¦Ł à¦ªà¦°
à§§à§¯à§¯à§ ¬
f aruk
t r
u n
Ġ âĸł
à¦¨ à¦ªà¦¦
Ġà¦¸ à¦ľà¦²
Ġà¦¸ à¦ĵà¦ľ
à¦Ł à¦°à¦Ĺ
Ġà¦ı à¦ıà¦ª
Ġà¦ħ à¦¢
à¦ļ à¦Ń
Ġà¦ıà¦ķ à¦ªà¦ķ
à§¦ à§¬
à¦¬à¦° à¦¦à¦¸
à¦¬à¦¨ à¦¤
Ġà¦Ĩà¦² à¦®à¦ķ
à¦ĺ à¦¸à¦¹
Ġà¦ľà¦¨à¦Ĺà¦£ à¦ĵ
Ġà¦ķà¦¤ à¦ĩ
Ġà§§à§® à§¬
. âĢĻ
a c
à¦ķ à¦§
à§ģ à§į
Ġà¦¬ à¦¤
à¦¸ à¦ľà¦®
à¦¶ à¦ļ
à¦¹ à¦īà¦¦
Ġà¦ĸ à¦¯
à¦« à¦«à¦°
à¦ı à¦®à¦ķ
Ġà¦ĺ à¦¨à¦¤
à¦¬à¦° à¦¦
à¦Ĩ à¦ŀ
Ġà¦īà¦ª à¦®à¦¨
à¦¥à¦¨ à¦ĵ
à¦ļà¦² à¦Ń
Ġà¦°à¦ķà¦® à¦Ń
Ġà¦· à¦¯
Ġà§§à§¨ à§ª
an u
Ġà¦¬à¦°à¦ķ à¦¤à¦®à¦¯
0 3
o c
Ġ âĢĶ
Ġ mrkhanbd
à§ģ !
à§Ģ ).
à¦¶ à¦®à¦¨
Ġà¦ħ à¦£
à¦¥ à¦¦
à¦ģ à§ģ
Ġà¦² à¦ĩà¦¯
à¦ī à¦ªà¦¦
à¦¤à¦¨ à¦Ĺà¦°
à¦¨à¦¤ à¦²
Ġà§¨à§¦ à§«à§¦
Ġà¦ħà¦¤ à¦²
Ġà¦ħà¦ª à¦¦à¦¸
à¦¶à¦Ĺ à¦¡
Ġà¦ĸà¦¬à¦° à¦ĩ
à§® à§®
Ġà¦Ĩà¦ĩ à¦ıà¦²à¦ĵ
à¦¼à§ģ .
à¦Ĩà¦ĩ à¦ıà¦®
à¦ĩà¦¸ à¦Ĺ
Ġà¦ľà¦² à¦ª
à¦īà¦ľ à¦ª
Ġ E
à¦° à¦ªà¦¦
à¦Ł à¦ļà¦ķ
Ġà¦¨ à¦ĵ
Ġà¦® à¦°à¦²
à¦¡ à¦¯
Ġà¦¶ à¦¶
Ġà¦¶ à¦°à¦¤
à¦¾à¦ģ âĢĻ
Ġà¦¥ à¦²
Ġà¦Ł à¦ªà¦ķ
à¦Ĩ à¦ĩà¦ķ
à¦¸à¦¨ à¦ĩ
à¦²à¦¤ à¦ª
Ġà¦Ĩà¦¦ à¦®à¦¶
à¦ħ à¦ļ
à¦°à¦¨ à¦®
à¦°à¦² à¦¸
Ġà§§à§¨ à§¬
Ġà¦Ĩà¦ĩà¦ıà¦¸ à¦Ĩà¦ĩ
à§¯à§ ª
ud din
! )
. ).
à¦ķ à¦ķà¦°
à¦ķ à¦¸à¦¨
à¦Ł à¦¨à¦ķ
à¦ª à¦ķà¦°
Ġà¦® à¦«
Ġà¦ħ à¦²à¦ķ
Ġà¦° à¦Ĺ
à¦°à¦ķ à¦¨
Ġà¦Ľ à¦Ł
Ġà¦ĸ à¦²à¦¨
à¦ī à¦Ĺ
à¦ī à¦¤à¦°
à¦¬à¦° à¦Ł
à¦ĩà¦¨ à¦¦
Ġà¦Ĩà¦Ĺ à¦¨
à¦²à¦¨ à¦ĩ
Ġà¦¡ à¦°
Ġà¦¬à¦Ľà¦° à¦ľ
à¦¸à¦¨ à¦¤à¦¨
à¦·à¦ķ à¦¸à¦¹
à¦¶à¦ķ à¦ķ
Ġà¦Ŀ à¦²
Ġà¦Ŀ à¦Ł
à¦¼à§ĩà¥¤ âĢĻ
à¦Ĩà¦ĩ à¦ıà¦¨
Ġà¦Ĩà¦« à¦ľ
Ġà§§à§§à§ ®
à¦Ĩà¦¤ à¦Ļ
à¦ķ à¦ļà¦ķ
Ġà¦¸ à¦¯à¦¤
à¦Ł à¦¸à¦®
Ġà¦ı à¦¨à¦ķ
Ġà¦¹ à¦®
à¦Ĺ à¦¯
à¦¼à§ĩ !
à¦ļ à¦ľà¦¨à¦ķ
à¦ĸ à¦ªà¦¤
Ġà¦ıà¦ķ à¦¹
à¦ľà¦¨ à¦®à¦¤
à¦ªà¦¨ à¦¦
à¦®à¦¤ à¦ĵ
à¦¸à¦¬ à¦¹
à¦ĺ à¦²à¦ķ
à¦¿à¦Ĥ )
Ġà¦Ĩà¦ĩà¦¨ à¦ĵ
à¦¦à¦¨ à¦Ĺ
à¦°à¦Ń à¦Ļ
Ġà¦¿ .
à¦ļà¦ķ à¦Ĺ
à¦ıà¦« à¦Ĩà¦ĩ
Ġà¦ķà¦¸ à¦°à¦¤
Ġà¦Ŀà¦² à¦®à¦²
à¦¾ âĢĮ
à¦¾ âĢĿ
à¦¨ à¦ķà¦²
à¦Ł à¦¤à¦°
à¦ĩ à¦¥
Ġà¦ħ à¦ªà¦¤
Ġà¦ħ à¦ľà¦¨à¦ª
Ġà¦ļ à¦°à¦£
âĢĻ ;
à¦¸à¦¨ à¦¸à¦¹
à¦¸à¦ķ à¦·
Ġà¦ıà¦¨ à¦Ń
Ġà§§à§ª à§Ń
à¦ľà¦Ĺ à§İ
Ġà¦Ŀà¦ķ à¦Ŀà¦ķ
à¦¬ à§İà¦ķ
à¦² à¦ķà¦²
Ġà¦¸ à¦ĩà¦¯
Ġà¦¬ à¦¹à¦®
à¦¦ à¦ľ
à¦¸ à¦«à¦²
Ġà¦ķà¦° à¦®
à¦§ à¦¬à¦¨
à¦ĸ à¦Ĺ
à¦Ļ à¦Ľ
Ġà¦§ à¦¨à¦¬
à¦¤à¦° à¦ĩ
à¦¼. ..
à¦²à¦¨ à¦Ĺ
à¦¸à¦¨ à¦ª
Ġà¦ªà¦¦ à¦¦à¦²
à¦ıà¦¨ à¦¬
ho t
Ġà¦ħà¦¬à¦¨ à¦®à¦¨
Ġà§§à§§à§ ¯
Ġà¦ĸà¦¨à¦¨ à¦ķ
âĢĭ à§ĩ
Ġt o
o v
à¦¼ âĢĻ.
à¦¬ à¦ķà¦¤
à§ģ à¥¤âĢĻ
à¦¶ à¦§à¦°
Ġà¦Ĩ à¦ĩà¦ķ
Ġà¦ı à¦¹à¦¸
à¦Ĺ à¦ļ
à¦Ĺ à¦Ńà¦°
à¦¼à§ĩ )
à¦§ à¦Ľ
à¦ļ à¦Ĺ
Ġà¦ļ à¦·
Ġà¦Ĩà¦° à¦¶
à¦®à¦¤ à¦¨
à¦¶à¦¨ à¦¬
à¦¨à¦¤ à¦¤
à¦¸à¦¦ à¦ĵ
Ġà¦¨à¦Ĺà¦° à¦ľ
à§¯à§ «
a man
l i
Ġ m
à¦¤ à¦£
à¦ķ à¦ĺà¦°
à¦² à¦Ŀ
à¦¸ à¦¸à¦®
Ġà¦¨ à¦¹
à¦ª à¦®à¦¨
Ġà¦¤ à¦ª
Ġà¦¤ à¦¤à¦¬
Ġà¦¯ à§İà¦¸
à¦¼à¦¾ )à¥¤
Ġà¦ıà¦ĩ à¦¡à¦¸
Ġà¦ĺ à¦°à¦Ł
à¦°à¦® à¦°
à¦¯à¦ķ à¦°à¦£
Ġà¦Ĩà¦ĩà¦¨ à¦¬à¦¹
Ġà¦ħà¦¸ à¦®à¦¯
Ġà§§à§¦ à§«
Ġà¦¿ à¦Ĥ
à¦¬à¦¤ à¦²
à¦°à¦ªà¦° à¦ĩ
Ġà¦Ĩà¦¹à¦® à¦¦à¦ķ
Ġà§§à§§à§ «
Ġà¦ļà¦²à¦¨ à¦¬
à¦¬ à¦ľà¦¨à¦ķ
à¦ĩ à¦īà¦ľ
à¦ĩ à¦ĩà¦ī
à¦¡ à¦ī
à¦¼à¦¾ âĢĻà¥¤
Ġà¦¸à¦® à¦¬à¦¯
à¦ł à¦ĸà¦¡
Ġà¦ĸ à¦Łà¦ķ
Ġà¦« à¦¸à¦ķ
à¦¬à¦¨ à¦ª
Ġà¦ķà¦® à¦¸
à¦°à¦¸ à¦¤
à¦ĺ à¦¨à¦ķ
à¦Ĩ à¦®à¦²
à¦¬à¦² à¦ľ
Ġà¦¸à¦° à¦Ĺà¦°à¦®
à¦ĩà¦² à¦ļ
Ġà¦Ŀ à¦°à¦¨
Ġà¦ĸà¦¬à¦° à¦Ĺ
à§© à§©
Ġà¦¨à¦¬ à¦Ĺà¦ł
Ġà§§à§« à§ª
Ġà¦¬à¦Ł à¦®
à¦ıà¦« à¦¡
à¦īà¦¬ à¦ĵà¦¯
Ġà¦¸à¦¦à¦° à¦ĺ
Ġà¦īà¦ĩà¦² à¦¸à¦¨
hot mail
Ġ mashiul
à¦¯ à¦°à¦¸
Ġà¦¸ à¦¶à¦°
à¦ĩ à¦īà¦ķ
à¦· à¦¶
à¦ļ à¦¬à¦°
à¦¹ à¦ªà¦°
à¦¡ à¦¹
Ġà¦ļ à¦¬
Ġà¦¸à¦® à¦ķà¦ķ
à¦ļà¦¨ à¦¸
Ġà¦ıà¦° à¦ĵ
à¦¸à¦¨ à¦¸
à¦¯à¦¬ à¦¯
à¦²à¦¤ à¦ĵ
Ġà¦¨à¦¤ à¦ľ
à§® à§Ń
à§ª à§®
Ġà¦Ĳ à¦ļ
à¦°à¦ĸ à¦°
... à¥¤
Ġà§§à§¯à§« à§«
Ġà¦¦à¦¶ à¦ľà¦¨
à¦¤ à¦§
à¦¤ à¦ľà¦¨à¦ķ
à¦¼ à¦ĥ
à¦ª à¦Ļ
à¦ĩ à¦Ĩà¦°à¦¸
à¦Ĺ à¦«à¦²
à¦ľ à¦¤à¦¬
à¦ľ à¦²à¦¦
à¦§ à¦ĺ
à¦ĸ à¦ĩ
à¦ĵ à¦ļ
à¦¤à¦° à¦¦
Ġà¦ħà¦° à¦«
Ġà¦Ĺà¦£ à¦°
Ġà¦ħà¦¸ à¦Ń
à¦Ńà¦¬ à¦ªà¦°
Ġà¦ħà¦ª à¦ĺ
Ġà¦ıà¦² à¦ľ
à¦¦à¦ķ à¦¸
Ġà¦ªà¦¥ à¦ª
à¦§à¦¨ à¦¶
à§¬ à§«
Ġà¦Ī à¦¸
à¦¹à¦°à¦£ à¦ĵ
Ġà¦Ĩà¦ĩà¦ıà¦¸ à¦Ĩà¦ĩà¦¯
à¦ıà¦ķ à¦ĩà¦Ń
Ġà¦Ĭ à¦¨à¦¬
Ġà§§à§¯à§ª à§¦
Ġà¦ıà¦« à¦¡
Ġà¦ıà¦ķà¦¦à¦® à¦ĩ
Ġ @
à¦¯ à¦ĸ
à¦² à¦ªà¦°
à¦Ł à¦ķà¦Ł
à¦¶ à¦°à¦£
à¦Ĺ à¦²à¦ķ
à¦¥ à¦¸à¦®
à¦¥ à¦²à¦Ń
à¦£ à¦ªà¦£
Ġà¦ľ à¦ĵà¦¯
Ġà¦ĵ à¦ľà¦°
Ġà¦Ł à¦¬
à§İ à¦¸à¦¨
à§Į -
Ġà¦®à¦¹ à¦²à¦ķ
Ġà¦Ŀ à¦ŀ
à¦ıà¦¸ à¦ĩà¦¸
Ġà§§à§¦ à§©
à§Ń à§ª
à¦¶à¦² à¦Ł
à¦¶à¦² à¦ªà¦¤
à¦¿âĢĻ âĢĶ
Ġà¦Īà¦¦ à¦Ĺ
Ġà¦¶à¦¹ à¦°à¦¬
Ġà§§à§ª à§¬
Ġà¦ħà¦® à¦Ļ
à¦ĩà¦ī à¦¤
ah med
Ġà¦ħà¦ªà¦¤ à§İà¦ªà¦°à¦¤
o w
à¦¨ à¦§à¦°
à¦ĩ à¦Ļ
à¦ļ à¦¹
à¦¹ à¦ķà¦ķ
à¦ĵ à¦°à¦¬
Ġà¦ļ à¦ª
Ġà¦ļ à¦ŀ
Ġà¦ªà¦° à¦ĸ
Ġà¦Ĩà¦® à¦°à¦£
Ġà¦Ľ à¦°
Ġà¦ĩ à¦²à¦®
Ġà¦ıà¦ĩ à¦Ń
Ġà¦¦à¦² à¦¬à¦¦
Ġà¦Ĺà¦£ à¦ķà¦®
Ġà¦Ĩà¦¦ à¦®à¦ľ
Ġà¦ıà¦¤ à¦¦
à¦¦à¦° à¦Ĺà¦ŀ
Ġà¦ļà¦Ł à¦ľà¦²à¦¦
à¦Ĩà¦ĩ à¦ıà¦®à¦ıà¦«
Ġà¦Ĩà¦ª à¦²
Ġà¦¨à¦Ĺà¦° à¦ª
Ġà¦ļà¦ķ à¦ļà¦ķ
Ġà¦īà¦ĩ à¦¥
c e
s a
à¦¨ à¦¥
à¦¤ à¦¡
à¦¬ à¦ķà¦Ł
Ġà¦¸ à¦¶
à¦¦ à¦¶à¦®
Ġà¦ª à¦ľ
Ġà¦¨ à¦Łà¦°
à¦¹ à¦ĸ
à¦ĵ à¦«
Ġà¦ıà¦ķ à¦ĺ
à¦¾à¦ģ -
Ġà¦ľà¦¨ à¦Ń
Ġà¦§ à¦ķà¦²
à¦ļà¦¨ à¦ª
Ġà¦ĺ à¦·
à¦ī à¦ŀ
à¦ī à¦ªà¦¨
à¦¤à¦° à¦Ń
Ġà¦¦à¦² à¦¬à¦²
à¦¸à¦¬ à¦ĸ
à¦ķà¦Ł à¦Ł
Ġà¦īà§İ à¦«
à¦®à¦¸ à¦ľ
à¦¤à¦ķ à¦ķ
à¦¨à¦Ĺ à¦ŀ
à§İà¦¸à¦ķ à¦ķ
Ġà§§à§Ń à§¦
Ġà§§à§Ń à§«
à§§à§¯à§Ń à§¨
a d
m e
à¦¤ à¦ļà¦ķ
à¦¤ à¦ļà¦°
à¦® à¦ļà¦¨
à¦® à¦¸à¦¨
à§ĭ )à¥¤
Ġà¦Ĩ à¦ªà¦¦
Ġà¦® à¦¦à¦¨
à¦ľ à¦¬à¦¨
à¦ľ à¦ķà¦¦
Ġà¦ħ à¦¤à¦°
Ġà¦° à¦Ľ
Ġà¦ļ à¦¯
Ġà¦ļ à¦£
Ġà¦ļ à¦®à¦¸
à¦ı à¦ĵ
Ġà¦¦à¦² à¦¸à¦¹
Ġà¦Ĩà¦Ľ à¦¡
à¦¯à¦® à¦¸à¦¹
à¦ķà¦² à¦¹
Ġà¦¢ à¦Ļ
à¦¸à¦¦ à¦ĩ
à¦Ĺà¦£ à¦®
à¦¬à¦¦ à¦°à¦¬
à§Ń à§©
Ġà¦ĵà¦ł à¦¬à¦¸
à¦Ĩà¦ĩ à¦Ĩà¦°
à¦ıà¦® à¦ı
Ġà§§à§© à§§
à¦¬à¦ľà¦¨ à¦¬
... à¥¤âĢĻ
à§¨à§¦à§§à§ ®
Ġà¦ĭ à¦¦
Ġà§§à§¯à§¨ à§¦
v e
à¦¯ à¦¤à¦°
à¦¤ à¦¤à¦°
à¦¤ à¦ļà¦²
à¦¼ ).
Ġà¦¬ à¦ªà¦¨
à¦Ł à¦ľà¦¨
à¦ľ à¦¤à¦ķ
à¦¹ à¦°à¦ķ
à¦Ĥ à¥¤
Ġà¦ıà¦ķ à¦ĸ
à¦°à¦¤ à¦ĩ
à¦¾. )à¥¤
Ġà¦®à¦¨ à¦Ĺà¦¡
à¦¬à¦¨ à¦¨
à¦¤à¦¨ à¦¦
Ġà¦¬à¦Ľà¦° à¦ĸ
à¦¸à¦¨ à¦¯à¦¨
Ġà¦ħà¦¸ à¦®à¦°
à¦¥à¦¨ à¦ª
Ġà¦«à¦² à¦¦
Ġà¦īà§İ à¦ķà¦Ł
Ġà§§à§¦ à§ª
Ġà¦ħà¦Ĺ à¦Ń
à¦ķà¦ľà¦¨ à¦ĵ
Ġà§§à§¨ à§®
Ġà¦ľà¦Ł à¦²
Ġà§¯à§ ¯à§
à§§à§¯à§ ¯à§¦
à¦¸à¦« à¦Ł
Ġà§¬à§« à§¦
à¦°à¦¸à¦¬ à¦ķ
à§§à§¯à§¯à§ §
à¦¨ à¦Ńà¦°
Ġà¦¸ à¦¬à¦°
Ġà¦¬ à¦ļ
Ġà¦ª à¦®
à¦ª à¦¸à¦®
à¦· à¦«
à¦Ĺ à¦¨à¦¸
à¦§ à¦¡
Ġà¦° à¦īà¦«
Ġà¦¶ à¦®
Ġà¦Ĺ à¦ľà¦²
Ġà¦ľà¦¨ à¦¯
Ġà¦ıà¦ĩ à¦°
Ġà¦ĺ à¦¨à¦®
à¦ķà¦° à¦¦
à¦ĩà¦¨ à¦®
Ġà¦Ĺà¦£ à¦¸à¦ļ
à¦·à¦ķ à¦¸
Ġà¦¬à¦¨ à¦Ĺ
à¦Ńà¦¬ à¦ĵ
à¦Ĺà¦£ à¦¹à¦¤
à¦·à¦¤ à¦ķ
Ġà§§à§¦ à§§
à§ª à§Ń
à¦®à¦°à¦£ à¦ķ
à¦Ĩà¦ĩà¦¨ à¦¶
?âĢĻ âĢĺ
à¦¿! âĢĻ
Ġà¦°à¦¸ à¦Ĺ
Ġà¦®à¦¦ à¦¦à¦ª
Ġf aruk
l e
r ee
Ġ +
à¦¤ à¦ĵà¦¯
à¦² à¦Łà¦¨
Ġà¦¬ à¦ļà¦¨
Ġà¦ª à¦¸
Ġà¦ª à¦ł
à¦¸ à¦®à¦¤
Ġà¦¨ à¦ª
Ġà¦Ĩ à¦īà¦¶
à¦· à¦ĸ
Ġà¦® à¦¤à¦¨
à¦§ à¦°à¦¤
Ġà¦ħ à¦¹à¦®
Ġà¦¯ à¦¬
à¦£ à¦ļà¦°
à¦°à¦¤ à¦ľ
à¦°à¦ķ à¦Łà¦Ń
à¦¬à¦¸ à¦Ń
Ġà¦ķà¦® à¦ľ
Ġà¦Ĩà¦¨ à¦¯
à¦¸à¦¦ à¦Ĺ
Ġà¦ıà¦¸ à¦Ĩà¦ĩ
à¦¸à¦® à¦ķ
Ġà¦®à¦¹ à¦¸
à¦¬à¦¹ à¦¨à¦®
à§ª à§¨
Ġà¦Ĩà¦ª à¦¸à¦ķ
à¦®à¦¹ à¦¨à¦¨
à¦ĩà¦« à¦¦
à¦Ĺà¦ł à¦ķà¦¦
Ġà¦ıà¦« à¦ıà¦®
.) âĢĵ
Ġà¦ĩà¦īà¦ıà¦¸ à¦ı
Ġà¦®à¦Īà¦¨ à¦īà¦¦
Ġ M
Ġ g
à§ µ
à¦¿ à¦¿
à¦¬ à¦ªà¦¦
Ġà¦¸ à¦ĵà¦¦
Ġà¦¬ à¦īà¦¯
à¦· à¦¤à¦¨
à¦Ĺ à¦¤à¦°
Ġà¦¯ à¦¬à¦¸
à¦ĸ à¦¦
Ġà¦° à¦ļà¦¯
Ġà¦ªà¦° à¦²
à¦®à¦¨ à¦ľ
Ġà¦§ à¦²
à¦¿à¥¤ âĢĺ
Ġà¦īà¦ª à¦¶à¦®
Ġà¦ħà¦¸ à¦¤à¦¤
Ġà¦«à¦² à¦ĵ
à¦¨à¦¬ à¦ª
Ġà¦Ŀ à¦²à¦ķ
à¦¶à¦² à¦Ĺà¦¤à¦Ń
à¦Łà¦° à¦°
à¦Łà¦¤ à¦²
Ġà§§à§® à§©
à¦ıà¦² à¦Ĩà¦°
à§¨à§¦à§¦ à§Ń
à§§à§¯à§Ń à§«
Ġà¦°à¦ĵ à¦ľ
Ġà¦¬à¦Ľ à¦°à¦¬
o p
s i
z aman
à¦² à¦°à¦°
Ġà¦Ĩ à¦ķà¦¤
à¦¡ à¦«
à¦Ń à¦ĵ
à¦Ń à¦°à¦¨
à¦°à¦ķ à¦¥
à¦ł à¦Ĺ
à¦ı à¦ķà¦ķ
à¦°à¦¬ à¦§
à¦Ĩ à¦¹à¦°
à¦¼à§ĭ à¥¤
Ġà¦¡ à¦Łà¦ķà¦®
Ġà¦ªà¦¦ à¦¬à¦ŀ
à¦ıà¦¨ à¦¡
à¦¨à¦¯ à¦ľ
à§« à§«
Ġà¦Ĩà¦ĩ à¦¬
à¦ķà¦°à¦£ à¦ķ
à¦°à¦ľ à¦¬à¦°à¦¦à¦¸
ra f
Ġà¦ĭ à¦·
à¦ĩà¦īà¦ıà¦¨ à¦ĵ
à§ģ âĢĻà¥¤
Ġà¦¸ à¦°à¦£
Ġà¦¬ à§İà¦¸à¦°
à¦¦ à¦°à¦¤
à¦Ł à¦¶
Ġà¦¤ à¦°à¦¤
Ġà¦® à¦°à¦ķ
Ġà¦® à¦°à¦¹
à¦ľ à¦²à¦¬
Ġà¦ħ à¦¯à¦¤
à¦¹ à¦ł
Ġà¦° à¦²
Ġà¦Ĺ à¦ĵà¦¹à¦°
Ġà¦ī à¦ĩà¦¦
Ġà¦ĩ à¦«
Ġà¦ĩ à¦¶à¦°
à¦®à¦¨ à¦ķ
Ġà¦Ĺà¦£ à¦Ĺ
à¦ķà¦Ł à¦®à¦¯
à¦¸à¦¦ à¦¸à¦¹
Ġà¦§à¦°à¦¨ à¦Ł
à¦Ĺà¦£ à¦ª
à¦¨à¦¸ à¦ĩ
à¦·à¦¦ à¦Ĺ
Ġà¦ĭà¦£ à¦¸
Ġà¦¬à¦ĩ à¦ĵ
Ġà¦Ĩà¦ĩà¦ıà¦¸ à¦ª
Ġà§§à§¬ à§¨
Ġà§§à§© à§®
Ġà¦¸à¦« à¦°à¦Ł
à¦¨à¦ľà¦¨ à¦ĩ
Ġà§§à§§à§ ©
à¦¤à¦ļ à¦°à¦¬
à¦ĩà¦¶ à¦¡
g m
Ġ d
à¦¸ à¦°à¦¦
à¦Ł à¦ĵà¦Ń
à¦ļ à¦²à¦¤
à¦ĵ à¦¬à¦¨
Ġà¦° à¦Łà¦¨
Ġà¦Ĺ à¦ŀ
à§¦ à§Ń
Ġà¦Ĩà¦² à¦«
à¦¬à¦² à¦¤à¦°
à¦®à¦² à¦Ĺ
à¦¤à¦® à¦ľ
à¦ıà¦¨ à¦ıà¦«
à¦¦à¦° à¦Ĺ
à¦Ĺà¦łà¦¨ à¦ĩ
à¦Ĺà¦łà¦¨ à¦ĵ
à§© à§®
à¦ªà¦£ à¦ķ
à¦ıà¦² à¦ĵà¦°
Ġà§Ńà§« à§¦
à¦¤ à¦¬à¦¸
à¦¼ /
à¦¬ à¦ļà¦ķ
à¦® à¦¶à¦ķ
à¦¦ à¦°à¦®
à¦¸ à¦Łà¦¨
à¦¸ à¦ļà¦°
à¦¶ à¦²à¦¬
à¦ĩ à¦Ĩà¦°
à¦ĩ à¦īà¦¸
Ġà¦® à¦ĩ
Ġà¦ķà¦° à¦®à¦°
Ġà¦ħ à¦¤à¦¨
à¦ļ à¦ķà¦°
Ġà¦ī à¦ľà¦¬
Ġà¦¬à¦² à¦ķ
à¦ļà¦¨ à¦ªà¦¦
à§İ à¦ĩ
à§İ à¦«à¦°
à¦ĺ à¦²
Ġà¦®à¦¤ à¦ķ
Ġà¦¸à¦¹ à¦Ĺ
Ġà¦¬à¦¨ à¦¬
Ġà¦¬à¦¨ à¦ľ
à¦²à¦ķ à¦ĵ
à¦¦à¦° à¦¨à¦Ĺà¦°
à¦ħ à¦¦
à¦²à¦¬ à¦ķ
Ġà¦ĩà¦¨ à¦¶
Ġà§§à§¦ à§Ń
à¦ıà¦® à¦ıà¦ĩà¦ļ
à¦Ĩà¦° à¦ıà¦¸à¦ıà¦¸
Ġà§§à§ª à§®
Ġà§§à§© à§¨
à¦¶à¦¦ à¦Ń
ha raf
Ġà§§à§¯à§© à§Ń
or g
Ġà¦ľà¦²à¦® à¦Ĺ
Ġ )
Ġ Ì
à¦° à¦¡à¦ķ
à¦² à¦ªà¦Ł
à¦¸ à¦§
à§Ģ /
à¦ª à¦§
à¦ļ à¦ª
Ġà¦° à¦¥à¦®
Ġà¦ıà¦ķ à¦Ń
à¦¾à¥¤ âĢĺ
à¦¾à¥¤ ...
à¦¬à¦¨ à¦¹
à¦¤à¦¨ à¦Ĺ
Ġà¦īà¦ª à¦®
à¦¬à¦¬ à¦¹
à¦²à¦¤ à¦Ĺ
à¦¼à§Ģ âĢĻ
à¦¨à¦¬ à¦®
à¦¨à¦¬ à¦¹
Ġà¦ĩà¦¤ à¦¸
à¦°à¦¹à¦£ à¦ĵ
à¦¨à¦®à¦¨ à¦¸
Ġà§§à§¦ à§¬
Ġà¦¯à¦¤ à¦ĸ
à§® à§¯
à§ª à§ª
Ġà¦Ĺà¦° à¦ľ
à¦Ĩà¦ĩ à¦ıà¦²à¦ĵ
Ġà§§à§« à§«
Ġà¦¨à¦Ĺà¦° à¦Ĺ
an g
Ġà§¨à§Ń à§¦
à§¨à§¦à§¦ à§ª
i m
à§ĩ à¦¿
à¦¿ âĢĿ
à¦¯ à§İà¦ķ
à¦¤ à¦ķà¦²
à¦ķ à¦®à¦¨
à¦¦ à¦ľà¦¨à¦¨
à¦Ł à¦¤à¦®
Ġà¦Ĩ à¦¹à¦°
à¦§ à¦¹
Ġà¦¯ à¦ľ
à¦£ à¦Ńà¦¯
Ġà¦¶ à¦°à¦¬à¦¤
à¦°à¦£ à¦ªà¦¤
Ġà¦Ĩà¦° à¦¬à¦¸à¦¹
à¦ī à¦ĵà¦¯
à¦ī à§İà¦¸
à¦²à¦¨ à¦®
à¦¼à§ĭ .
Ġà¦¡ à¦¯
à¦¹à¦¤ à¦¦
à¦ħ à¦®à¦°
à¦īà¦¨ à¦²
à¦ľà¦® à¦¹à¦²
Ġà¦Ńà¦¬à¦¨ à¦ķ
à¦ľà¦¤ à¦²
Ġà§§à§¬ à§ª
Ġà¦ķà¦¨ à¦¡
à§§à§¯à§ ¨
Ġà§¨à§© à§¦
à¦ķà¦¶à¦¨ à¦ıà¦ĩà¦¡
âĢĿ âĢĻ
à§¨à§¦à§¦ à§¦
Ġà§§à§§à§ ª
Ġà§§à§§à§ Ń
Ġà¦®à¦¦à¦¦ à¦¦
Ġà¦¹à¦¤à¦Ń à¦®
Ġà§§à§¯à§§à§ Ń
har if
Ġà¦Ľà¦Ł à¦«à¦Ł
à¦¨ à¦Ŀ
à¦¯ à¦ĺ
à¦¤ à¦¯à¦¶
à¦² à¦Ńà¦°
à¦® à¦®à¦¨
à§ģ ;
Ġà¦¸ à¦¸à¦®
Ġà¦¬ à¦Łà¦¤à¦²
à¦Ł à¦§
à¦Ł à¦°à¦ķ
à¦Ł à¦¸à¦Ļ
à¦ª à¦¬à¦¦
à¦Ľ à¦ĵ
à¦Ĺ à¦®à¦¯
Ġà¦ľ à¦ľà¦¦
à¦¡ à¦Ńà¦¨
Ġà¦Ĺ à¦Ĺ
Ġà¦ıà¦ķ à¦¸
à¦ļà¦¨ à¦®
Ġà¦Ł à¦Ĺà¦¬
Ġà¦Ĩà¦¸ à¦ĵà¦¯
à¦°à¦¬ à¦ļà¦¨
à¦¤à¦¨ à¦ĩ
à¦²à¦¨ à¦ķà¦¶
Ġà¦Ĺà¦£ à¦ļ
à¦·à¦ķ mohi
à¦¬à¦² à¦ķ
Ġà¦Ĩà¦¤ à¦¶à¦¬
Ġà§§à§¦ à§®
à§® à§«
Ġà¦Ĺà¦łà¦¨ à¦ķ
Ġà¦Ĩà¦ļà¦°à¦£ à¦Ĺà¦¤
ma h
à¦°à¦ľà¦¨ à¦¨à¦¸
Ġà¦¦à¦®à¦¨ à¦¨
à¦¦à¦ª à¦¸à¦°à¦£
Ġà§§à§© à§¬
ra ri
à§¨à§¦à§¦ à§«
ur ba
harif rari
Ġà¦Łà¦Ĺà¦¬ à¦Ĺ
o o
t er
¿ ½
ï ¿½
à¦¤ à¦ĸ
à¦® à¦®à¦¯
à¦¦ à¦ĸà¦²à¦ķ
à¦¸ à¦ł
à¦ª à¦ĸ
à¦Ľ à¦ķà¦ĩ
à¦ĩ à¦¸à¦¹
à¦ĸ à¦®à¦£
à¦¡ à¦¦
à¦¼à¦¾ !
à¦« à¦°à¦®
Ġà¦¦à¦² à¦ª
à¦ĩà¦¨ à¦°
à¦°à¦¸ à¦°à¦®
à¦Ĩ à¦¹à¦®
Ġà¦Ĩà¦¬ à¦Ĺ
à¦¦à¦ķ à¦¸à¦¹
Ġà¦Ĩà¦ľ à¦ĩ
Ġà¦Ŀ à¦°à¦Ľ
à§§ à§¦à§¦
à§¬ à§¨
à¦ķà¦ľà¦¨ à¦ĩ
à¦łà¦ķ à¦ĵ
Ġà¦· à¦£
Ġà§§à§ª à§«
Ġà§¨à§¦à§¨ à§¨
20 1
Ġ F
Ġ L
à¦¯ à¦ļà¦°
à¦ķ s
à¦² à¦ŀ
Ġà¦¬ à¦īà¦ķ
à¦¦ à¦®à¦¸
Ġà¦ª à¦Łà¦ķ
à¦¶ à¦ķà¦°
Ġà¦ı à¦Ĩà¦ĩ
Ġà¦¦ à¦°à¦ª
à¦Ĺ à¦¹à¦¸
à¦ļ à¦Ĺà¦¤
à¦Ĥ âĢĵ
à§ĩà¥¤ )
Ġà¦¶ à¦²
Ġà¦ī à¦¸à¦®
Ġà¦¥ à¦ķ
Ġà¦Ĩà¦° à¦¬à¦°
à¦ī à¦¸à¦ķ
à¦¼à¦¿ âĢĻ
à¦ĩà¦¨ à¦Ĺ
à¦ĺ à¦¤à¦®
à¦Ĩ à¦°à¦ľ
Ġà¦Ĩà¦¬ à¦¹à¦®
à¦¦à¦¨ à¦ĩ
à¦¤à¦¬ à¦¹
à¦ªà¦ķ à¦ķ
à¦Ŀ à¦ŀ
à¦ķà¦¤ à¦®
à¦¥à¦¨ à¦ķ
à¦ħ à¦¹
à¦ıà¦¸ à¦ĩ
à¦ıà¦¸ à¦Ĩà¦°
à¦¶à¦² à¦ĵ
Ġà§§à§® à§ª
Ġà¦¶à¦¹ à¦°à¦¤à¦²
Ġà§§à§© à§ª
à¦¸à¦°à¦£ à¦ķ
Ġà¦¬à¦ľ à¦²
Ġà¦ĩà¦īà¦ıà¦¨ à¦ĵà¦°
Ġà§©à§Ń à§¦
Ġà¦°à¦ĵ à¦¨à¦ķ
Ġà¦ªà¦ļà¦¨ à¦¶
gm x
) à¥¤âĢĻ
? )
i g
u t
u z
Ġ H
Ġ mohi
à¦¤ à¦Ńà¦°
à¦¬ majumderali
à¦® à¦ĩà¦¨
Ġà¦ķ à¦¶
Ġà¦¸ à¦Ĺ
Ġà¦ª à¦¸à¦°
à¦¸ à¦¬à¦¨
Ġà¦¨ à¦¸à¦°
Ġà¦Ĩ à¦ķà¦¬
Ġà¦¹ à¦ĩà¦Ľ
à¦ĩ à¦ĩ
à¦Ĺ à¦®à¦ķ
Ġà¦® à¦łà¦¬
à¦¼à§ĩ :
Ġà¦ķà¦° à¦ľ
à¦§ à¦¹à¦¸
à¦¹ à¦ĵà¦¯
à¦ĵ à¦ĸ
Ġà¦ħà¦¨ à¦¬à¦¦
à¦« à¦¶
à¦ī à¦ıà¦®
à¦¬à¦¨ à¦Ńà¦°
à¦ªà¦¨ à¦ĵ
à¦ªà¦¨ à¦¸à¦°
Ġà¦Ĩà¦Ĺ à¦®
à¦°à¦¸ à¦¨à¦ķ
à¦ªà¦¤ à¦Ļ
à¦¯à¦® à¦ĩ
à¦ķà¦Ł à¦ľà¦¨
à§§à§ §à§
à¦ªà¦¦ à¦¹
à¦ªà¦¦ à¦ĵ
à§© à§ª
ma in
Ġà¦· à¦®à¦¤
Ġà¦ıà¦® à¦ıà¦²
Ġà¦ľà¦Ĺ à§İà¦ķ
à¦ħà¦ª à¦Ľà¦¨
à¦§à¦¶ à¦¤à¦ķ
) (
Ġ prothom
à§ Ĺ
à¦¬ à¦ķà¦¬
à¦² à¦ĺà¦°
à¦¦ à¦īà¦¦
à¦ĩ à¦ŀ
à¦Ĺ à¦°à¦ķ
à¦Ĺ à¦°à¦¦
à¦§ à¦¨à¦¯à¦ľ
à¦ļ à¦°à¦®
à¦¹ à¦ļà¦°
Ġà¦° à¦§
Ġà¦¶ à¦Ł
Ġà¦Ĺ à§İà¦¬
Ġà¦ªà¦° à¦¹
Ġà¦Ĩà¦® à¦²à¦¨
Ġà¦Ł à¦ª
Ġà¦¸à¦¬ à¦¦
à¦¤à¦¨ à¦¸à¦¹
à¦²à¦¨ à¦ª
Ġà¦Ĩà¦ĩà¦¨ à¦ĩ
à¦·à¦ķ à¦¸à¦®
à¦¤à¦¬ à¦®
à¦²à¦ķ à¦¸à¦¹
à¦¸à¦¹ à¦¸
Ġà§© à§¨à§¦
Ġà¦¾ -
à¦Łà¦¨ à¦Ń
à¦ıà¦¸ à¦ľ
à¦Ĺà¦² à¦¦
Ġà¦ľà¦² à¦°
Ġà¦ľà¦² à¦ªà¦¥
Ġà¦ľà¦² à¦¦à¦¸
Ġà§§à§¬ à§Ń
à¦®à¦°à¦£ à¦¯
Ġà¦¸à¦«à¦² à¦ĵ
Ġà¦īà¦ªà¦ķ à¦£
ar d
à¦Łà¦®à¦¹à¦² à¦Ĺ
Ġà§§à§¯à§© à§¦
à¦¨à¦¬à¦¸ à¦¨
ĠI n
ree n
] à¥¤
Ġà¦¬ à¦ĩà¦¬
à¦¶ à¦®à¦¤
à¦ĩ à¦ªà¦°
Ġà¦¦ à¦ĩ
Ġà¦® à¦ļ
à¦¼à§ĩ âĢĵ
Ġà¦ľ à¦Ĺà¦²
Ġà¦ī à¦¸
à¦« à¦ľ
à¦ĸà¦¨ à¦¨
à¦ı à¦°à¦ĩ
à¦ī à¦ªà¦¯
à¦ī à¦Ĩà¦ĩà¦ıà¦¸
Ġà¦Ł à¦°à¦¨
à¦¬à¦° à¦ª
à¦°à¦® à¦Ł
à¦ĺ à¦¤à¦°
Ġà¦¬à¦° à¦¦
à¦¿à¦Ĥ âĢĵ
à¦°à¦¦ à¦ķ
à¦·à¦ķ à¦¨
à¦¤à¦¬ à¦°à¦£
Ġà¦«à¦² à¦¸
à¦ªà¦¦ à¦®à¦¨
à¦¦à¦ķ mrkhanbd
Ġà¦ªà¦¥ à¦Ĺ
Ġà¦¬à¦¸ à¦¤à¦Ń
à¦²à¦¬ à¦¦à¦²
à§© à§¬
à§¬ à§¬
Ġà§§à§« à§§
à¦ķà¦¶ à¦ª
à¦¬à¦§ à¦°
Ġà§§à§© à§©
à¦ĩà¦Ľ à¦¡
à¦¤à¦°à¦£ à¦ķ
à¦Łà¦¸ à¦ħ
Ġà§§à§§à§ ¨
Ġà§«à§« à§¦
ti c
Ġà¦¬à¦Ľ à¦°à¦ķ
Ġà¦¦à¦°à¦ª à¦¤à¦¨
main uddin
m ent
o s
Ġ W
à¦ ĭ
à¦¨ à¦īà¦²
à¦¬ à¦ķà¦°
à¦® à¦ªà¦¦
à¦¶ à¦Ĺà¦¤à¦Ń
à¦ĩ à¦«à¦¤
Ġà¦¤ à¦°à¦¬
à¦Ĺ à¦¨à¦ķ
à¦¥ à¦¶
Ġà¦° à¦¸à¦¬
Ġà¦° à¦®à¦£
Ġà¦Ĺ à¦«
Ġà¦Ń à¦¸
Ġà¦ıà¦ķ à¦¤à¦²
Ġà¦¥ à¦ĩ
à¦ŀ à¦ķ
à§İ à¦ķà¦°
Ġà¦Ĩà¦² à¦Ń
à¦°à¦® à¦ª
Ġà¦¦à¦² à¦¬à¦¦à¦²
Ġà¦ħà¦° à¦ĵà¦¯
à¦¯à¦ķ à¦°à¦¤
à¦¸à¦¨ à¦Ĺà¦¤
à¦Ŀ à¦Ľ
à¦¸à¦¦ à¦°
à¦Ĺà¦£ à¦¨
Ġà¦®à¦¹ à¦¬
à¦ħ à¦Ļ
à¦ħ à¦¸à¦¨
à¦¦à¦ķ à¦®
Ġà¦¸à¦¦ à¦²
Ġà¦¤à¦° à¦ľà¦®
à§© à§¯
Ġà¦Ĩà¦« à¦ľà¦²
Ġà¦ıà¦® à¦Ĩà¦ĩà¦Ł
Ġà¦¡à¦² à¦«
Ġà§§à§¬ à§«
à¦Łà¦Ń à¦Ł
Ġà§§à§¯à§ª à§§
à¦ªà¦® à¦£
Ġà¦¦à¦® à¦¬à¦¨
à§¨à§¦à§¦ à§¨
âĢĭ à¦¿
Ġà¦ľà¦²à¦ķ à¦ª
Ġà¦ĩà¦īà¦ıà¦¸à¦ı à¦Ĩà¦ĩà¦¡
à¦¦à¦°à¦® à¦¹à¦²
z o
Ġà¦¸ à¦ĵà¦®
Ġà¦¬ à¦ĸà¦°
à¦¦ à¦®à¦¨
Ġà¦¹ à¦°à¦¦
Ġà¦¹ à¦ķà¦¦
Ġà¦¹ à¦Łà¦²
à¦Ĺ à¦Ńà¦Ļ
à¦ľ à¦ªà¦¤
Ġà¦ħ à¦Ĺà¦¤
Ġà¦ħ à¦ķà¦¸
Ġà¦¯ à¦¬à¦¨
à¦£ à¦ªà¦¦à¦ķ
Ġà¦ľ à¦ľà¦ķ
à¦¡ à¦¹à¦ķ
Ġà¦° à¦ĩ
Ġà¦Ń à¦°à¦ķ
Ġà¦Ĩà¦® à¦ľ
à¦°à¦£ à¦¸
Ġà¦§ à¦°à¦£
Ġà¦ĺ à¦°à¦Ľ
à¦ī à§İà¦ª
à¦ķà¦° à¦ĵ
à¦·à¦£ à¦ľà¦¨
Ġà¦īà¦¦ à¦¦
Ġà§¨à§¦ à§§
Ġà¦Ĩà¦¬ à¦Ľ
à¦¦à¦¨ à¦Ĺà¦°
à¦²à¦¤ à¦¦
Ġà¦Ĩà¦¶ à¦«
à¦¨à¦¬ à¦ķ
à¦¨à¦¬ à¦ķà¦²
à¦ªà¦¦ à¦Ł
à¦ħ à¦Ł
Ġà¦Ĩà¦ľ à¦¬
à§« à§§
à§® à§¨
à¦°à¦Ľ à¦¡
à¦ĩà¦Ł à¦Ĺ
Ġà¦ĭà¦£ à¦ª
Ġà§§à§¨ à§Ń
Ġà§§à§ª à§¨
Ġà¦¦à¦®à¦¨ à¦®
à¦ĩà¦¡ à¦¥
à¦¯à§İ à¦ĩ
à¦¼! âĢĻ
à¦²à¦ļ à¦²à¦¨
à¦ıà¦ĩà¦ļ à¦Ĩà¦°
à¦ķà¦ľ à¦®à¦ķ
à§§à§¯à§¯à§ Ń
Ġà§§à§¯à§¨ à§¯
à¦Ĳ à¦ķ
Ġà¦Ĺà¦²à¦¦ à¦ĺà¦°
Ġa s
à§§à§¯à§ª à§Ń
à¦¸à¦ªà¦¨ à¦¸
li ma
à¦¡à¦ī à¦ĩà¦¡à¦¥
à¦ķs harifrari
k h
Ġ à¥¤âĢĻ
Ġ http
à¦¿ à§ĩ
à¦ķ à¦ķà¦Ł
à¦ķ à¦Ĩà¦īà¦Ł
à¦² à¦īà¦¦
à¥¤ ïģ¬
à¦Ł à¦ªà¦£
Ġà¦¨ à¦ļ
à¦¶ à¦ļà¦¨
à¦ĩ à¦ľà¦®
à¦Ĺ à¦ĵà¦¯
à¦Ĺ à¦ľà¦Ł
à¦¹ à¦¸à¦¹
à¦ĵ à¦Ľ
Ġà¦ĵ à¦ªà¦°à¦¤
Ġà¦Ń à¦Łà¦Ńà¦Ł
Ġà¦ī à¦¶
Ġà¦Ĩà¦® à¦¤à¦²
à¦°à¦£ à¦¬à¦¬
à¦ľà¦¨ à¦®
Ġà¦¬à¦² à¦¶
Ġà¦« à¦¡
à§¦ à§¯
à¦®à¦¤ à§İà¦ªà¦°à¦¤
Ġà¦¦à¦² à¦Ĺà¦¤
Ġà¦īà¦¦ à¦Ĺ
à¦¸à¦¨ à¦Ń
Ġà¦ħà¦¬à¦¸ à¦°à¦Ń
à¦²à¦¤ à¦ĩ
à¦¼à§Ģ ?
Ġà¦ħà¦ªà¦° à¦ľà¦¨
à¦°à¦¨ à¦¦
Ġà¦ªà¦¥ à¦Ń
Ġà¦Ĩà¦ľ à¦Ĺ
Ġà¦ķà¦¤ à¦Ń
à¦ķà¦Ń à¦°
Ġà¦¬à¦ķ à¦¶
à¦¶à¦² à¦Ĺ
Ġà¦Ĩà¦« à¦¤
Ġà¦§à¦¨ à¦¤à¦¨
Ġà§§à§® à§Ń
Ġà§§à§© à§Ń
Ġà¦ħà¦¦ à¦²à¦¬à¦¦à¦²
ĠâĢ į
à¦°à¦°à¦« à¦ķ
à¦°à¦¹à¦¸à¦¨ à¦®
Ġà¦Ĺà¦ľà¦² à¦¡
ang la
g e
Ġ ;
Ġ N
à¦¬ à¦ļà¦°
à¦® à¦¸à¦°
Ġà¦¸ à§İà¦ķ
à¦¦ à¦²à¦ķ
à¦¦ à¦ĺà¦¨
Ġà¦ª à¦²à¦ķ
à¦Ł à¦ªà¦¤à¦Ļ
à¦¶ à¦¬à¦¨
à¦ª à¦²à¦¬
à¦Ĺ à¦®à¦¤
à¦ľ à¦ĸà¦®
à¦§ à¦®à¦¨
Ġà¦ħ à¦Ŀ
à¦£ à¦®à¦¯
Ġà¦ľ à¦®à¦¤
à¦Ń à¦°à¦Ń
Ġà¦ĵ à¦ľ
à¦ªà¦° à¦°
Ġà¦ĺ à¦°à¦®
à¦ī à¦ĩà¦ķ
Ġà¦ıà¦¬ à¦¦
à¦ĩà¦¨ à¦¡
à¦°à¦¬ à¦¹à¦®
à¦¤à¦¨ à¦¸
Ġà¦ħà¦° à¦²
Ġà¦¸à¦¹ à¦§à¦°
Ġà¦ħà¦¬à¦¸ à¦°à¦¸
à¦¨à¦¬ à¦ľà¦®
Ġà¦ħà¦ª à¦¶à¦¨
Ġà¦ıà¦² à¦¸
à¦ªà¦¦ à¦ĩ
Ġà¦ªà¦¥ à¦°
à¦§à¦¨ à¦¸
à¦ļà¦ķ à¦®à¦£
à§¬ à§¯
Ġà¦ıà¦¨ à¦ª
Ġà¦· à¦ķ
à¦ıà¦« à¦ıà¦¸
an as
Ġà¦¸à¦« à¦²à¦ķ
... âĢĻ
à¦ĩà¦ī à¦¡
à¦¤à¦°à¦ķ à¦°à¦£
Ġà¦ľà¦¬à¦° à¦¦à¦ĸà¦²à¦ķ
ba id
Ġf or
à¦Ńà§İà¦¸ à¦¤
zo baid
Ġà¦¹à¦°à¦¦ à¦®
Ġà¦ĵà¦ªà¦°à¦¤ à¦²
anas reen
zobaid anasreen
a b
i k
o t
Ã ĳ
Ġ /
Ġ is
Ġ hhintlbd
Ġ quayum
Ġ wadudtuhin
Ġ majumderali
à¦ Ķ
à§ĩ âĢĭ
à§į à¥¤
à¦² à¦ķà¦Ł
Ġà¦¬ à¦Łà¦Ĺ
à¦¦ à¦ĸ
à¦¸ à¦¤à¦°
à¦¶ à¦§
à¦¶ à¦ªà¦°à¦®
Ġà¦Ĩ à¦ĵ
Ġà¦ı à¦¥
Ġà¦¤ à¦Łà¦¸
à¦ļ à¦®à¦¤
Ġà¦¯ à¦®à¦ľ
à¦¹ à¦¨à¦Ĺ
Ġà¦ľ à¦²à¦¯
Ġà¦ľ à¦ĩà¦¶
Ġà¦Ĺ à¦Ĺà¦¨
Ġà¦ıà¦ķ à¦Ŀ
à¦°à¦ķ à¦°à¦£
à¦¬à¦° à¦ĵ
Ġà¦Ĩà¦² à¦¸
à¦®à¦¤ à¦ĩ
à¦ĩà¦¨ à¦Ń
à¦Ĩ à¦²à¦®
à¦²à¦¨ à¦ķà¦°
Ġà¦Ĺà¦£ à¦¦
Ġà¦¸à¦¹ à¦ļà¦°
à¦°à¦¹ à¦ĵ
Ġà¦¸à¦° à¦«
Ġà¦«à¦² à¦Ł
à¦¸à¦¦ à¦¬
à¦°à¦¹à¦£ à¦ĩ
à¦ħ à¦¥à¦¬
à§ĩà¦ģ à§Ĺ
Ġà¦¸à¦¹à¦ľ à¦¬
Ġà¦Ĩà¦¸à¦¨ à¦ĵ
Ġà§§à§¨ à§¨
à¦¨à¦Ń à¦Ļ
à¦¿âĢĻ -
à¦°à¦ľà¦¨ à¦¨à¦ķ
à¦¦à¦ª à¦¤à¦¨
Ġà¦¸à¦«à¦° à¦°à¦¤
à¦ıà¦« à¦Ł
Ġà¦īà¦ªà¦¦ à¦«
Ġà§¨à§ª à§¦
à¦¬à¦ľ à¦Ĺà¦¤
à§§à§¯à§ ©
âĢĿ à¥¤
à§¨à§¦à§¦ à§©
à¦ıà¦ĩà¦ļ à¦ª
à¦ıà¦ĩà¦ļ à¦ıà¦¸
Ġà§«à§ª à§©
Ġà¦¸à¦¦à¦² à¦¬à¦²
Ġ h
Ġ akmzakaria
à¦° à¦ľà¦¯
à¦² à¦¤à¦°
Ġà¦¸ à§İà¦¸
Ġà¦¬ à¦ĸà¦¤
Ġà¦¬ à¦ľà¦°
à¦Ł à¦¬à¦¨
à¦Ł à¦ªà¦¨
Ġà¦¤ à¦°à¦®
Ġà¦¤ à¦°à¦¤à¦°
Ġà¦® à¦®
Ġà¦ħ à¦ªà¦¨
à¦ļ à¦®à¦§
à¦Ń à¦°à¦¸
Ġà¦° à¦ĩà¦¬
Ġà¦Ń à¦¬à¦¦
Ġà¦ªà¦° à¦ļà¦°
Ġà¦ī à¦Ĺà¦°
Ġà¦Ĩà¦® à¦¬
à¦ł à¦ķà¦°
Ġà¦ıà¦ĩ à¦ĸ
à§Ī à¦ĥ
à¦ı à¦ķà¦¨
à¦ī à¦«à¦²
ĠâĢĺ (
à¦ŀ à¦ľà¦¨
à¦¤à¦¨ à¦ľà¦¨
Ġà¦ħà¦¸ à¦²
à¦ıà¦¨ à¦ıà¦¸
à¦ĸà¦² à¦Ń
à¦ħ à¦¸à¦¹
Ġà¦ªà¦¥ à¦ĺ
à¦°à¦² à¦¸à¦Ń
Ġà¦ĩà¦¨ à¦Ńà¦¯
à§® à§§
à§ª à§¯
à§¬ à§§
Ġà¦ıà¦¨ à¦«
Ġà§§à§« à§¨
à¦Ĩà¦° à¦Ĩà¦ĩà¦¯
Ġà§§à§Ń à§¬
Ġà¦īà§İà¦¸à¦¬ à¦ķ
à¦ķà¦Ľ à¦¡
Ġà§§à§¯à§ª à§¨
à¦¼âĢĻ âĢĶ
Ġà¦¬à¦¦ à¦Ń
Ġà¦¦à¦® à¦ķà¦²
Ġs ohrab
Ġà§¨à§¦à§¨ à§ª
ĠÌ Ħ
à¦¤ à§İà¦ķ
à¦² à¦¬à¦°
Ġà¦¹ à¦ª
à¦ĩ à¦¸à¦®
à¦ĩ à¦ľà¦°
à¦Ĺ à¦ªà¦¨
à¦Ĺ à¦¸à¦®
Ġà¦ħ à¦²à¦Ł
à¦ļ à¦ĺ
à¦¥ à¦ªà¦¥
à¦£ à¦¤à¦®
à¦£ à¦Ńà¦°
Ġà§ ·
Ġà¦¥ à¦°
Ġà¦¥ à¦¨
Ġà¦Ĩà¦® à¦Ĺ
à¦ł à¦ľà¦¨
Ġà¦Ľ à¦²à¦¨
Ġà¦Ľ à¦²à¦ļ
Ġà¦ĸ à¦¦
Ġà¦ĩ à¦Ľ
à¦ī à¦Ľ
à¦ī à¦ıà¦ĩà¦ļ
âĢĻ ?
à¦¬à¦¨ à¦¦
Ġà¦¦à¦² à¦¤
Ġà¦¦à¦² à¦Ĺà¦¤à¦Ń
à¦ĺ à¦ľ
Ġà¦¬à¦¨ à¦¸
Ġà¦ĵà¦ĩ à¦Ł
Ġà¦ķà¦¤ à¦ľà¦¨à¦ķ
à¦§à¦¨ à¦ĵ
Ġà¦¶à¦¹à¦° à¦ľ
à¦¯à¦¸ à¦Ļ
à¦Łà¦Ĺ à¦²
à¦Ĩà¦ĩ à¦ĵ
Ġà¦Ĩà¦ļà¦°à¦£ à¦ĩ
Ġà§©à§¦ à§ª
Ġà§§à§¨ à§§
Ġà§§à§¨ à§¯
Ġà§§à§ª à§§
Ġà¦¬à¦Ł à¦¬
à¦¥à¦² à¦ªà¦¥
à¦ĺà¦Ł à¦¨à¦ķ
Ġà§¨à§§ à§¦
à¦Ĺà¦¸ à¦®à¦¤
Ġà¦®à¦¶ à¦ķà¦°
Ġà§©à§¬ à§¦
à¦ħà¦ª à¦¹à¦°à¦£
à§§à§¯à§Ń à§¦
ĠT he
Ġà¦Ńà¦¬à¦¦ à¦¹
s an
u p
Ġ ma
à¦¨ à¦¬à¦²
à¦¤ à¦ªà¦°
à¦¬ à¦¤à¦®
Ġà¦¸ à¦²à¦¤
Ġà¦Ĩ à¦¹à¦²
à¦ª à¦¬à¦¯
Ġà¦ı à¦¥à¦¨
à¦ĩ à¦®à¦°
Ġà¦¤ à¦¸à¦²
Ġà¦ķà¦° à¦¨
à¦¹ à¦Ńà¦Ļ
à¦¡ à¦Ĺà¦¤
Ġà¦Ĺ à¦°à¦²
Ġà¦ļ à¦°à¦ķ
Ġà¦ļ à¦ķà¦²
Ġà¦ī à¦«
Ġà¦ī à¦ĩà¦¨à¦¸
à¦°à¦¤ à¦ªà¦ķ
Ġà¦ĸ à¦ļ
Ġà¦§ à¦®à¦¨
à¦ļà¦¨ à¦¸à¦¹
à¦ī à¦ªà¦¸
à¦ķà¦° à¦Ĺ
à¦ĩà¦¨ à¦ļ
à¦Ĩ à¦²à¦¬
à¦Ĩ à¦Ĺà¦¸
Ġà¦ħà¦¬ à¦ļ
Ġ( !)
à¦¿à¦Ĥ âĢĻ-
à¦ķà¦Ł à¦ĵ
à¦²à¦ķ à¦§
Ġà¦ªà¦¦ à¦¯
à¦ıà¦¨ à¦ıà¦²
Ġà¦ıà¦¸ à¦ķ
à§ĭ. ..
à¦®à¦ķ à¦¥
à¦ħ à¦¬à¦¹
à¦¸à¦° à¦ŀ
à¦¯à¦ķà¦° à¦ĵ
à§¬ à§Ń
à¦¶à¦² à¦ĩ
Ġà¦¨à¦¬ à¦¯
Ġà¦¸à¦¹à¦ľ à¦¸
Ġà¦ıà¦¨ à¦ıà¦¸
Ġà¦Ĩà¦ª à¦¡
Ġà¦Ī à¦ª
à¦¹à¦°à¦£ à¦Ł
à¦Ĩà¦° à¦Ĩà¦°
Ġà§§à§¬ à§¯
Ġà§¯à§ §à§
à¦¥à¦² à¦ľ
à¦¦à¦°à¦¬à¦¨ à¦¬
à§ĩ?âĢĻ âĢĺ
um me
à§ĩ... à¥¤
Ġà§§à§¯à§§à§ ª
à¦Łà¦ķà¦² à¦Ĺ
Ġà¦¶à¦°à§İ à¦ļà¦¨
sa if
. )à¥¤
e v
t y
t or
Ġ r
à¦¤ à¦Ļ
à¦¤ à¦ªà¦¤
à¦ķ à¦®à¦ª
à¦® à¦ļà¦°
à¦¸ à¦«à¦°
Ġà¦¨ à¦Ľ
à¦Ľ à¦¤à¦²
à¦· à¦¸à¦®
Ġà¦¦ à¦¹
à¦Ĺ à¦ľà¦¨à¦ķà¦Ń
à¦ľ à¦¸à¦®
à¦£ à¦¬à¦¯
à¦Ń à¦ķà¦°
Ġà¦Ń à¦°à¦¤
à¦°à¦¤ à¦ªà¦¨
à§Ĥ à¥¤
à¦°à¦£ à¦¶
Ġà¦ĩ à¦ķà¦°
Ġà¦ĩ à¦Ĩà¦ĩà¦ı
Ġà¦« à¦²à¦¤
à¦ªà¦° à¦¦
à¦¼à¥¤ âĢĺ
à¦« à¦¸à¦¹
à¦ī à¦ĸ
à§Į .
à¦·à¦£ à¦¹
à¦Ĩ à¦ªà¦¤
à¦Ĩ à¦§à¦Ł
Ġà¦Ĩà¦¨ à¦ķ
à¦¯à¦® à¦Ł
Ġà¦«à¦² à¦¬
Ġà¦ıà¦¸ à¦ıà¦®à¦ĩ
à¦°à¦ª à¦ŀ
à¦ıà¦¸ à¦ıà¦¸à¦¸
Ġà¦¯à¦¤ à¦ľà¦¨
à§ª à§©
Ġà¦Ĩà¦ĩ à¦ıà¦¸à¦¬
à§¬ à§®
à§¬ à§ª
à¦ľà¦¸ à¦Ń
Ġà¦¬à¦ĩ à¦ª
à¦ıà¦® à¦ıà¦®
Ġà¦ľà¦² à¦ľà¦Ł
Ġà§§à§ª à§©
à¦£à¦¬ à¦Ļ
à¦¾à¥¤âĢĻ âĢĺ
Ġà§§à§© à§¯
à¦¬à¦ľà¦¨ à¦¹
à¦Ĺà¦ľ à¦Ĺ
Ġà§§à§Ń à§Ń
à¦ļà¦°à¦£ à¦ķ
Ġà§©à§¬ à§«
à§§à§¯à§Ń à§©
à¦Ĩà¦ķ à¦¬à¦°
mus lima
it y
Ġà¦ĵà¦²à¦Ł à¦ª
) :
0 8
i b
Ġ majumder
à§ĩ ÂŃ
à¦¨ à¦°à¦ķ
à¦ķ mashiul
à¦® à¦¬à¦°
Ġà¦ķ à¦¨à¦ķ
à¦¸ à¦²à¦¤
à¦Ł à¦¯à¦¨
à¦¶ à¦²à¦ķ
Ġà¦Ĩ à¦ľà¦¨
Ġà¦ı à¦ıà¦«à¦ª
Ġà¦¹ à¦Łà¦¤
à¦ĩ à¦²à¦ķ
à¦ĩ à¦¶à¦°
à¦§ à¦¨à¦¬
à¦ļ à¦¦
à¦¼à¦¾ ).
Ġà¦ıà¦ķ à¦ĸà¦£
Ġà¦ıà¦ĩ à¦¬
à¦¼à¥¤ ...
à¦« à¦ª
à¦ī à¦¨à¦ķ
Ġà¦ķà¦°à¦¤ à¦²
Ġà¦®à¦¨ à¦ª
à¦¬à¦¨ à¦Ń
à¦°à¦® à¦®
à¦°à¦® à¦ĩ
à¦ĺ à¦ĵ
à¦Ĩ à¦Ľ
à¦Ĩ à¦°à¦ĩ
à¦²à¦¨ à¦¸à¦¹
Ġà¦¸à¦¹ à¦¶
à¦¬à¦² à¦¬
Ġà¦¸à¦° à¦²à¦¤
à¦ļà¦² à¦ĵ
à¦ħ à¦·
à¦²à¦¬ à¦¶à¦¤
à¦«à¦² à¦ĩ
à¦°à¦ª à¦¶
à§Ń à§¯
Ġà¦Ĩà¦ĩ à¦ıà¦²à¦ĵà¦°
à¦¥à¦ķ à¦¡
Ġà¦ļà¦Ł à¦ķà¦¦
Ġà§©à§¦ à§¨
à¦ıà¦® à¦ĵ
Ġà¦ľà¦² à¦¦
Ġà¦ħà¦² à¦Ļ
à¦¡à¦¨ à¦ª
ul k
Ġà§®à§« à§¦
ir ul
Ġà¦Ĩà¦ĩà¦ķ à¦¨
1 5
a t
j ad
Ġ G
Ġ Ã
à¦ķ à¦°à¦¤
à¦ķ à¦Ĺà¦¤
à¦² à¦ªà¦¡
à¦® à¦ł
Ġà¦ķ à¦¸à¦®
Ġà¦ķ à¦ªà¦Ł
à§ģ à¦¿
Ġà¦¸ à¦ĵà¦Ĺ
à¦¸ à¦ĸà¦¨
à¦¶ à¦®à¦¯
à¦¶ à¦§à¦°à¦¦
Ġà¦ı à¦®à¦¦
Ġà¦ı à¦ľà¦²
à¦ĩ à¦®à¦¨
Ġà¦¤ à¦¸
Ġà¦¤ à¦ªà¦¨
à¦¥ à¦¯
à¦Ń à¦Ĺ
à¦ľà¦¨ à¦¸à¦¹
Ġà¦ĩ à¦®à¦¨
Ġà¦ĩ à¦¹à¦²
à¦ī à¦ªà¦ķ
à¦¬à¦¨ à¦ļà¦ķ
à¦ķà¦° à¦¬
à¦¶à¦¨ à¦®
à¦Ĩ à¦¸à¦ķ
à¦Ĩ à¦¶à¦°
à¦²à¦¨ à¦²à¦ļ
Ġà¦¡ à¦ķà¦Ł
à¦ªà¦ķ smusmangonee
Ġà¦¬à¦¨ à¦¶
Ġà¦ħà¦¬à¦¸ à¦°à¦ķ
à¦ıà¦¨ à¦Ł
à¦ıà¦¨ à¦Ń
à¦¨à¦¬ à¦Ĺ
Ġà¦ĩà¦ī à¦²
à¦ħ à¦ľà¦¯
Ġà¦ķà¦² à¦¬
à¦§à¦¨ à¦Ł
à§« à§¨
à§© à§Ń
à§® à§¬
Ġà¦Ĩà¦ĩ à¦Ĩà¦ĩà¦Ł
à¦¼à§ģ -
Ġà¦®à¦ľ à¦¹
à§ĩà¥¤âĢĻ âĢĺ
Ġà¦Īà¦¦ à¦¯
Ġà¦¦à¦®à¦¨ à¦ª
Ġà¦Ĩà¦Ł à¦ª
à¦¬à¦® à¦¹à¦²
à¦ıà¦« à¦¬
à¦²à¦Ľ à¦¡
Ġà§¨à§¨ à§¦
à¦²à¦ª à¦²
Ġà¦¸à¦« à¦Ł
Ġà§¨à§® à§¦
Ġà§§à§¯à§§à§ §
Ġan u
Ġà§¨à§¯à§ ª
mah f
angla de
irul khan
jad ulk
% )
) âĢĵ
a in
Ġ <
Ġ âĢĮ
Ġ bishwabd
à¦² à¦¬à¦¬
à¦¦ à¦ļà¦¯
à§ĭ âĢĻ.
à§Ģ )à¥¤
à¦¶ à¦¬à¦ķ
à¦ª à¦Ĺà¦ŀ
à¦Ľ à¦Ń
à¦· à¦ªà¦¥
Ġà¦¤ à¦ĸ
à¦ľ à¦ļ
à¦§ à¦ķà¦²
à¦§ à¦®à¦¯
Ġà¦ħ à¦¹à¦°
à¦ļ à¦¤à¦®
à¦ĸ à¦¸à¦¡
à§ĩà¥¤ ïģ¬
Ġà¦Ĺ à¦ľà¦¬
à¦°à¦£ à¦¸à¦¹
Ġà¦ľà¦¨ à¦¹
Ġà¦ľà¦¨ à¦ªà¦°
à¦ı à¦ıà¦¸
Ġà¦¹à¦² à¦ĺà¦°
à¦ªà¦¨ à¦ĩ
à¦°à¦® à¦¯
à¦¸à¦¬ à¦ĵ
à¦Ĩ à¦¸à¦®
à¦¦à¦¨ à¦ª
à¦¦à¦¨ à¦¹
Ġà¦ıà¦¸ à¦ıà¦®à¦¸
Ġà¦Ĩà¦ķ à¦¨
à§« à§Ń
à¦Łà¦ķ à¦¥
Ġà¦Ĩà¦ĩ à¦ĵ
à§ĩà¦ģ à¦¾
Ġà¦¦à¦¶à¦ķ à¦Ĺ
Ġà¦Ĩà¦Łà¦ķ à¦ķ
Ġà¦Ńà¦¬à¦¨ à¦®
Ġà¦Īà¦¦ à¦¸
il l
à¦²à¦¦ à¦¹
an d
à¦Ī à¦¶
à¦¨à¦ľà¦¨ à¦ķà¦Ń
à§§à§¯à§Ń à§ª
Ġà§§à§¯à§© à§©
Ġà§§à§¯à§© à§¯
Ġà§§à§¯à§¦ à§«
mahf uz
) âĢĻ
a f
a il
d o
e m
e w
u b
Ġ 201
à§į !
à¦¨ à¦¤à¦¨
à¦¨ à¦¬à¦¬
à¦¨ à¦¢
à¦¼ âĢĻ-
à¦¬ à¦īà¦²
à¦¬ à¦Ĺà¦¤à¦Ń
à¦² à§İà¦¸
à¦² à¦īà¦²
à¦® à¦ªà¦¤
à¦® à¦«à¦¸
Ġà¦ķ à¦¹
Ġà¦ķ à¦·à¦¤
à¦¦ à¦¤à¦¬à¦°à¦£
à¥¤ *
à¦Ł à¦¬à¦ĩ
Ġà¦Ĩ à¦¤à¦°
à¦ĩ à¦¶à¦¦
Ġà¦¦ à¦Ĺà¦¦
à¦ľ à¦Ĺà¦¨
à¦¥ à¦¬à¦¦
à¦£ à¦ľà¦¯
à¦°à¦£ à¦°
Ġà¦ĩ à¦¦à¦²
Ġà¦ĩ à¦Łà¦ª
Ġà¦ĩ à¦¹à¦ľ
Ġà¦« à¦£
Ġà¦ĺ à¦°à¦Ń
à¦¬à¦¸ à¦ķ
Ġà¦Ĩà¦¸ à¦ľ
à¦°à¦® à¦ĺà¦¨
à¦Ĩ à¦Łà¦Ł
Ġà¦īà¦ª à¦¢
Ġà¦īà¦ª à¦¸à¦¹à¦ķ
à¦¤à¦¬ à¦ķ
à¦ªà¦ķ à¦¸
Ġà¦ıà¦¸ à¦¸
Ġà¦ĩà¦ī à¦¡
à¦Ńà¦¬ à¦ķ
à¦ļà¦² à¦¬
à¦¸à¦¹ à¦ľ
Ġà¦īà§İ à¦¸à¦®
à¦ħ à¦¨à¦¨
à¦¦à¦ķ à¦ĵ
Ġà¦Ĩà¦ľ à¦®à¦²
à¦«à¦² à¦Ł
Ġà¦ķà¦¤ à¦ķà¦Ĺ
Ġà§ª à§¨à§¦
à§« à§ª
à§« à§¬
à¦Łà¦ķ à¦¹
à¦¨à¦Ł à¦¨à¦ķ
à¦¬à¦ķ à¦¹
à§® à§©
à¦¾âĢĻ -
Ġà¦īà§İà¦ª à¦²
à¦łà¦ķ à¦ĩ
Ġà¦Ĩà¦ª à§İà¦ķ
Ġà¦Ĺà¦² à¦«
à¦Ĩà¦° à¦¡
à¦¤à¦¦ à¦¶
à¦¯à¦Ł à¦¨à¦®à¦¨
Ġà§¨à§¨ à§¬
à§§à§¯à§ §à§
Ġà¦ıà¦« à¦Ĩà¦ĩà¦Ĩà¦°
Ġà¦¸à§İ à¦Ń
à¦¨à¦®à¦¤ à¦ķ
Ġà¦ľà¦Ĺà§İ à¦Ł
Ġà¦¦à¦Ĺà¦¦ à¦Ĺ
e ss
f mainuddin
o g
Ġ !
Ġ V
Ġ âĢĵ
à§ĩ à§ĩ
à¦¨ à¦®à¦°
à¦ķ à¦¨à¦Ł
à¦² à¦ķà¦°
à¦® à¦¬à¦¹
Ġà¦¸ à¦°à¦¤
à¦ª à¦Ŀ
Ġà¦¤ à¦Ľà¦°
à¦Ĺ à¦¦à¦²
à¦§ à¦ªà¦¥
à¦£ à¦¤à¦°
à¦ĵ à¦¤à¦°
à¦¡ à¦¨à¦Ń
Ġà¦ªà¦° à¦ª
Ġà¦ªà¦° à¦Ĺà¦¨
à¦°à¦¤ à¦¹
Ġà¦Ĩà¦® à¦²à¦¯
Ġà¦² à¦Ľ
à¦ľà¦¨ à¦°
Ġà¦¬à¦² à¦Ł
Ġà¦ĸ à¦¬
Ġà¦ĩ à¦¸à¦¹
Ġà¦ĩ à¦Łà¦¸
Ġà¦ıà¦ĩ à¦ļà¦¡
à¦« à¦ĵ
à¦ı à¦®à¦ľ
Ġà¦Ł à¦¸
à¦ªà¦¨ à¦Ł
à§Į âĢĵ
à¦ĩà¦¨ à¦«
à¦Ĩ à¦ĩà¦°
à¦Ĩ à¦¨à¦¸
Ġà¦Ĩà¦¨ à¦«
à¦ªà¦ķ à¦¤à¦°
à¦ķà¦² à¦ľ
à¦¬à¦² à¦²
Ġà¦¬à¦¨ à¦ľà¦Ļ
à¦®à¦² à¦ķ
à¦²à¦¤ à¦ķà¦ķ
Ġà¦ªà¦¦ à¦ĵ
Ġà¦īà¦¤ à¦²
à¦¦à¦° à¦ľ
Ġà¦ħà¦ª à¦Ł
à¦¸à¦ķ à¦¨
à¦¯à¦¦ à¦¶
à¦¨à¦® à¦¯
à¦¬à¦¹ à¦¨à¦ķ
à§® à§ª
Ġà¦Ĩà¦ĩ à¦īà¦¬
Ġà¦ªà¦¤ à¦Ļ
Ġà¦¦à¦¶à¦ķ à¦ľ
à¦¶à¦® à¦£
à¦Ĺà¦² à¦¬à¦¨
Ġà¦Ĩà¦ļà¦°à¦£ à¦ĵ
Ġà¦· à¦¤
Ġà§§à§ª à§¯
Ġà¦Ĭ à¦¹
Ġà¦¹à¦ĩ à¦¹à¦ĩ
Ġà§§à§¯à§ª à§©
al l
Ġà¦£ à¦¤
à¦¸à¦ĵ à¦ľ
Ġà§¨à§¦à§¨ à§©
Ġà¦¼ à¦¿
pro ti
Ġà¦ĭ à¦ľ
am irulkhan
Ġà¦ªà¦łà¦¨ à¦ª
ard han
à¦Ķ à¦ªà¦¨
anglade sh
proti k
% .
) âĢĶ
. âĢĺ
c h
g ov
i z
s haraf
Ġ on
à¦ Ĭ
à¦¬ à¦®à¦¨
à¦² à¦Ĺà¦£
à¦® à¦«à¦²
Ġà¦ķ à¦ĵà¦¯
Ġà¦¸ à¦ĩà¦¬
à§ĭ !âĢĻ
Ġà¦ı à¦ĸà¦²
Ġà¦ı à¦ıà¦¸à¦ª
Ġà¦ı à¦ıà¦«à¦¡
Ġà¦¹ à¦¸à¦ª
Ġà¦¦ à¦Ļ
Ġà¦¤ à¦¹
Ġà¦® à¦¶à¦ķ
à¦§ à¦¬à¦ķ
à¦¥ à¦ķà¦°
à¦£ à¦Ĺà¦¹
Ġà¦¸à¦® à¦¶
Ġà¦ħà¦¨ à¦Łà¦¨
à¦ł à¦ĵ
Ġà¦ĸ à¦°à¦¸
à§¦ 3
Ġà¦ĺ à¦°à¦¦
à¦¤à¦° à¦¸à¦¹
à¦¬à¦° à¦Ĺ
à¦ĩà¦¨ à¦¸à¦¹
à¦¤à¦¨ à¦¯
à¦¸à¦¬ à¦¶
à¦Ĩ à¦¸à¦¨
à¦Ĩ à¦Łà¦ķ
à¦²à¦¨ à¦¸
Ġà¦īà¦¦ à¦°
Ġà¦Ĩà¦ĩà¦¨ à¦¸à¦ļ
à¦·à¦ķ à¦¬
à¦¬à¦² à¦¦
à¦®à¦° à¦ª
Ġà¦¸à¦¨ à¦¦à¦Ł
Ġà¦ıà¦¤ à¦ĸ
Ġà§§à§¯à§ §
à¦ļà¦² à¦ĩ
Ġà¦ıà¦ķà¦ľà¦¨ à¦ĩ
à¦°à¦ĩ à¦¯
à¦ħ à¦ªà¦®
Ġà¦Ĩà¦ªà¦¨ à¦ľà¦¨à¦¦
à¦¸à¦ķ à¦ĩ
Ġà¦ķà¦¤ à¦²
Ġà¦¯à¦¤ à¦¦
à§© à§¦à§¦
Ġà¦Ĩà¦ĩ à¦¸à¦²
Ġà¦Ĩà¦ĩ à¦¸à¦ķ
à¦ľà¦¸ à¦ľ
à¦ıà¦® à¦Ń
Ġà§§à§¬ à§¬
à¦ıà¦« à¦Ĩà¦ĩà¦¡
à¦¨à¦¶à¦¨ à¦Ł
à¦ıà¦² à¦ıà¦¨à¦ľ
à¦ĩà¦« à¦Ł
Ġà§§à§¯à§ª à§ª
à¦¥à¦° à¦ĺ
ĠâĢ ¢
à¦®à¦ĵ à¦¦
à¦²à¦¥ à¦Ń
à¦°à¦ķà¦Ł à¦¤à¦°
à¦¬à§İ à¦¸à¦²
sh ed
à§§à§¯à§¯à§ ®
am in
Ġà§§à§¯à§§à§ ¯
Ġà¦°à¦¥ à¦¯
Ġà§§à§®à§« à§Ń
à¦īà¦ıà¦ĩà¦ļ à¦ĵ
f er
t s
Ġ 55
Ġ dr
à§ĩ âĢĿ
à¦¨ à¦Ĩà¦®
à¦¯ à¦¸à¦¨
à¦¤ à¦ĺ
à¦ķ à¦¨à¦Ń
à¦¬ à¦ĩà¦Ł
à¦² à¦¹à¦ķ
à¦® à¦«à¦²à¦ķ
Ġà¦¸ à¦¶à¦¬
Ġà¦¬ à¦°à¦¬
Ġà¦Ĩ à¦ķà¦²
Ġà¦ı à¦°à¦ķà¦®
Ġà¦¹ à¦°à¦°
à¦ĩ à¦®à¦²
à¦ĩ à¦«à¦°
à¦ĩ à¦ĵà¦°
à¦· à¦Ľ
à¦· à¦ļà¦¨
Ġà¦¤ à¦¬à¦²
Ġà¦® à¦¹à¦®
à¦ľ à¦ħ
Ġà¦ķà¦° à¦¹
à¦§ à¦ľà¦¨
à¦§ à¦¶à¦ķ
à¦§ à¦°à¦¨
Ġà¦ľ à¦ª
Ġà¦° à¦¸à¦¨
Ġà¦¶ à¦łà¦¤
Ġà¦Ĺ à¦°à¦¹
Ġà¦ĵ à¦¶
Ġà¦ĵ à¦«
à¦¾à¥¤ )
Ġà¦¬à¦² à¦§
Ġà¦ĸ à¦¬à¦°à¦ķ
Ġà¦Ĩà¦° à¦²
à¦®à¦¨ à¦¨
à¦« à¦¸à¦²
à¦ı à¦®à¦¤
à¦ı à¦¸à¦ķ
à¦ī à¦¦à¦ķ
à¦¼à¦¿ âĢĶ
à¦¬à¦¨ à¦¦à¦°
Ġà¦Ĩà¦² à¦¶
Ġà§¨ à§§à§©
à¦ªà¦¤ à¦®
à¦¿à¦Ĥ âĢĶ
à¦°à¦¥à¦® à¦ľà¦¨
à¦°à¦¹ à¦®
à¦¯à¦¬ à¦ļ
à¦ķà¦Ł à¦¸
Ġà¦¬à¦¨ à¦Ł
à¦®à¦² à¦¤
à¦²à¦ķ à¦¬
à¦²à¦ķ à¦ĩ
à¦Ĺà¦° à¦ļ
à¦ªà¦¦ à¦®
Ġà¦Ĩà¦¤ à¦ª
à¦¬à¦ķ à¦¨
Ġà¦Ĩà¦ĩ à¦ĵà¦¯
à¦ķà¦¸ à¦ľ
à¦¾âĢĻ ;
Ġà¦ĭà¦£ à¦ļ
à¦ķà¦°à¦£ à¦Ł
Ġà§§à§« à§Ń
Ġà¦¹à¦ķ à¦ĵ
à¦®à¦Ĺ à¦¡
à¦ªà¦£ à¦¬
Ġà¦ľà¦² à¦§
à¦ħà¦¨ à¦²
à¦ıà¦« à¦ıà¦²
à§įâĢĮ .
à¦ıà¦² à¦ľ
à¦ĩà¦®à¦¸ à¦ķ
Ġà¦°à¦¹ à¦£
Ġà§«à§Ń à§¦
à¦²à¦¥ à¦Ĺà¦¤
Ġà§§à§¯à§© à§§
Ġà§§à§¯à§§à§ ®
à§§à§¯à§® à§¦
à§İà¦ªà¦¦ à¦¤
anu juniv
5 6
b ba
s amin
Ġ O
Ġ à§ģà¦ģ
Ġ ar
Ġ bagharu
à¦¯ à¦¬à¦¨
à¦¯ à¦Ĺà¦£
à¦ķ à¦¥à¦¨
à¦¬ à¦¦à¦°
à¦² à¦°à¦ķ
à¦® à¦¬à¦¸
à¦® à¦ĺà¦°
Ġà¦ķ à¦®à¦¨à¦¸
Ġà¦¬ à¦ĩà¦ķ
Ġà¦¬ à¦Ĺà¦²
Ġà¦¬ à¦ļà¦¸
à¥¤ (
à¦¸ à¦Ńà¦°
à¦¸ à¦ħà¦°
à¦Ł à¦Ĩà¦ª
Ġà¦¨ à¦ĵà¦°
à¦¶ à¦ªà¦¨
à¦¶ à¦ªà¦¤
Ġà¦Ĩ à¦ĵà¦°
à¦ª à¦ļà¦°
à¦· à¦ķà¦°
à¦Ĺ à¦¬à¦¤
Ġà¦® à¦ķà¦°
à¦§ à¦ľà¦¯
Ġà¦ħ à¦«à¦²
à¦ļ à¦Ļ
Ġà¦¯ à¦¬à¦¹
à¦¥ à¦¸à¦¹
à¦¹ à¦ķà¦¸
à¦ĸ à¦°à¦ķ
à¦¼à¦¾ âĢĻ.
Ġà¦¶ à¦¤à¦¬
Ġà¦Ĺ à¦¨à¦Ĺ
Ġà¦ļ à¦°à¦Ĺ
âĢ ľ
Ġà§ Ĺ
Ġà¦¸à¦® à¦ª
Ġà¦ĩ à¦Ĺà¦²
à§¦ à§§
à¦« à¦¦
à¦ı à¦²à¦¬
âĢĻ )
à¦¬à¦° à¦®
à§İ à¦¸à¦¹
Ġà¦§à¦° à¦®à¦ª
à¦°à¦® à¦¦
à¦°à¦® à¦¸
à¦°à¦® à¦¶à¦ĩ
Ġà¦¦à¦² à¦¤à¦¨
à¦¸à¦¬ à¦²
à¦°à¦¹ à¦Ł
à¦¤à¦¬ à¦Ń
à¦Ĺà¦¤ à¦ĩ
Ġà¦¸à¦° à¦²à¦°
à¦¨à¦¬ à¦¶
à¦¨à¦¬ à¦¢
Ġà¦ıà¦¸à¦¬ à¦ķ
Ġà¦ĩà¦ī à¦¯
à¦ļà¦² à¦¸à¦¹
à¦¦à¦ķ à¦®à¦£
à¦¦à¦ķ quayum
à¦°à¦ª à¦²
Ġà¦ħà¦¥ à¦ĩ
à¦§à¦¨ à¦¦
à§« à§®
Ġà¦¶à¦° à§İà¦ķ
Ġà¦¶à¦¹à¦° à¦ĩ
à¦¬à¦ķ à¦ĩ
à§Ń à§®
Ġà¦ħà¦ķ à¦¥
Ġà¦Ĩà¦¸à¦¨ à¦ĩ
Ġà¦ıà¦¨ à¦ıà¦¸à¦ıà¦«
Ġà¦īà§İà¦¸ à¦Ĺ
à¦ħà¦¨ à¦Łà¦¨
à¦¬à¦ľà¦¨ à¦Ĺ
à¦¯à§İ à¦®
à§¨à§¦ à§©à§¦
à¦ıà¦®à¦¨ à¦ĩ
Ġà§¨à§¬ à§¦
Ġà¦ľà¦¨à¦¬à¦² à¦ķ
ee m
Ġà§§à§¯à§© à§«
en g
Ġà§§à§¯à§¨ à§§
Ġà¦®à¦°à¦£ à¦«
tu re
à¦Ĩà¦Ł à¦ľà¦¨
à¦ĩà¦īà¦ıà¦¨ à¦¡
à¦ĩà¦īà¦ıà¦¨ à¦ıà¦«à¦ª
Ġà¦ªà¦łà¦¨ à¦¦à¦ķ
à¦īà¦ªà¦° à¦¨
Ġn ot
Ġà¦ıà¦Ĩà¦ĩ à¦Ĩà¦ĩà¦¬
saif ul
ardhan protik
bba si
Ġà¦Ĺà¦¨à¦Ĺ à¦¨
% ).
f uddin
p r
s ar
t o
t ar
Ġ Y
Ġ {
à¦¯ à¦·
à¦¤ à¦¤à¦¨
à¦¤ à¦¸à¦ķ
à¦¼ à¦¿à¥¤âĢĻ
à§ģ à§ĩ
Ġà¦¬ à¦ª
à¦Ł à¦¨à¦¬
Ġà¦¨ à¦°à¦ªà¦¶
à¦ĩ à¦®à¦¤
à¦· Ã¿
Ġà¦¦ à¦¹à¦¨
Ġà¦® à¦°à¦®
à¦ľ à¦¤à¦¤
Ġà¦¶ à¦¨à¦¬
Ġà¦ļ à¦°à¦Ł
Ġà¦Ń à¦¡
Ġà¦ī à¦ĩà¦ª
Ġà¦¸à¦® à¦§
Ġà¦Ĩà¦® à¦²à¦ķ
à¦ł à¦ĩ
à§ĩ. âĢĻ
Ġà¦ĩ à¦¶à¦«
Ġà¦ıà¦ĩ à¦¸à¦¬
Ġà¦Ĩà¦° à¦Ł
Ġà¦Ĩà¦° à¦¡
Ġà¦Ĩà¦° à¦ıà¦¸
à¦ĸà¦¨ à¦«à¦²
à¦ī à¦Łà¦¨
à¦¤à¦° à¦®
à¦¬à¦° à¦ļà¦¨
à¦°à¦¬ à¦ľà¦¨à¦ķ
à¦ĺ à¦°à¦Ł
à¦Ĩ à¦ķà¦¸
Ġà¦ĺà¦Ł à¦ķ
Ġà¦®à¦¤ à¦¦
Ġà¦īà¦ª à¦¶à¦¹à¦°
Ġà§¨à§¦ à§«
à¦¸à¦¨ à¦¨
à¦°à¦¹ à¦Ń
Ġà¦ıà¦¸ à¦ıà¦®
Ġà¦§à¦°à¦¨ à¦ĵ
à¦¨à¦ķ à¦¶
Ġà¦¬à¦¹ à¦¦
à¦§à¦¨ à¦®
à¦ıà¦¸ à¦ıà¦®à¦ª
à§« à§¦à§¦
à¦¶à¦Ĺ à¦®
Ġà¦ľà¦® à¦¬
Ġà¦ľà¦® à¦Ľ
à§ª à§§
à¦ĩà¦Ł à¦Ł
à¦¯à¦ª à¦¥
à¦łà¦ķ à¦ĸ
à¦Ĺà¦² à¦ª
à¦ĸà¦ķ à¦·
Ġà¦Ĩà¦§ à¦ĺà¦£
Ġà¦ıà¦® à¦«
Ġà§§à§® à§¨
Ġà§¨à§ª à§¨
à¦ıà¦ķ à¦¤à¦°à¦«
Ġà§¨à§¨ à§«
Ġà§¨à§¬ à§®
à¦¶à¦ĵ à¦ķà¦¤
ha t
à¦ķà¦ª à¦ŀ
ra shed
Ġà§©à§¨ à§ª
Ġà¦ķà¦®à¦² à¦Ĺà¦ŀ
à§§à§¯à§¯à§ ¨
à§§à§¯à§¯à§ ¯
à¦¾?âĢĻ âĢĺ
Ġf a
ay eem
Ġb e
Ġà¦ľà¦²à¦® à¦¹
ov er
ĠÃ Ĺ
rashed tr
c o
e f
o u
Â ®
Ġ J
Ġ U
Ġ à§ĭ.
Ġ à§ĩ?
Ġ www
à§ģ ).
Ġà¦¸ à¦Ĺà¦°
à¦¸ à¦¤à¦¤
à¦¸ à¦Ĩà¦²
à¦¸ à¦ľà¦²
à¦Ł à¦Łà¦²
Ġà¦¨ à¦¶
à¦¶ à¦°à¦ķ
à¦¶ à¦²à¦¤
à¦¼à§ĩ âĢĻà¥¤
à¦§ à¦¬à¦¦
Ġà¦ħ à¦ķà¦°
à¦ļ à¦ĵ
à¦ļ à¦²à¦¨
à¦ļ à¦ķà¦¤
à¦¥ à¦«
à¦¹ à¦Ĺà¦¨
Ġà¦ľ à¦Ĺà¦ľ
à¦¡ à¦ļ
à¦Ń à¦ĩ
à¦Ń à¦ľ
à¦Ń à¦ļ
Ġà¦° à¦ĺ
Ġà¦ªà¦° à¦ľ
Ġà¦ī à¦Łà¦ª
à¦°à¦ķ à¦Ĺ
à¦ł à¦¯
Ġà¦§ à¦¬à¦§
à¦ªà¦° à¦¬à¦¶
à¦ļà¦¨ à¦Ńà¦Ļ
à¦ı à¦Ĩà¦ĩ
à¦ı à¦ķà¦®
Ġà¦ĺ à¦°à¦ª
à¦ī à¦²à¦ķ
à¦¤à¦° à¦ŀ
Ġà¦Ł à¦¨à¦ª
à¦¶à¦¨ à¦Ń
à¦Ĩ à¦°à¦ķ
à¦²à¦¨ à¦¬
Ġà¦ħà¦¬ à¦Ĺ
Ġ( ?)
à¦¸à¦¨ à¦®à¦¨
à¦¯à¦¬ à¦ĩà¦Ĺ
à¦ķà¦² à¦Ĺ
à¦²à¦ķ à¦®
à¦²à¦ķ à¦Ĩà¦¬
à¦¼à§Ģ âĢĶ
Ġà¦ªà¦¦ à¦ĩ
Ġà¦«à¦² à¦ĩ
Ġà¦ıà¦¤ à¦¸à¦¬
Ġà¦ıà¦¸ à¦ıà¦¨à¦¸
à¦ļà¦² à¦ľ
Ġà¦ħà¦ª à¦ľ
Ġà¦Ĩà¦ĩ à¦Ľ
Ġà¦ĩà¦° à¦«
à¦Ĺà¦² à¦ļ
à¦Ĩà¦ĩ à¦ıà¦ķ
à¦ªà¦¥ à¦¯
Ġà§§à§« à§®
Ġà¦¹à¦ķ à¦ļà¦ķ
Ġà§§à§¨ à§¦à§¦
à¦ķà¦¨ à¦«
Ġà¦¶à¦¹ à¦°à¦®
Ġà¦ħà¦® à¦°à¦¤
Ġà¦ħà¦ľ à¦ª
Ġà¦ªà¦² à¦ªà¦Ł
à¦¬à¦ľà¦¨ à¦¸
à¦¬à¦ľà¦¨ à¦®à¦¤
à§İà¦¸à¦ķ à¦¸à¦¹
Ġà§§à§Ń à§¨
Ġà§§à§Ń à§§
à¦ıà¦« à¦ı
à¦Ĩà¦ĩà¦¨ à¦®à¦¨
Ġà¦ıà¦« à¦ı
Ġà¦ķà¦ª à¦Łà¦¤
à¦®à¦°à¦¤ à¦¦
Ġà¦ľà¦¨à¦®à¦¤ à¦ķ
à¦¸à¦« à¦°à¦®
à¦ħà¦ª à¦ķà¦°
Ġà¦°à¦£ à¦¤à¦°
Ġà¦Ĩà¦īà¦Ł à¦²
Ġà¦Ĺà¦® à¦Ĺà¦®
à§§à§¯à§¯à§ «
Ġà¦ıà¦ĵ à¦¸
Ġp urba
à¦ıà¦¨à¦ıà¦² à¦ıà¦«
c ho
i al
j al
p p
Â Ŀ
Ġ ha
à¦¨ à¦¬à¦¸à¦¤
à¦¬ à¦ļà¦¯
à¦¬ à¦ľà¦¯
à¦² à¦Ĺà¦²
à¦® à¦²à¦¯
à¦® à¦Ĺà¦£
Ġà¦¬ à¦¦à¦®
Ġà¦¬ à¦īà¦Ł
à¦Ł à¦®à¦¨
Ġà¦¨ à¦«
à¦¶ à¦Ŀ
à¦¶ à¦¤à¦Ń
à¦ª à¦Ľà¦¨
à¦Ľ à¦ĩ
à¦ĩ à¦Ĩà¦ĩà¦ı
à¦· à¦·
Ġà¦¦ à¦ĸ
Ġà¦¦ à¦®à¦ķ
Ġà¦¤ à¦ªà¦¸
à¦Ĺ à¦®à¦ª
à¦Ĺ à¦ĺà¦¨
Ġà¦® à¦ł
à¦ľ à¦ªà¦¡
Ġà¦ķà¦° à¦¨à¦ľ
à¦£ à¦ĸ
Ġà¦ľ à¦¶
à¦Ń à¦¶à¦ķ
à§ĩà¥¤ âĢĿ
Ġà¦ļ à¦¨à¦®à¦¨
Ġà¦Ń à¦°à¦¦
à¦°à¦¤ à¦°à¦¤
à¦°à¦ķ à¦ĵ
Ġà¦Ľ à¦²à¦Ľ
Ġà¦ĩ à¦®à¦¦
Ġà¦« à¦¸
à¦ı à¦¯
à¦®à¦¤ à¦Ĺ
à¦°à¦® à¦§à¦°
à¦ķà¦° à¦ª
à¦°à¦¬ à¦¬
à¦·à¦£ à¦§à¦°
à¦Ĩ à¦¹à¦¤
à¦Ĩ à¦¦à¦®
Ġà¦®à¦¤ à¦²à¦¬à¦¬
à¦¦à¦¨ à¦¯
à¦¬à¦² à¦¸
à¦¬à¦² à¦¹
Ġà¦ħà¦¬à¦¸ à¦°à¦ľ
à¦²à¦ķ à¦ª
à¦²à¦ķ à¦¥
à¦²à¦ķ à¦°à¦£
Ġà¦¶à¦¤ à¦Ĺ
à¦¤à¦® à¦ķ
Ġà¦ł à¦Ĺ
Ġà¦ĵà¦ĩ à¦¸
à¦¸à¦¹ à¦ķà¦°
à¦¹à¦® à¦¯
Ġà¦ªà¦¥ à¦¯
à¦¤à¦ķ à¦£
Ġà¦ĩà¦¨ à¦ļ
à§İà¦ķ à¦®
à§¬ à§©
Ġà¦ĭà¦£ à¦ķ
à¦Ĩà¦ĩ à¦ĩ
Ġà¦ıà¦Ń à¦°
Ġà¦Ī à¦¦à¦ķ
Ġà¦ıà¦® à¦Ĩà¦ĩ
à¦ıà¦® à¦ıà¦¨
à¦°à¦ľà¦¨ à¦ĩ
Ġà§§à§® à§¯
à§¨à§¦ à§¨à§§
à¦¼à¦Ĥ à¥¤
Ġà¦ħà¦¬à¦¦ à¦®à¦¨
Ġà§¨à§¨ à§¨
Ġà§¨à§® à§«
Ġà§¨à§Ń à§¨
Ġà§¨à§© à§ª
à¦Ĺà¦¸ à¦ĩ
à¦¡à¦² à¦«
Ġà¦Ķ à¦ľ
.) :
à¦·à¦ª à¦ŀ
on g
Ġà¦īà¦ĩ à¦²à¦ķ
Ġà¦Ĺà¦¦ à¦Ĺà¦¦
ali m
à¦ĸà¦²à¦¨ à¦ľà¦¨
ĠâĢĭ à¦¿
Ġà¦ıà¦®à¦ıà¦² à¦ı
kh al
Ġà¦§à¦¬à¦§ à¦¬
. /
1 0
l d
o ur
y s
Ġ à§Ģ.
à¦¾ âĢĭ
à¦¨ à¦īà¦¦
à¦¯ à¦¦à¦²
à¦ķ à¦®à¦²
à¦ķ à¦®à¦¯
à¦² à§İà¦ľ
Ġà¦¬ à¦°à¦¯
à¦¦ à¦°à¦¦
à¦¦ à¦īà¦²
à¦¦ à¦ĭà¦£
à¦¸ à¦¦à¦¨
Ġà¦¨ à¦¬à¦ķ
à¦¶ à¦¬à¦ª
à¦ª à¦¬à¦°
à¦Ľ à¦Ľ
à¦ĩ à¦ı
à¦· à¦°à¦ľ
à¦Ĺ à¦ªà¦¦
Ġà¦® à¦¸à¦°
à¦ļ à¦ķà¦Ł
à¦¥ à¦°à¦¬
à¦¥ à¦°à¦ĸ
à¦ĸ à¦ĸ
Ġà¦ľ à¦®à¦ķ
à¦ĵ à¦ł
à¦ĵ à¦°à¦Ĺ
Ġà¦¶ à¦Ĺ
Ġà¦ªà¦° à¦Ĺ
à¦°à¦ķ à¦¬
Ġà¦ľà¦¨ à¦ļ
Ġà¦ĩ à¦¤à¦°
Ġà¦ĩ à¦¬à¦¤
Ġà¦ıà¦ĩ à¦®
à¦« à¦ľà¦²
Ġà¦ĺ à¦°à¦¸
Ġà¦ĺ à¦°à¦Ĺ
à¦¬à¦¸ à¦Ĺ
à¦¬à¦° à¦ļ
à¦¬à¦¨ à¦Ĺ
à¦®à¦¤ à¦¤
à¦°à¦® à¦ĺà¦£
à¦ķà¦° à¦ĩ
Ġà¦¦à¦² à¦¸à¦®
à¦ĩà¦¨ à¦ĵ
Ġà¦®à¦¤ à¦Ł
Ġà¦®à¦¤ à¦ĵ
Ġà§¨à§¦ à§©à§«
à¦¸à¦¨ à¦ªà¦¦
Ġà¦Ĺà¦£ à¦ķ
à¦¦à¦¨ à¦¦
à¦°à¦¹ à¦ĩ
à¦ķà¦Ł à¦°
à¦ķà¦¤ à¦ķ
à¦²à¦ķ à¦Ĺ
Ġà¦Ĩà¦¦ à¦¬
à¦ıà¦¨ à¦ĩà¦ī
à¦¨à¦¬ à¦¬à¦¸à¦¤
Ġà¦ıà¦¤ à§İà¦¸
à¦°à¦¹à¦£ à¦¬
à¦ļà¦² à¦®
à¦¸à¦¹ à¦¨à¦¶
à¦«à¦² à¦Ń
Ġà¦Ŀ à¦°à¦¤
Ġà¦īà¦² à¦Ļ
à¦Łà¦ķ à¦Ĺ
à¦ĩà¦ķ à¦¸
à¦¾âĢĻ !
Ġà¦Ńà¦¬ à¦ĺ
à¦Ĺà¦² à¦Ł
à¦Ĩà¦ĩ à¦ĩà¦ī
à¦¿) -
à¦ªà¦Ł à¦Ł
Ġà¦ıà¦® à¦ıà¦«à¦ıà¦¸
à¦ľà¦¤ à¦ĸ
Ġà§§à§¬ à§§
Ġà¦Ĩà¦Ł à¦ľà¦¨à¦ķ
à¦¾âĢĶ âĢĺ
à¦ıà¦« à¦Ĩà¦ĩà¦¯
à§įâĢĮ âĢĵ
Ġà¦ķà¦²à¦ķ à¦¬à¦ľ
à¦ļà¦® à¦¹à¦²
à¦ķà¦¶à¦¨ à¦¸
al la
âĢĿ à¥¤âĢĻ
ra c
Ġà§©à§® à§¨
Ġà§§à§¯à§© à§®
à§ĩ... à¥¤âĢĻ
200 3
es t
bi r
Ġà¦ľà¦¨à¦¦ à¦°à¦¦
ĠB angladesh
Ġà¦ªà¦¥à¦¨ à¦ķà¦¶
à¥¤âĢĿ âĢĻ
Ġà¦ĸà¦ļ à¦ĸà¦ļ
Ġà¦¦à¦¹ à¦°à¦®
Ġà¦Ĩà¦ĵà¦° à¦Ļ
7 1
b u
e b
e ar
p or
p urba
Ġ ]
Ġ k
Ġ v
Ġ x
Ġ y
Ġ Ã¿
Ġ en
Ġ it
à¦¿ âĢĭ
à¦¨ à¦ªà¦¥
à¦¨ à¦ªà¦²
à¦¯ à¦¹à¦¤
à¦¤ à¦¬à¦¨
à¦® à¦Ĺà¦¤à¦Ń
à¦® à¦¸à¦¨à¦¦
à¥¤ âĢĶ
Ġà¦¨ à¦®à¦¸
à¦ª à¦£à¦¤
Ġà¦ı à¦®à¦ķ
à¦¹ à¦¨à¦ķ
à¦£ à¦ªà¦¤
Ġà¦ľ à¦ķ
à¦ĵ à¦·
à¦¡ à¦īà¦ĩ
à¦Ń à¦Ĺà¦¬
Ġà¦° à¦¸à¦°
Ġà¦° à¦ľà¦¤
Ġà¦ªà¦° à¦ĵà¦¯
à§Ĥ .
Ġà¦ĸ à¦ĩ
Ġà¦« à¦ĵà¦ľ
à¦®à¦¨ à¦Ĺà¦°
Ġà¦§ à¦¡
à¦« à¦¥
à¦ī à¦ł
à¦¿à¥¤ ...
Ġà§¨ à§§à§¨
à¦ªà¦¨ à¦Ĺ
à¦®à¦¤ à¦ª
à¦°à¦® à¦Ĺ
à¦°à¦® à¦§
Ġà¦¦à¦² à¦Ľ
à¦ĩà¦¨ à¦ľ
à¦¶à¦¨ à¦ª
à¦Ĩ à¦ĸ
Ġà¦Ĩà¦¨ à¦ľ
à¦¿à¦Ĥ :
Ġà§¨à§¦ à§ªà§¦
Ġà¦ħà¦¸ à¦«à¦²
à¦²à¦ķ à¦¨
à¦¥à¦¨ à¦ĩ
à¦ıà¦¨ à¦ķ
Ġà¦ıà¦¸ à¦ı
à¦¨à¦¨ à¦ķ
à¦¨à¦¨ à¦Ĺà¦°
Ġà¦ĩà¦ī à¦ıà¦¸à¦ıà¦¸
Ġà¦ħà¦ª à¦²
Ġà¦ıà¦² à¦ıà¦²à¦¬
Ġà¦ªà¦¥ à¦¸à¦Ń
à¦¸à¦° à¦Ł
Ġà¦Ĩà¦ķ à¦Ľ
à¦§à¦¨ à¦ĩ
à§§ à§¦à§¦à§¦
Ġà¦Ĺà¦¡ à¦¸
à¦ĩà¦ķ à¦Ĺ
à¦·à¦® à¦¯
à¦¬à¦¹ à¦Ń
Ġà¦¨à¦¦ à¦Ł
à¦ıà¦ĩ à¦ļà¦Ł
à¦¥à¦ķ à¦ķ
à¦¨à¦Ĺ à¦¡
à¦ĩà¦¸ à¦°à¦¯
Ġà¦¨à¦® à¦¶
à¦¹à¦°à¦£ à¦Ĺ
Ġà¦¹à¦ľ à¦¬
à¦Ĩà¦° à¦ıà¦¸
à¦Ĩà¦° à¦¡à¦¬
Ġà¦ħà¦² à¦°
Ġà¦Ĩà¦ĩà¦ıà¦¸ à¦¸
à¦¨à¦ĵ à¦Ń
Ġà¦Ĩà¦Ł à¦ĺ
à¦¬à¦® à¦ŀ
Ġà¦®à¦¹à¦² à¦¬
à¦¤à¦°à¦£ à¦¬
à¦ıà¦ķ à¦ľà¦¨à¦ķ
Ġà§¨à§® à§¨
Ġà§¨à§© à§«
Ġà¦¸à¦¨à¦¦ à¦§
à¦ıà¦² à¦ıà¦®
à¦ĩà¦« à¦ķ
à¦¨à¦ľà¦Ł à¦®
à¦Ĩà¦ĩà¦¨ à¦ľ
Ġà§©à§« à§ª
âĢĿ -
à¦īà¦ª à¦®à¦¹
à¦ĸà¦¬à¦° à¦Ł
Ġà¦ķà¦¦ à¦®à¦¤à¦²
Ġà¦¼ .
55 08
Ġà§§à§¯à§© à§¬
à§§à§¯à§¯à§ ©
Ġà§§à§¯à§§à§ «
Ġà¦«à¦²à¦¨ à¦¶
Ġà¦ħà¦¹à¦°à¦¹ à¦ĩ
à§§à§¯à§® à§®
Ġà¦¥à¦® à¦¥à¦®
ĠB eng
Ġà§§à§®à§® à§¬
56 7
khal il
b er
n ow
s e
à¦¾ à¦¾
à¦° à¦ļà¦¨
à¦° à¦¨à¦ķ
à¦° à¦¡à¦Ĺ
à¦¨ à¦ĩà¦¬
à¦¤ à¦ĸà¦°à¦ļ
à¦¬ à¦Ńà¦°
à¦¬ à¦®à¦¹
Ġà¦ķ à¦ļà¦²
Ġà¦ª à¦Ĺ
à¦¸ à¦ľà¦¨
à¦¸ à¦¨à¦¤
Ġà¦¨ à¦¦à¦¨à¦¦
à¦¶ à¦¡
Ġà¦Ĩ à¦Ľà¦°
Ġà¦ı à¦ıà¦«à¦¸
à¦· à¦¤à¦®
Ġà¦¤ à¦ŀ
Ġà¦¤ à¦¨à¦¯
à¦Ĺ à¦°à¦¤
Ġà¦® à¦Łà¦ķ
à¦ľ à¦¶à¦ķ
à¦ľ à¦¬à¦°à¦¦à¦¸
à¦ļ à¦Ľ
à¦ļ à¦ĩ
à¦ļ à¦®à¦ķ
à¦¥ à¦§
à¦¥ à¦¤à¦²
à¦¹ à¦ļ
à¦¹ à¦¸à¦®
à¦ĸ à¦®à¦¯
à¦ĵ à¦ı
à¦¡ à¦¸à¦¨
à§ĩà¥¤ (
à§ĩà¥¤ *
Ġà¦¶ à¦°à¦®
Ġà¦Ĺ à¦Ľ
Ġà¦ī à¦¯
à¦°à¦ķ à¦¸
Ġà¦Ĩà¦® à¦¤
Ġà¦ĩ à¦«à¦«
Ġà¦§ à¦¨à¦¤
à§¦ à§¨
à¦ı à¦²à¦ª
à¦¬à¦° à¦¸à¦¹
Ġà¦¹à¦² à¦ķ
à¦¬à¦¨ à¦°à¦ķ
à¦¬à¦¨ à¦°à¦¹à¦¸
à§İ à¦®
à§İ à¦¹
Ġà¦Ĩà¦² à¦¹
Ġà§¨ à§§à§¯
Ġà¦Ĩà¦¸ à¦Ĺà¦°
à¦ĺ à¦ĩ
à¦·à¦£ à¦ļ
à¦°à¦¶ à¦¤
Ġà¦¬à¦° à¦ªà¦ķ
à¦¯à¦® à¦ŀ
Ġà§¨à§¦ à§Ń
à¦¤à¦¬ à¦§à¦°
Ġà¦¬à¦¨ à¦ķ
à¦Ŀ à¦®
à¦²à¦¤ à¦®
à§§à§ ¯à§¦
à¦Ĺà¦° à¦ªà¦¥
à¦¼à§Ģ )
à¦¼à§Ģ ;
à¦ıà¦¨ à¦ıà¦°
à¦¨à¦¬ à¦ŀ
à¦¶à¦ķ à¦ª
Ġà¦ıà¦¸ à¦ıà¦¸
à¦¦à¦° à¦¨
Ġà§© à§©à§¦
à§ģà¦ģ -
à¦¨à¦ķ à¦°à¦£
Ġà¦ªà¦¥ à¦ªà¦°
Ġà¦°à¦ķà¦® à¦«
Ġà¦ľà¦¨à¦Ĺà¦£ à¦¨
à¦¸à¦ķ à¦¨à¦¸
à§Ń à§Ń
à§ª à§¬
à§ª à§¦à§¦
Ġà¦Ĩà¦ĩ à¦ıà¦®
à¦·à¦¦ à¦¸à¦¹
à¦®à¦¦ à¦®
à¦ıà¦ĩ à¦¡à¦¸
Ġà¦¸à¦¹à¦ľ à¦ª
Ġà¦ĭà¦£ à¦ªà¦¤
Ġà§§à§« à§¯
à¦ľà¦¸ à¦ļ
Ġà¦ĸà¦°à¦ļ à¦¯
Ġà¦ĸà¦°à¦ļ à¦Ł
Ġà¦ĸà¦°à¦ļ à¦ĩ
à¦°à¦®à¦£ à¦ĵ
Ġà§§à§® à§Ńà§§
à¦¸à¦Ń à¦Ļ
à§ĩâĢĻ !
Ġà¦Ĩà¦ĩà¦ıà¦¸ à¦ĵ
Ġà§§à§¬ à§©
à¦®à¦°à¦£ à¦¸à¦Ń
Ġà¦ĺà¦¨ à¦ĺà¦Ł
à¦®à¦¹ à¦°à¦®
Ġà§§à§Ń à§©
à¦ıà¦¸à¦¬ à¦ĵ
à¦ļà¦® à§İà¦ķ
Ġà§¨à§§ à§¦à§¦
Ġà§¨à§© à§©
à¦īà¦ĩ à¦ıà¦«
Ġà¦Ķ à§İà¦¸
Ġà¦¸à¦ķà¦² à¦ķ
Ġà¦¸à¦ķà¦² à¦ĩ
Ġà¦ĩà¦īà¦ıà¦¨ à¦ĵà¦ķ
Ġs a
ss ain
Ġà§ªà§Ń à§¦
Ġà¦īà¦ĩ à¦¸à¦ķà¦¨à¦¸
à¦Ĩà¦¶ à¦Ļ
Ġà¦¡à¦ľà¦¨ à¦ĸ
or ld
ur y
à§§à§¯à§« à§¨
Ġà¦¨à¦ĸ à¦¦à¦¨
Ġc on
Ġà¦Ŀà¦Ł à¦ªà¦Ł
à¦ıà¦ķà¦ķ à¦¥
à¦ļà¦°à¦® à¦ªà¦¨
Ġas jadulk
Ġà¦Ĺà¦Ĺà¦¨ à¦ļ
do us
fer dous
d i
e g
i on
k er
l y
o b
t an
Ġ #
Ġ 1
Ġ 19
à§ĩ *
à§į :
à§į âĢĵ
à¦¿ ÂŃ
à¦¨ à¦ĺà¦°
à¦¨ à¦Ĩà¦®à¦°
à¦¤ à¦«à¦¸
à¦ķ à¦Ļ
à¦ķ à¦¬à¦¸
à¦ķ à¦¨à¦ķ
à¦ķ à¦ªà¦Ł
à¦¬ à¦ªà¦¤
à¦® à¦ľà¦¯
Ġà¦¸ à¦Łà¦ķ
à¦¦ à¦ĵà¦¯
à¦¦ à¦¶à¦Ł
à¦¸ à¦¤à¦®
Ġà¦Ĩ à¦ĸà¦²
à¦ª à¦ªà¦£
Ġà¦ı à¦ıà¦¨à¦¸
Ġà¦¹ à¦¡
à¦Ľ à¦ļ
à¦ĩ à¦ľà¦¨
à¦ĩ à¦ķà¦Ł
Ġà¦¤ à¦Ł
Ġà¦® à¦Ĺà¦¡
à¦ľ à¦®à¦¤
à¦ļ à¦¢
à¦ļ à¦«à¦²à¦¨
Ġà¦¯ à¦¯
à¦£ à¦°à¦¸
à¦£ à¦¢
à¦ĵ à¦¸à¦¹
à¦¡ à¦¬à¦²
à¦¡ à¦¸à¦°
à¦Ń à¦²à¦¬
Ġà¦° à¦Ń
à§ĥ -
Ġà¦Ľ à¦«
à¦ľà¦¨ à¦¹
Ġà¦ĩ à¦¶à¦ķ
Ġà¦« à¦¨à¦¸
Ġà¦Ĩà¦° à¦ıà¦¸à¦ıà¦«
à¦®à¦¨ à¦®
à¦ªà¦° à¦¨
à§¦ à§«
à¦ı à¦ĩà¦Ł
à¦¬à¦¨ à¦ļà¦°
à§İ à¦ªà¦¤
à¦¸à¦¬ à¦Ł
à¦°à¦¸ à¦ª
à¦Ĩ à¦Ļ
à¦Ĩ à¦¹à¦ķ
Ġà¦īà¦ª à¦¶
Ġà¦Ĺà¦£ à¦§
à¦¬à¦² à¦Ń
à¦®à¦² à¦®
à¦²à¦ķ à¦ļ
à¦ıà¦¨ à¦Ĩà¦°à¦¸
à¦¹à¦² à¦Ń
à¦¹à¦² à¦¬à¦¶à¦¤
à¦¨à¦¬ à¦¬à¦°
Ġà¦ıà¦¤ à¦ľà¦¨
Ġà¦ħà¦ª à¦¦
Ġà¦ıà¦² à¦ĩà¦Ł
Ġà§© à§§à§©
à¦ªà¦¦ à¦¤
à¦¦à¦ķ à¦°à¦£
à¦ĩà¦² à¦°
Ġà¦Ŀ à¦¨à¦Ŀ
à¦§à¦¨ à¦¹
à§« à§©
à¦¬à¦ĩ à¦®
Ġà¦ªà¦¦à¦ķ à¦ª
à¦²à¦® à¦£
à¦ķà¦°à¦£ à¦ĵ
Ġà§§à§« à§¬
Ġà¦īà§İà¦¸ à¦ĵ
Ġà¦Ĩà¦¹ à¦ľ
à¦¾.) !
Ġà¦ħà¦« à¦¶
Ġà¦Ńà¦¬à¦¨ à¦ĵ
Ġà§¨à§« à§¬
Ġà¦ķà¦· à¦Ľ
à¦£à¦¦ à¦£
Ġà¦¸à¦®à¦Ŀ à¦¦
Ġà§§à§Ń à§¯
à¦ıà¦« à¦ıà¦ĵ
Ġà§¨à§ª à§©
Ġà§¨à§¨ à§ª
à¦Ĺà¦¦ à¦ĸà¦²
à¦¿à¥¤âĢĻ âĢĺ
Ġà§¨à§Ń à§©
Ġà§¨à§Ń à§¬
... âĢĻà¥¤
à¦¨à¦ª à¦ŀ
à¦®à¦¶ à¦ķà¦°
ho ssain
Ġà¦Ķ à¦ļ
Ġà¦ıà¦« à¦Ł
Ġà¦ıà¦« à¦ıà¦¸
Ġà¦ıà¦« à¦ıà¦¸à¦¬
Ġà¦ľà¦¨à¦ķ à¦£
Ġà¦¶à¦ªà¦¥ à¦¬
ti ve
Ġà§§à§¯à§© à§¨
Ġà§§à§¯à§© à§ª
à§§à§¯à§¯à§ ª
en ce
Ġà¦ĩà¦ĩà¦ī à¦¤
Ġà§§à§¯à§¨ à§©
Ġà¦®à¦°à¦£ à¦ªà¦£
Ġà§§à§¯à§¦ à§®
aru p
à¦ħà¦¬à¦¸ à¦°
à¦Ĩà¦²à¦¬ à¦¦à¦°
à¦Ĭ à¦°
alla b
à¦ļà¦«à¦²à¦¨ à¦¶
Ġà¦Ŀà¦¨à¦Ŀ à¦¨
7 8
i p
i ra
s ti
Ġ X
Ġ i
Ġ de
à§ĩ ]
à¦° à¦°à¦ķ
à¦¯ à¦¯à¦¨
à¦¯ à¦¶à¦ķ
à¦¤ à¦²à¦¯
à¦ķ à¦®à¦°
à¦ķ à¦¦à¦°
à¦¼ à§įâĢĮ
à¦² à¦¦à¦°
à¦® à¦¥
à¦® à¦¸à¦²
à¦¦ à¦ļ
à¦¦ à¦²à¦¨
à¦¦ à¦¤à¦ķ
à¦¸ à¦°à¦ĵ
à¦¸ à¦¶à¦¸
à¦¶ à¦°à¦®
Ġà¦Ĩ à¦°à¦¤
Ġà¦Ĩ à¦īà¦ĵà¦¯
à¦ª à¦¥à¦ķ
Ġà¦ı à¦ı
Ġà¦¹ à¦ªà¦ķ
à¦ĩ à¦¸à¦¬
à¦· à¦ļà¦ķ
Ġà¦¦ à¦¬
Ġà¦¦ à¦¹à¦²
Ġà¦¤ à§İà¦¸
à¦Ĺ à¦ľà¦¨
à¦ľ à¦®à¦ķ
à¦§ à¦¸à¦¤
à¦§ à¦²à¦Ń
à¦¥ à¦²à¦Ĺ
à¦¥ à¦¸à¦ļ
Ġà¦ľ à¦¤
à¦¡ à¦²à¦ķ
à¦¡ à¦¬à¦¯
Ġà¦¶ à¦®à¦¸
Ġà¦ĵ à¦ªà¦¡
Ġà¦ĵ à¦ıà¦®à¦ıà¦¸
Ġà¦ļ à¦°à¦¬
Ġà¦ªà¦° à¦¶à¦®à¦£
à¦°à¦¤ à¦Ł
à¦¾à¦Ĥ à¥¤
Ġà¦ĸ à¦°à¦¤
Ġà¦ĩ à¦¶à¦ª
Ġà¦ĩ à¦ıà¦®à¦Ń
à¦ļà¦¨ à¦¶
à¦ı à¦¥à¦¨
à¦¼à¦¿ âĢĵ
Ġà¦®à¦¨ à¦ĵ
à¦¬à¦¨ à¦ĺà¦¨
Ġà§¨ à§§à§«
Ġà§¨ à§§à§Ń
à¦¿. âĢĻ
à¦°à¦¸ à¦ľ
à¦·à¦£ à¦¦
à¦Ĩ à¦®à¦¦
Ġà¦Ĩà¦¨ à¦®à¦¨
Ġà¦ħà¦Ń à¦¬
Ġà¦¡ à¦®
à¦¿à¦Ĥ âĢĻà¥¤
à¦°à¦¥à¦® à¦¦
à¦¦à¦¨ à¦¸à¦¹
à¦°à¦¹ à¦¶
à¦¤à¦® à¦¹
Ġà¦«à¦² à¦Ĺ
à¦ıà¦¨ à¦Ĩà¦ĩ
à¦ıà¦¨ à¦ıà¦²à¦¡
à¦¹à¦¤ à¦ĩ
Ġà¦ł à¦¨
Ġà¦ł à¦ķà¦Ľ
Ġà¦ıà¦² à¦ıà¦²à¦ıà¦®
à¦°à¦Ń à¦°
à¦ħ à¦ŀ
à¦°à¦² à¦ª
Ġà¦Ĩà¦ľ à¦¤à¦ķ
à¦ĩà¦² à¦Ĺ
Ġà¦Ĩà¦ķ à¦£
Ġà¦Ŀ à¦°à¦²
à¦§à¦¨ à¦¸à¦¹
à¦ıà¦¸ à¦ıà¦®à¦ıà¦®
à§« à§¯
à¦¬à¦¹ à¦¨à¦¸
à¦ľà¦¨à¦ķ à¦ĵ
à¦¬à¦ķ à¦ĵ
Ġà§¬ à§©à§¦
Ġà¦Ĩà¦ĩ à¦¤
Ġà¦Ĩà¦ĩ à¦Ĩà¦ĩà¦¡
Ġà¦ªà¦¶ à¦®
Ġà¦Ĩà¦®à¦² à¦Ĺ
Ġà¦Ĺà¦łà¦¨ à¦ĩ
à¦°à¦Ĺ à¦²
Ġà¦ıà¦¨ à¦Ĺ
à¦Ĩà¦ĩ à¦¤
à¦°à¦ľ à¦¬
à¦Ĺà¦® à¦ŀ
Ġà¦Ĩà¦¹ à¦Ľ
à¦¹à¦°à¦£ à¦ĩ
Ġà¦ľà¦² à¦¢
Ġà¦¹à¦ľ à¦ķ
Ġà§§à§ª à§¦à§¦
Ġà¦¨à¦ľ à¦°à¦ķ
Ġà§§à§Ń à§ª
à¦¤à¦ª à¦¬
Ġà¦īà§İà¦¸à¦¬ à¦Ł
Ġà§¨à§¨ à§§
Ġà§§à§¯ à§¦à§¦
Ġà§¨à§Ń à§«
Ġà¦Ĩà¦ĸ à¦ļ
à¦¾) ;
à¦¼âĢĶ âĢĺ
Ġà¦ıà¦« à¦ľ
ïģ ®
Ġà¦ıà¦ĩà¦ļ à¦ıà¦«à¦¸
à¦ıà¦ĸà¦¨ à¦ķ
à¦ıà¦ĸà¦¨ à¦ĩ
Ġà§©à§¨ à§«
à¦īà¦ª à¦§
à¦īà¦ª à¦¹
Ġà¦£ à¦¤à¦¨
à¦ıà¦ĩà¦ļ à¦ıà¦¸à¦¸
ro ba
ss um
Ġà¦Ĩà¦Ĺà¦®à¦¨ à¦ķ
Ġà¦ľà¦¨à¦ªà¦¦ à¦ķ
à§§à§¯à§Ń à§¯
Ġà¦¬à¦ĸ à¦¶
Ġà¦Ĩà¦īà¦Ł à¦¡
Ġà¦īà¦ĩà¦² à¦¸
Ġà§§à§¯à§¨ à§®
Ġà§§à§¯à§¨ à§ª
Ġà¦¬à¦ī à¦Ń
à¦ħà¦¬à¦¸ à¦°à¦ª
Ġà§¨à§¯à§ §
Ġà§¨à§¯à§ ¯
à¦īà¦ªà¦¦ à¦²
Ġà¦¬à¦ľà¦° à¦Ļ
a p
g en
k zaman
l ic
n ah
Ġ e
Ġ Â
Ġ re
Ġ zobaidanasreen
à¦¨ à¦°à¦®
à¦¯ à¦ªà¦¤
à¦¬ à¦·à¦¯
à¦² à¦¹à¦¤
à¦² à¦ļà¦°
Ġà¦ķ à¦ŀ
Ġà¦ķ à¦¸à¦¬
à§ģ âĢĻ.
Ġà¦¬ à¦¸à¦°
Ġà¦¬ à¦ĩà¦²
à¦¦ à¦«
à§ĭ à¦¿
à¦¸ à§İ
à¦¸ à¦Ĺà¦¤
Ġà¦¨ à¦¬à¦°
Ġà¦Ĩ à¦īà¦²
Ġà¦Ĩ à¦īà¦¡
à¦ª à¦¸à¦¨
Ġà¦ı à¦ľà¦®
Ġà¦¹ à¦Łà¦Ľ
Ġà¦¹ à¦°à¦£à¦ķ
à¦ĩ à¦Łà¦ķ
à¦ĩ à¦®à¦ª
à¦ĩ à¦īà¦¬
Ġà¦¦ à¦®à¦¦à¦®
Ġà¦¤ à¦°à¦£
à¦Ĺ à¦ªà¦°
Ġà¦® à¦°à¦ļ
Ġà¦® à¦°à¦£à¦¬
à¦ľ à¦¬à¦ķ
Ġà¦ķà¦° à¦¯
à¦§ à¦ªà¦¤
Ġà¦ħ à¦®à¦¤
Ġà¦ħ à¦ķà¦Ł
Ġà¦ħ à¦¹à¦¨
Ġà¦¯ à¦°
Ġà¦¯ à¦ª
à¦ĸ à¦²à¦¤
à¦ĵ à¦Ĩà¦°
à¦¡ à¦¸à¦Ń
à¦¼à¦¾ /
à¦Ń à¦¤
Ġà¦° à¦ªà¦°
Ġà¦Ĺ à¦²à¦¬
Ġà¦ĵ à¦Ĩà¦°à¦ľ
Ġà¦¸à¦® à¦°à¦¨
à¦°à¦ķ à¦ĩ
à¦°à¦ķ à¦¸à¦¹
Ġà¦Ĩà¦® à¦ļ
Ġà¦Ľ à¦ķà¦Ł
à¦°à¦£ à¦¦
à¦¾à¥¤ *
Ġà¦« à¦°à¦Ĺ
à¦ªà¦° à¦¶
à¦ī à¦§
à¦ī à¦Ń
à¦ī à¦ıà¦«à¦ª
à¦¤à¦° à¦ª
Ġà¦¹à¦² à¦¦
Ġà¦®à¦¨ à¦®à¦¤
à¦ªà¦¨ à¦ļ
à¦ªà¦¨ à¦¸à¦¹
Ġà¦¦à¦² à¦¹
à¦°à¦¬ à¦Ĺ
à¦¯à¦ķ à¦Ń
Ġà§¨à§¦ à§¬
Ġà¦Ĩà¦¬ à¦ķ
à¦¸à¦¨ à¦®
Ġà¦Ĺà¦£ à¦¸à¦®
à¦ķà¦² à¦¸
à¦ķà¦Ł à¦Ĺ
à¦ķà¦Ł à¦ľà¦¨à¦ķ
Ġà¦¬à¦¨ à¦®à¦¨
à¦Ĺà¦° à¦ª
Ġà§§à§¯à§ ¯
à¦¦à¦° à¦ĩ
Ġà¦ıà¦² à¦Ł
à¦ħ à¦¨à¦Ĺ
à¦¦à¦ķ à¦ĩ
à¦®à¦¸ à¦¤
Ġà¦Ĩà¦ľ à¦®à¦¤
Ġà¦Ŀ à¦°à¦¬
à¦§à¦¨ à¦ª
à¦Łà¦ķ à¦ķ
à¦¬à¦¹ à¦¤à¦®
Ġà¦¯à¦¤ à¦Ń
à¦¬à¦¤ à¦ª
à¦¨à¦¦ à¦¶
à§© à§¨à§©
à§Ń à§¬
Ġà¦Ĩà¦ĩ à¦«
Ġà¦¤à¦¤ à¦ĸ
à¦ıà¦ĩ à¦ı
Ġà¦Ĺà¦łà¦¨ à¦ª
à¦¬à¦ĩ à¦ł
à¦¥à¦ķ à¦ĵ
Ġà¦ĭà¦£ à¦ĵ
à¦Ĩà¦ĩ à¦Ĩà¦ĩà¦¡
à¦¨à¦Ĺ à¦°à¦ķ
Ġà¦Ĩà¦ª à¦¸à¦¯
Ġà¦· à¦®
à¦®à¦Ĺ à¦¬
Ġà¦Ĩà¦« à¦Ł
Ġà§©à§¦ à§Ń
à¦īà¦Ł à¦°à¦¦
à¦ıà¦® à¦ıà¦°
à¦¶à¦¤ à¦¬à¦°
à¦¶à¦¤ à¦ķà¦°
Ġà¦¶à¦°à¦£ à¦ĸ
Ġà§§à§¬ à§®
à¦¬à¦¹à¦¨ à¦ķà¦°
à§İà¦¸à¦ķ à¦ĵ
à¦¯à§İ à¦ĵ
Ġà¦®à¦¹à¦² à¦ĵ
Ġà§¨à§ª à§¬
Ġà§¨à§® à§ª
Ġà§¨à§© à§Ń
Ġà§¨à§© à§¯
à¦¿âĢĶ âĢĺ
à§¨à§¦à§§à§ ¯
Ġà¦Ŀà¦° à¦Ŀà¦°
Ġà§©à§© à§©
à§ĭâĢĻ âĢĶ
à§§à§¯à§Ń à§®
à¦Łà¦ĸ à¦¡
à¦ħà¦ªà¦° à¦¦
âĢĭ à¦¾
Ġà§¦ à§§
Ġà¦Łà¦² à¦®à¦²
Ġà§§à§¯à§§à§ ¨
Ġà¦ħà¦¸à¦¹à¦¨ à¦¶
is m
ka bir
à§§à§¯à§® à§¨
à§§à§¯à§® à§ª
à§§à§¯à§® à§¬
à§§à§¯à§® à§¯
à§§à§¯à§¬ à§¯
sohrab o
un d
Ġà¦¨à¦ĵ à¦¶
à¦¡à¦ī à¦ĩà¦Ł
oo k
Ġhttp s
Ġà¦ķà¦°à¦¤à¦² à¦Ĺà¦¤
Ġà¦Ĩà¦ĩà¦ĵ à¦ıà¦®
alim kzaman
ĠBeng al
arup allab
roba et
8 4
T he
a te
i tic
l am
u e
u g
Ġ muslima
à¦° à¦Ĩà¦®
à¦¿ âĢĮ
à¦¤ à¦²à¦¬
à¦¤ à¦¦à¦²
à¦¤ à¦¶à¦¤
à¦ķ à¦°à¦ķ
à¦¬ à¦ī
à¦¬ à¦ıà¦ĩà¦¡
Ġà¦¸ à¦ļà¦ķ
à¦¸ à¦¥
à¦Ł à¦¡
à¦Ł à¦²à¦ķ
Ġà¦¨ à¦²à¦Ľ
Ġà¦Ĩ à¦¯à¦®à¦ķ
à¦· à¦§à¦°
Ġà¦¤ à¦®à¦¸
Ġà¦¤ à¦²à¦¸
Ġà¦® à¦ļà¦ķ
Ġà¦ħ à¦¦à¦²
à¦ļ à¦ķà¦²
Ġà¦¯ à¦ĩ
Ġà¦¯ à¦ĸ
à¦¥ à¦¬à¦²
à¦¥ à¦ĭà¦£
à¦¹ à¦Ĺà¦£
à¦¹ à¦§à¦¨
à¦¹ à¦¬à¦¶à¦¤
à¦Ĥ :
à¦Ĥ âĢĻ
à¦ĸ à¦¸à¦¹
Ġà¦ľ à¦¬à¦¸
Ġà¦ľ à¦®à¦²
à¦¡ à¦§
à¦¡ à¦¡
Ġà¦° à¦ªà¦¤
Ġà¦° à¦£à¦¦
Ġà¦¶ à¦£
Ġà¦¶ à¦Łà¦Ĺ
Ġà¦ļ à¦ķà¦°
Ġà¦¹à¦¯ à¦°à¦¤
Ġà¦ªà¦° à¦Ľ
Ġà¦ī à¦¥
âĢ ¢
Ġà¦¸à¦® à¦°à¦¬
à¦°à¦ķ à¦£
Ġà¦Ĩà¦® à¦ª
Ġà¦² à¦ĵ
à¦°à¦£ à¦¨
à¦°à¦£ à¦ķà¦ķ
à¦¾à¥¤ (
Ġà¦¬à¦² à¦°
Ġà¦¬à¦² à¦¦
Ġà¦ĩ à¦Ĺ
à¦« à¦¯
à¦ī à¦Łà¦Ĺ
ĠâĢĺ âĢĺ
Ġà¦Ł à¦ķà¦Ł
à¦¬à¦° à¦²
à§İ à¦¶à¦ķ
Ġà¦Ĩà¦² à¦ĸ
Ġà§¨ à§§à§ª
Ġà§¨ à§§à§§
à¦¤à¦¨ à¦¹
à¦ĺ à¦·
à¦Ĩ à¦ĩà¦²
à¦Ĩ à¦«à¦¸
à¦²à¦¨ à¦ķà¦ķ
à¦¼à§ĭ -
à¦¼à§ĭ à¥¤âĢĻ
Ġà¦ıà¦ĸà¦¨ à¦ĵ
Ġà¦¡ à¦°à¦®
Ġà¦ħà¦¬ à¦¦à¦®
Ġà¦®à¦¤ à¦ĩ
Ġà¦Ĩà¦ĩà¦¨ à¦®à¦¤
à¦°à¦¦ à¦¨
à¦°à¦¹ à¦Ńà¦°
à¦ªà¦ķ à¦°à¦£
Ġà¦ıà¦®à¦¨ à¦¤à¦°
à¦¬à¦² à¦¤à¦®
Ġà¦ĵà¦ªà¦° à¦ĵà¦¯
à¦ķà¦¤ à¦²
Ġà¦¸à¦¨ à¦¦à¦ª
Ġà¦ıà¦¤ à¦¸
Ġà¦ĩà¦ī à¦ıà¦®à¦ıà¦¨
à¦¸à¦® à¦Ĺ
à¦Ńà¦¬ à¦ĩ
à¦°à¦¹à¦£ à¦¸à¦¹
Ġà¦ĵà¦ĩ à¦Ń
à¦Ĺà¦£ à¦¶
à¦Ĺà¦£ à¦ľ
Ġà§© à§§à§¬
à¦ħ à¦ªà¦¬
à¦¸à¦° à¦°
à¦®à¦¸ à¦ļ
Ġà¦¸à¦¦ à¦®
à¦«à¦² à¦Ĺ
à¦¶à¦Ĺ à¦ŀ
Ġà¦Ĩà¦ĩ à¦Ĺ
à¦·à¦¦ à¦ĵ
Ġà¦¦à¦° à¦Ĺ
Ġà¦¨à¦¬ à¦¤à¦°
à¦¹à¦¸ à¦ĩ
Ġà¦ıà¦¨ à¦Ĩà¦ĩà¦¡
à¦¥à¦ķ à¦·
à¦ķà¦°à¦£ à¦ĩ
Ġà¦ļà¦° à¦«
ma bbasi
Ġà¦Ĩà¦§ à¦®à¦°
à¦ķà¦¨ à¦Ĺà¦°
Ġà§§à§® à§¬à§¦
Ġà§§à§® à§¯à§®
Ġà§§à§® à§Ńà§¨
Ġà¦¶à¦¹ à¦°à¦ĵ
Ġà§¨à§« à§¨
Ġà§¨à§« à§«
à¦¬à¦ľà¦¨ à¦¤
Ġà§§à§Ń à§®
Ġà§¨à§ª à§«
Ġà¦Ĩà¦¹à¦®à¦¦ à¦¸à¦¹
Ġà¦Ĩà¦¹à¦¤ à¦¦
Ġà¦īà¦ªà¦ķ à¦¥
à¦²à¦ª à¦¥à¦ķ
à¦£à¦¨ à¦Ĺà¦°
à¦ľà¦¦ à¦°à¦¬
Ġà§¨à§® à§¬
à¦ıà¦² à¦ı
Ġà§¨à§¬ à§¨
Ġà§¨à§¬ à§«
à¦ĩà¦« à¦¯
Ġà§©à§« à§«
ĠâĢ Ŀ
Ġà¦¸à§İ à¦®
âĢĿ .
à¦Ĺà¦°à¦£ à¦ķ
à¦¤à¦Ĺ à¦Ļ
à¦Ĩà¦Ĺ à¦°à¦¤à¦²
à¦¸à¦ķà¦¦ à¦²
Ġà¦ĸà¦¨à¦¨ à¦¯à¦¨
Ġà§«à§ª à§«
à§§à§¯à§Ń à§¬
à§§à§§ à§¦
Ġà¦ĩà¦ĩà¦ī à¦¯
Ġà§§à§¯à§¨ à§«
Ġà§§à§¯à§¨ à§¬
Ġà¦ħà¦¸à¦®à¦¤ à¦²
à¦īà¦¥ à¦ĩà¦¸
Ġà¦Ĩà¦ĩà¦ı à¦ıà¦¸
muni r
à¦ĩà¦īà¦ıà¦¨ à¦ıà¦ĩà¦ļà¦¸
à¦¾... âĢĻ
à¦ıà¦ķà¦¦ à¦²
Ġt hat
Ġà§¨à§¯à§ «
ÂŃ à¦¾
http s
.... ....
Ġà¦ıà¦¤à¦¦ à¦ŀ
à¦§à¦¡ à¦ľà¦¨
à¦ķà¦®à¦¨ à¦ĵà¦¯
ig ht
os t
Ġà¦ıà¦¨à¦ıà¦¸ à¦ıà¦°
9 9
c on
d h
f or
i ve
l ec
s t
t ra
w an
z l
Ġ or
Ġ alam
à¦° à¦Ĩ
à¦° à¦Ĺà¦°
à¦° à¦«à¦°
à¦° à¦¢
à¦¨ à¦ĩà¦¨
à¦¤ à¦¸à¦°
à¦¤ à¦ªà¦¥
à¦¤ à¦īà¦¦
à¦¬ à¦ĵà¦¯
Ġà¦ķ à¦ĵ
Ġà¦ķ à¦ĩà¦¬
Ġà¦ķ à¦ĩà¦¤
à¦¦ à¦°à¦ĵ
à¦¦ à¦°à¦¤à¦®
à§ĭ à§ĩ
à¦Ł à¦Ŀ
à¦Ł à¦¶à¦¶
à¦¶ à¦ªà¦°
à¦¶ à¦Ĺà¦°
à¦¶ à¦Ńà¦Ļ
à¦ª à¦¹
à¦ª à¦²à¦ķ
à¦ª à¦Łà¦ķ
Ġà¦ı à¦¨à¦°
à¦Ľ à¦¸à¦¹
à¦ĩ à¦Ĩà¦ĩà¦ĩà¦ī
à¦· à¦²
à¦· à¦ªà¦¦
à¦Ĺ à¦¶
à¦Ĺ à¦§
à¦Ĺ à¦°à¦¬à¦ķ
Ġà¦® à¦¬à¦°
à¦ľ à¦ķà¦ķ
à¦¥ à¦Ĺà¦¤
à¦ĵ à¦¶
Ġà¦° à¦¬à¦¸à¦¨
Ġà¦¶ à¦¬à¦¨à¦®
Ġà¦Ń à¦°à¦¬
Ġà¦ī à¦Łà¦ķ
Ġà¦¸à¦® à¦¦
à§Ĥ âĢĵ
à¦ł à¦ļà¦ķ
Ġà¦² à¦Łà¦ķ
Ġà¦² à¦ķà¦²à¦ķ
Ġà¦Ľ à¦°à¦°
à¦¾à¥¤ âĢĿ
Ġà¦ĸ à¦°à¦Ĺ
à¦« à¦°à¦¹
à¦ı à¦¡à¦ĵà¦¯
Ġà¦ĺ à¦°à¦ķ
à¦ī à¦°à¦¨
à¦ī à¦²à¦Ĺ
à¦ī à¦Ĩà¦°
à¦¤à¦° à¦¯
à¦¼à¦¿ ?
Ġà¦¹à¦² à¦Ł
Ġà¦®à¦¨ à¦¯
à¦¬à¦¨ à¦¸à¦Ļ
à§İ à¦¸à¦²
Ġà¦Ĩà¦¸ à¦¨à¦¬
à¦Ĩ à¦²à¦¤
Ġà¦ħà¦Ń à¦¦
à¦¸à¦¨ à¦Ĺ
à¦·à¦ķ à¦®à¦£
à¦°à¦¹ à¦ª
à¦ķà¦² à¦Ļ
à¦ķà¦Ł à¦ĩ
Ġà¦ķà¦°à¦¬ à¦ĩ
Ġà¦ĩà¦ī à¦ıà¦¸à¦¡
à¦¹à¦° à¦ĩ
Ġà¦ħà¦ª à¦ļà¦¨à¦¶
Ġà¦ıà¦² à¦Ń
à¦ªà¦¦ à¦¸
à¦ħ à¦¬à¦¦
à¦ħ à¦¸à¦¤
Ġà¦ķà¦² à¦ľ
Ġà¦°à¦ķà¦® à¦ĵ
à¦ıà¦¸ à¦¸à¦¹
à¦Łà¦ķ à¦°à¦£
à¦¨à¦¸ à¦¤
à¦Ĺà¦łà¦¨ à¦¸à¦¹
à¦¬à¦ķ à¦¸à¦¹
à¦ļà¦ķ à¦ĵ
Ġà¦Ĳ à¦ķà¦¤
à¦ĩà¦Ł à¦®
à¦ĩà¦Ł à¦ĵ
à¦ķà¦ľà¦¨ à¦¦
à¦łà¦ķ à¦Ĺ
Ġà¦ĭà¦£ à¦¸à¦¹
à¦Ĩà¦ĩ à¦ıà¦¸à¦ıà¦¸
Ġà¦īà§İà¦¸ à¦¸
Ġà§©à§¦ à§©
à¦Ĺà¦¬ à¦ŀ
à¦¤à¦² à¦ľ
à¦Ĩà¦° à¦ıà¦°
Ġà¦¨à¦Ĺà¦° à¦°
il ira
à¦§à¦ķ à¦¬à¦²
à¦¦à¦¶ à¦ľà¦¨
à¦¨à¦¶ à¦ĵà¦ķà¦¤
à§ĩ: âĢĺ
à¦¨à¦ľ à¦°à¦¦
à¦Łà¦¬à¦² à¦ª
Ġà¦ıà¦« à¦ıà¦¸à¦ľ
Ġà¦®à¦£ à¦ª
à¦¯à¦ľ à¦Ĺà¦¤
Ġà§©à§ª à§¦
Ġà§«à§ª à§¦
à¦®à¦Ľ à¦®
Ġà§ªà§ª à§¦
Ġà§®à§« à§«
Ġà§¦ à§¦
à¦£à¦¸ à¦ŀ
Ġà§§à§¯à§¨ à§¨
Ġà§§à§¯à§§à§ ©
Ġà§§à§¯à§§à§ ¬
du c
Ġà§§à§¯à§¦ à§¬
ht m
à¦ıà¦®à¦ıà¦² à¦ıà¦¨
ic e
ol itic
ĠA c
ĠP ro
Ġb y
Ġà§İ à¦¸
Ġn ayeem
ĠR e
Ġà§§à§Ńà§« à§Ń
ï¿½ ï¿½
Ġà¦¥à¦ĩ à¦¥à¦ĩ
à¦Ĩà¦°à¦Ĩà¦° à¦ı
ev er
Ġà¦Ľà¦²à¦Ľ à¦²
) ?
- âĢĺ
? âĢĺ
? âĢĶ
? âĢĿ
I n
i th
j ee
l ed
n e
r ong
s c
s ha
Ġ )à¥¤
Ġ pro
Ġà¦ ĥ
à§ĩ âĸł
à¦¤ à§İà¦ªà¦°à¦¤
à¦² à¦Ĺà¦°
à¦² à¦®à¦ķ
à¦² à¦ļà¦¤
à¦® à§İà¦¸
à¦® à¦¢
Ġà¦ķ à¦Ľ
Ġà¦ķ à¦ªà¦°
Ġà¦ķ à¦ĩà¦¯
Ġà¦ķ à¦ľà¦¨à¦ķ
Ġà¦ķ à¦ĩà¦Ľ
à¦¦ à¦°à¦¸
à¦¦ à¦¯à¦¨
à¦¦ à¦¸à¦®
à§ĭ ).
Ġà¦¨ à¦ĸà¦°
à¦ª à¦¬à¦¨
Ġà¦ı à¦ıà¦¸
Ġà¦ı à¦ıà¦°
à¦ĩ à¦°à¦¤
Ġà¦¤ à¦ķà¦¤à¦ķ
à¦Ĺ à¦¨à¦Ĺ
à¦ľ à¦ī
à¦§ à¦¬à¦ª
à¦§ à¦ªà¦²
à¦ļ à¦ĵà¦¯
à¦¥ à¦¡
à¦¥ à¦²à¦¬
à¦ĸ à¦¬à¦¨
à¦ĸ à¦Ńà¦°
à¦ĸ à¦¸à¦®à¦°
à¦ĵ à¦®à¦°
à¦Ń à¦ľà¦¨à¦ķà¦Ń
Ġà¦¶ à¦°à¦¦
Ġà¦¶ à¦®à¦¶
Ġà¦Ĺ à¦¤à¦°
Ġà¦Ĺ à¦¬à¦¨
Ġà¦ĵ à¦°à¦¬
Ġà¦ĵ à¦°à¦¸
Ġà¦ļ à¦¸
Ġà¦Ń à¦°à¦£
Ġà¦ªà¦° à¦ļ
Ġà¦ī à¦¥à¦²
à¦°à¦¤ à¦Ń
Ġà¦Ĩà¦® à¦¸
à¦ł à¦ķà¦¸
à¦Ļ à¦¡
à§ĩ. /
Ġà¦² à¦ĩà¦¤
à¦« à¦®
à¦ı à¦ı
à¦ı à¦°à¦ĵ
à¦ı à¦¤à¦ķ
à¦ī à¦ıà¦¸
Ġà¦Ł à¦ķà¦Łà¦ķ
à¦¬à¦° à¦¬
à¦¬à¦° à¦Ń
à¦ŀ à¦ĩ
à§İ à¦ĵ
Ġà¦Ĩà¦² à¦ķ
Ġà¦Ĩà¦² à¦ªà¦¨
Ġà§¨ à§§à§¬
à¦ĩà¦¨ à¦ª
à¦·à¦£ à¦Ĺà¦£à¦¨
Ġà¦¬à¦° à¦ª
Ġà¦Ĩà¦ĩà¦¨ à¦¸à¦¹
Ġà¦¸à¦¹ à¦¬
à¦¯à¦¬ à¦¤
à¦ķà¦² à¦Ł
à¦¬à¦² à¦ĵ
à¦ķà¦Ł à¦®
à¦²à¦¤ à¦¸à¦¹
Ġà¦ªà¦¦ à¦²
à¦¸à¦¦ à¦ª
Ġà¦ıà¦¸ à¦ıà¦¨à¦ª
Ġà¦ĵà¦ĩ à¦ĸ
à¦ļà¦² à¦ļ
à¦¯à¦¤ à¦Ł
à¦Ĺà¦£ à¦¬
Ġà¦ħà¦ªà¦° à¦ªà¦ķ
à¦ķà¦¬ à¦ķ
Ġà¦¬à¦¹ à¦¨à¦¯
Ġà¦¬à¦¹ à¦°à¦®à¦ª
à¦ħ à¦¬à¦ķ
à¦¦à¦ķ akmzakaria
à¦¦à¦ķ saiful
à¦°à¦² à¦¦
Ġà¦ķà¦² à¦°
Ġà§« à§§à§¬
à¦¸à¦ķ à¦°à¦£
Ġà¦ķà¦¤ à¦¸
à¦ıà¦¸ à¦ĵ
à¦¨à¦® à¦Ĺ
Ġà¦¿ -
Ġà¦¶à¦° à¦«
à¦¤à¦¤ à¦²
Ġà¦Ĩà¦ĩ à¦Ĩà¦°à¦Ĩà¦ĩà¦¯
à§¬ à§¦à§¦
à¦¥à¦ķ à¦ĩ
Ġà¦ļà¦Ł à¦ªà¦Ł
à¦Ĺà¦² à¦ĵ
à¦Ĩà¦ĩ à¦ıà¦²
à¦Ĩà¦ĩ à¦ıà¦¸à¦ª
Ġà¦Ĩà¦ª à¦ĵà¦¯
Ġà¦®à¦ľ à¦¦
Ġà¦Ĺà¦² à¦¦à¦Ł
Ġà¦ļà¦° à¦ĸ
Ġà¦Ĩà¦§ à¦ª
Ġà§©à§¦ à§§
Ġà¦ĩà¦¸ à¦®à¦¤
Ġà¦ıà¦® à¦Ń
Ġà¦ıà¦® à¦ıà¦¸à¦¸
à¦¿âĢĻ !
à¦ıà¦® à¦Ł
à¦¹à¦¨ à¦ĵ
Ġà§§à§® à§¯à§¦
à¦¤à¦² à¦ª
Ġà§¨à§« à§©
à§ĩâĢĻ -
à¦¨à¦ĵ à¦¨
à¦īà¦² à¦¦
Ġà§§à§© à§¨à§¦
Ġà§ªà§¦ à§©
à§İà¦¸à¦ķ à¦ĩ
à¦ıà¦« à¦ĩà¦īà¦ľ
à¦¦à¦°à¦¬à¦¨ à¦¸à¦¹
à¦¬à¦Ń à¦Ļ
Ġà¦ķà¦¨ à¦ĵà¦¯
Ġà§¨à§¨ à§Ń
an s
à¦¬à¦°à¦£ à¦ĵ
Ġà¦¸à¦« à¦°à¦ĵ
Ġà§¨à§® à§®
Ġà§¬à§¦ à§«
à¦¨à¦ľ à¦Łà¦ķ
Ġà§¨à§© à§¨
à¦¨à¦¶à¦¨ à¦§
à¦¨à¦Ĺà¦° à¦Ĺ
à¦¨à¦ľà¦Ł à¦ĵ
Ġà¦¹à¦ĩ à¦¹
à¦ĩà¦ī à¦ıà¦¸
à¦ļà¦¡ à¦Ĺ
à¦Łà¦¬à¦² à¦ķ
Ġà¦¦à¦¶ à¦Ń
Ġà¦ıà¦« à¦ıà¦Ł
Ġà¦®à¦¶ à¦¹
à¦¨à¦®à¦¤ à¦ĵ
Ġà¦«à¦°à¦® à¦Ł
ar y
Ġà§«à§ª à§§
Ġà¦ķà¦¦ à¦®à¦¬
Ġà¦ľà¦¨à¦ªà¦¦ à¦Ĺ
Ġà§ªà§¬ à§«
à¦¤à¦ľà¦¨ à¦¦
man ik
à¦Ŀà¦² à¦®à¦²
Ġà§¦ à§®
or k
Ġà§¬à§¨ à§ª
ba bu
Ġà¦Ĺà¦ľ à¦Ĺà¦ľ
Ġà§§à§¯à§¨ à§Ń
Ġà§¬à§© à§¨
à¦Ĳ à¦ķà¦®à¦¤
Ġà§®à§® à§¦
Ġa f
Ġà¦®à¦Ĺ à¦ľà¦§
à¦¾... à¥¤
Ġà¦Ńà¦Ĺ à¦¬à¦¤
à§§à§¯à§¬ à§¨
à§§à§¯à§¬ à§«
ĠC on
à¦¼?âĢĻ âĢĺ
à¦Ĺà¦ªà§İ à¦Ń
Ġw ill
!! !
Ġà§§à§®à§¬ à§§
Ġà§¯à§¯à§ Ń
à¦ķà¦ľà¦®à¦ķ à¦ª
tor y
à¦¡à¦īà¦ĩà¦Ł à¦¥
munir c
zl ul
) ]
b ardhanprotik
h y
k now
m s
m in
o d
p c
v er
z ul
Ġ 5
Ġ à§ĭà¥¤
Ġ al
Ġ was
à¦¾ ]
à¦° à¦¶à¦¨
à¦° à¦Łà¦¨
à¦¨ à¦°à¦¦
à¦¯ à¦ªà¦ķ
à¦¯ à¦ļà¦ķ
à¦¤ à¦¹à¦¸
à¦¤ à¦²à¦Ł
à¦ķ à¦¸à¦ķ
à¦² à¦ªà¦¨
à¦² à¦®à¦°
à¦² à¦®à¦§
à¦® à¦Ĺà¦°
Ġà¦ķ à¦ĸ
Ġà¦ķ à¦Łà¦ķ
Ġà¦¸ à¦ĩà¦Ľ
à¦¦ à¦§
à¦¦ à¦°à¦¸à¦¹
à§ĭ /
à¥ ¥
à¦¸ à¦¬à¦°
à¦¸ à¦¤à¦¨
à¦Ł à¦Ĺà¦¤à¦Ń
à¦Ł à¦ľà¦¨à¦¦
Ġà¦¨ à¦¬à¦ª
à¦¶ à¦ĸà¦²
Ġà¦ı à¦ıà¦¸à¦Ĩà¦ĩ
Ġà¦¹ à¦īà¦ķ
à¦ĩ à¦ıà¦¸
à¦ĩ à¦ĵà¦¨
à¦· à¦°à¦¯
à¦· à¦¶à¦ķ
Ġà¦® à¦²à¦¯
à¦ľ à¦¸à¦°à¦ŀ
à¦§ à¦«
à¦¹ à¦¬à¦¹
à¦£ à¦ļà¦¨
à¦£ à¦«à¦²
à¦£ à¦§à¦°
à¦ĸ à¦¶
Ġà¦ľ à¦łà¦°
à¦ĵ à¦¸à¦®
Ġà¦° à¦Ĺà¦¡
Ġà¦Ĺ à¦²à¦¤
à¦°à¦¤ à¦¦
Ġà¦¥ à¦ļ
Ġà¦ħà¦¨ à¦¬
Ġà¦Ľ à¦ķà¦¬
Ġà¦ĩ à¦¸à¦ķ
Ġà¦ĩ à¦Ĺà¦¨
Ġà¦ĩ à¦¤à¦°à¦¬
à§¦ à§ª
à¦« à¦°à¦ľ
à¦ı à¦ķà¦¸
à¦ı à¦²à¦¸
à¦ī à¦¹
à¦ī à¦ĩà¦²
à¦ī à¦Łà¦ķ
à¦ī à¦ľà¦ķ
à¦ī à¦ĩà¦®
à¦¤à¦° à¦²
à¦¤à¦° à¦¸à¦®
Ġà¦Ł à¦²à¦Ł
à¦¾. âĢĻ
à¦ŀ à¦ĵ
Ġà¦®à¦¨ à¦Ń
à¦¬à¦¨ à¦¦à¦ķ
à¦®à¦¤ à¦®
à¦®à¦¤ à¦²à¦¬
à¦°à¦® à¦®à¦¨
à¦ĩà¦¨ à¦īà¦¦
à¦°à¦¸ à¦°à¦¤
à¦·à¦£ à¦¯
à¦Ĩ à¦ķà¦°
à¦Ĩ à¦¸à¦¬
à¦Ĩ à¦¬à¦¡
à¦Ĩ à¦ľà¦ĵ
Ġà¦¡ à¦¬à¦²
à¦¯à¦ķ à¦ĩ
Ġà§¨à§¦ à§©
Ġà§¨à§¦ à§®
à¦¦à¦¨ à¦°à¦¤
à¦·à¦ķ zobaidanasreen
à¦Ĺà¦¤ à¦®
à¦ķà¦Ł à¦ª
à¦²à¦¤ à¦®à¦¯
Ġà¦¶à¦¤ à¦¤à¦®
Ġà¦ıà¦¸à¦¬ à¦ĵ
Ġà¦ıà¦¸ à¦ĩà¦ľ
Ġà¦ĵà¦ĩ à¦¸à¦¬
Ġà¦ħà¦ª à¦¦à¦ĸà¦²
à¦Ĺà¦£ à¦ķ
à¦Ĺà¦£ à¦ªà¦°
Ġà¦ıà¦² à¦ĩà¦¡
Ġà§© à§§à§«
à¦ħ à¦¦à¦ķ
à¦ħ à¦¬à¦®
Ġà¦Ĩà¦ªà¦¨ à¦ľà¦¨à¦ķ
Ġà¦ķà¦² à¦°à¦¬
à¦§à¦¨ à¦ľ
Ġà¦ĩà¦¨ à¦ª
Ġà¦ĩà¦¨ à¦¹
Ġà§ª à§©à§¦
à§Ģ. ..
à¦·à¦® à¦Ń
Ġà¦ķà¦ĸà¦¨ à¦ĩ
Ġà¦¯à¦¤ à¦¸
à¦¬à¦¤ à¦£
à¦¬à¦ķ à¦®
Ġà§¬ à§¨à§¦
à¦®à¦¦ à¦ĸà¦²
à¦¼à§ģ à¥¤
à§ĭà¦ģ .
à¦¶à¦® à¦ªà¦¥
Ġà¦Ĩà¦ļ à¦°
à¦Ĺà¦² à¦ķà¦°
à¦Ĩà¦ĩ à¦ĩà¦īà¦¸
à¦°à¦ľ à¦Ĺà¦¤
à¦¿) ;
Ġà¦Ĩà¦¹ à¦ķ
Ġà¦ıà¦® à¦ľ
à¦°à¦®à¦£ à¦Ł
à¦Ĩà¦² à¦Ł
à¦ıà¦® à¦¡à¦¬
Ġà¦¨à¦Ĺà¦° à¦Ł
Ġà§¨à§« à§§
Ġà§¨à§« à§®
Ġà¦ħà¦ľ à¦Ĺà¦°
à¦¬à¦ľà¦¨ à¦¶
à¦ĩà¦ľ à¦¦
à¦Łà¦Ń à¦ķ
Ġà¦®à¦¹à¦² à¦Ĺ
à¦ıà¦« à¦ıà¦¨
Ġà¦īà§İà¦¸à¦¬ à¦Ĺ
Ġà¦ķà¦¨ à¦Ńà¦¯
an k
à¦Ī à¦¦à¦ķ
Ġà¦ħà¦¦ à¦°à¦ķ
Ġà§¨à§Ń à§Ń
Ġà§¨à§© à§¬
à¦ľà¦Ĺ à§İà¦ķ
à¦Ĩà¦ĩà¦¨ à¦Ĺà¦¤
à¦ķà¦ĵ à¦®
à¦ķà¦ĵ à¦Ń
on e
à¦Ĺà¦ľà¦¨à¦ķ à¦ĵ
à¦īà¦¡ à¦²à¦ķ
Ġà¦ĩà¦Ń à¦¨
Ġà§Ńà§« à§¨
Ġà§©à§ª à§¨
Ġà§«à§« à§®
Ġà¦¬à¦¦à¦° à¦Ĺà¦ŀ
Ġà¦¼ à¥¤
à§§à§¨ à§¦à§¦
Ġà§©à§® à§¦
Ġà¦īà¦ªà¦ķà¦°à¦£ à¦Ĺ
Ġà§«à§¬ à§¦
Ġà§«à§® à§¦
Ġà§¦ à§©
à¦¦à¦ĸà¦² à¦¦
if e
Ġf mainuddin
tu d
Ġà§Ńà§¬ à§¦
ali ty
à¦Ĩà¦īà¦Ł à¦¸
el im
de wan
à§§à§¯à§ª à§®
Ġà§§à§®à§® à§«
Ġà¦ĩà¦¡ à¦ķà¦²
ta zul
ir tu
sa jal
ter n
à¦ĭ à¦¤
Ġh is
Ġfa zlul
Ġà¦ıà¦¤à§İà¦¸ à¦¤
por t
à¦¡à¦īà¦ĩ à¦¥
htm l
Ġà¦Łà¦²à¦Ł à¦²
) !
) âĢĻà¥¤
2 1
C E
a g
c k
f f
f ail
i ss
j j
j ec
j ib
m munirc
n ab
o un
r es
s p
w dh
y al
z al
Å ĵ
Ġ 3
à¦° à¦Ĺà¦łà¦¨
à¦° à¦īà¦²
à¦° Ã¿
à§į à§ģ
à¦¨ l
à¦¨ à¦¨à¦¬
à¦¨ à¦¦à¦°
à¦¨ à¦«à¦¸
à¦¨ à¦īà¦ľ
à¦¯ à¦°à¦ķ
à¦ķ à¦¬à¦¨
à¦ķ à¦®à¦¬
à¦ķ à¦¨à¦Ĺ
à¦² à¦ªà¦ķ
à¦² à¦ªà¦¦
à¦® à¦¤à¦°
à¦® à¦ķà¦²à¦¹
Ġà¦ķ à¦ĩà¦²
Ġà¦¬ à¦¶à¦°
à¦¦ à¦¬à¦ª
à¦¦ à¦§à¦¨
à¦¦ à¦¨à¦¤à¦¤
à¦¸ à¦ķà¦°
Ġà¦¨ à¦°à¦¨
à¦¶ à¦¤à¦®
Ġà¦Ĩ à¦°à¦£
Ġà¦Ĩ à¦īà¦¸
Ġà¦Ĩ à¦ĵà¦²
Ġà¦ı à¦«à¦¸
à¦ĩ à¦īà¦Ł
à¦ĩ à¦¶à¦¤
à¦· à¦¬à¦°
à¦· à¦°à¦¦
Ġà¦¤ à¦ľ
à¦Ĺ à¦°à¦¸
Ġà¦® à¦¥
à¦¼à§ĩ /
à¦¼à§ĩ ...
à¦ľ l
à¦ľ à¦ķà¦¨
à¦ľ à¦¹à¦ľà¦°à¦¤
Ġà¦ķà¦° à¦ĵ
à¦ļ à¦£
Ġà¦¯ à¦¡
à¦Ĥ /
à¦£ à¦Ĺà¦¤à¦Ń
Ġà¦ľ à¦ľà¦°
à¦ĵ à¦Ĩà¦ĩà¦ª
à¦¡ à¦°à¦ķ
à¦¡ à¦²à¦¸
à¦¡ à¦¦à¦Ĺ
à¦Ń à¦¡
Ġà¦° à¦¬à¦°
Ġà¦° à¦£à¦¹
Ġà¦ĵ à¦°à¦ķà¦®
Ġà¦ī à¦Ń
Ġà¦ıà¦ķ à¦¥
Ġà¦¸à¦® à¦§à¦°
Ġà¦¥ à¦¤à¦®à¦¤
Ġà¦Ĩà¦® à¦¡
à¦ł à¦ĺ
à¦ł à¦¸à¦¹
à¦Ļ à¦¨à¦ķ
à¦ľà¦¨ à¦¯
Ġà¦ľà¦¨ à¦§
Ġà¦ľà¦¨ à¦ªà¦¨
Ġà¦ľà¦¨ à¦¸à¦¹
Ġà¦ľà¦¨ à¦ķà¦ķ
Ġà¦ĩ à¦ıà¦¸à¦ª
Ġà¦Ĩà¦° à¦¥
à¦¼à¥¤ )
à§¦ à§©
à¦« à¦°à¦¤
à¦« à¦ĸà¦°
à¦ı à¦ķà¦²
à¦ı à¦ıà¦ª
Ġà¦ĺ à¦°à¦ĵ
à¦ī à¦ı
à¦ī à¦®à¦ķ
à¦ī à¦¬à¦¯
à¦¬à¦¸ à¦²
ĠâĢĺ âĢľ
à¦ŀ à¦¸à¦¹
Ġà¦¸à¦¬ à¦²à¦¤
Ġà¦®à¦¨ à¦°
Ġà¦®à¦¨ à¦Ľ
Ġà¦Ĩà¦² à¦®à¦²
à¦ªà¦¨ à¦¬
à¦ªà¦¨ à¦¸
à¦®à¦¤ à¦¦
à¦°à¦® à¦¸à¦¹
Ġà¦¹à¦¤ à¦¶
à¦ĩà¦¨ à¦Ńà¦¯
à¦°à¦¬ à¦ĩ
à¦¶à¦¨ à¦¶
à¦¶à¦¨ à¦ķà¦ķ
à¦¸à¦¬ à¦ľ
à¦ĺ à¦°à¦Ĺ
à¦·à¦£ à¦°
à¦·à¦£ à¦¨
à¦Ĩ à¦ĸà¦¤
à¦Ĩ à¦ľà¦¬
à¦Ĩ à¦Łà¦²
Ġà¦Ĩà¦¨ à¦ĵà¦¯
Ġà¦Ĩà¦¨ à¦Ĩà¦®
Ġà¦¬à¦° à¦·
Ġà¦Ĩà¦ĩà¦¨ à¦Ńà¦Ļ
Ġà¦Ĺà¦£ à¦ķà¦°
à¦·à¦ķ purba
à¦°à¦¹ à¦ľ
à¦°à¦¹ à¦¨à¦¨
Ġà¦°à¦ķ à¦¨
à¦¬à¦² à¦Ĺ
à¦ķà¦Ł à¦¸à¦¹
Ġà¦¸à¦° à¦ĵà¦¯
Ġà¦¸à¦° à¦²à¦Ń
à¦Ŀ à¦Ĺà¦¡
à¦²à¦ķ à¦¸à¦®
Ġà¦ªà¦¦ à¦¤à¦²
à¦¥à¦¨ à¦¹
Ġà¦ıà¦¤ à¦¤
à¦¶à¦ķ à¦ĩ
à¦¶à¦ķ à¦ĵ
Ġà¦ıà¦¸ à¦Ł
à§ĩ? âĢĺ
à¦Ĺà¦£ à¦Ń
à¦¨à¦ķ à¦Ń
à¦ħ à¦°à¦£
à¦Łà¦¨ à¦ĵ
Ġà¦Ĩà¦ľ à¦Ł
à¦ĩà¦² à¦¡
à¦ĩà¦² à¦Łà¦ķ
à¦¦à¦² à¦Ł
à¦ıà¦¸ à¦ıà¦²
à¦ĩà¦ķ à¦ª
à¦īà¦¨ à¦¶
à¦Ĺà¦łà¦¨ à¦®
à¦¬à¦¤ à¦¶
à¦¬à¦¤ à¦¸à¦®
Ġà¦¬à¦ķ à¦ļà¦°
Ġà§Ń à§§à§¦
Ġà¦¸à¦ļ à¦²à¦¤
à¦ıà¦ĩ à¦ļà¦ķ
à¦®à¦§ à¦°
à¦¹à¦¸ à¦ĵ
à¦łà¦ķ à¦ª
à¦¥à¦ķ à¦Ĺ
Ġà¦ĭà¦£ à¦¬
Ġà¦ĭà¦£ à¦®
à¦Ĺà¦² à¦°
à¦ķà¦°à¦£ à¦Ĺ
Ġà§§à§« à§¦à§¦
ma ssum
à¦®à¦Ĺ à¦¨
à¦®à¦Ĺ à¦ľ
Ġà¦Ĩà¦°à¦¬ à¦ĵ
Ġà¦ıà¦® à¦Ĩà¦°à¦ª
à¦Ĺà¦ķ à¦¬à¦²
Ġà¦Ĩà¦Łà¦ķ à¦ĵ
à¦ªà¦£ à¦¨à¦ķ
Ġà¦¦à¦®à¦¨ à¦ķ
à¦ħà¦¨ à¦¶à¦¨
Ġà§§à§¬ à§¦à§¦
à¦ĩà¦¡ à¦¬
à¦¤à¦¦ à¦¬
à¦²à¦Ń à¦Ń
à¦Łà¦® à¦Ł
Ġà¦®à¦¹à¦² à¦Ł
Ġà¦Ĩà¦¹à¦®à¦¦ à¦ĵ
à¦ıà¦ķ à¦ļ
Ġà§¨à§¨ à§®
an ce
à¦Ĺà¦¡ à¦«
Ġà§¨à§® à§©
Ġà§¬à§¦ à§®
à¦īà¦ľ à¦īà¦ĩà¦ķ
Ġà§¨à§Ń à§§
à¦¨à¦¶à¦¨ à¦ľ
à¦¨à¦¶à¦¨ à¦ĵ
Ġà§¨à§¬ à§§
Ġà§¨à§¬ à§©
Ġà¦ªà¦¤à¦¨ à¦ĵ
à¦Ĩà¦ĩà¦¨ à¦Ł
Ġà§©à§« à§§
ha jj
à¦¸à¦« à¦²à¦¤
ra m
à¦Ĩà¦¸ à¦Ľ
Ġà§©à§¨ à§©
à¦ħà¦§ à¦¸
Ġà¦£ à¦¯
bd rong
Ġà§«à§Ń à§¬
Ġà¦ıà¦ķà¦¨ à¦ľà¦°
Ġà§©à§¬ à§§
ar fuddin
Ġà¦ĩà¦īà¦ıà¦¨ à¦Ĩà¦°à¦¡à¦¬
Ġà¦ķà¦¬à¦° à¦Ł
Ġs haraf
à¦ħà¦¸ à§İ
à¦°à¦¸à¦¬ à¦¬
Ġà§«à§ª à§ª
Ġà§ªà§© à§¬
Ġà§«à§« à§ª
Ġà¦ľà¦¨à¦¬à¦² à¦¸
Ġà¦¬à¦¦à¦° à¦īà¦¦
Ġà¦¼ à§ĭ
ul d
Ġà§ªà§¬ à§¦
à§ģà¦Ĥ à¥¤
Ġà§¦ à§Ń
Ġà§¦ à§ª
Ġà§¬à§¬ à§¨
Ġà¦ħà¦¨à¦¶à¦¨ à¦°à¦¤
à¦¤à¦ĸà¦¨ à¦ķ
Ġà§¯à§« à§¦
Ġà§Ńà§ª à§«
à¦¤à¦ķà¦° à¦¬
à¦«à¦« à¦°à¦¨à¦Ĺà¦°
Ġà¦¬à¦Ľ à¦°à¦®
à§§à§¯à§® à§§
à§§à§¯à§® à§©
à¦¾... à¥¤âĢĻ
à¦ıà¦ķà¦¦ à¦®
Ġà¦Łà¦¹à¦² à¦¦
Ġà¦īà¦ªà¦ªà¦° à¦°
à§§à§¯à§¬ à§¬
à§§à§¯à§ª à§¯
Ġb ardhanprotik
à§§à§¯à§« à§©
Ġà¦¨à¦ĸ à¦¦à¦°
à¦¿... à¥¤
Ġà§§à§®à§® à§¦
id know
ation s
ation al
tr y
san yal
Ġà¦ķà¦¨à¦ķ à¦¨
15 15
Ġà¦ĩà¦¹à¦ľ à¦Ĺà¦¤
ĠV irtu
Ġà¦ıà¦«à¦ı à¦ĵà¦°
10 1
à¦ıà¦¸à¦ıà¦®à¦ıà¦® à¦ĩà¦ī
jee bdrong
led ge
à¦ľà¦ī à¦ķà¦ķ
wdh ury
zal hossain
idknow ledge
! )à¥¤
% à¥¤
> )
c op
h er
i re
u c
Ġ 2005
Ġ ju
Ġ he
Ġ khalil
à§ ¶
à¦° à¦ħà¦¨
à¦° à¦īà¦ĩà¦¨
à¦¿ âĢĭà§ĩ
à¦¨ à¦ļà¦¨
à¦¨ à¦°à¦¹à¦¤
à¦¯ à¦¡
à¦¤ à¦®à¦°
à¦¤ à¦¸à¦°à¦ķ
à¦ķ à¦Ĺà¦£
à¦ķ alimkzaman
à¦ķ manik
à¦¬ à¦¤à¦ķ
à¦² à¦ļà¦ķ
à¦² à¦Ĩà¦¬
à¦® à¦°à¦¹
Ġà¦ķ à¦ļà¦ķ
à§ģ /
à§ģ )à¥¤
à¦Ł à¦¸à¦¨
à¦Ł à¦Ĺà¦¤
à¦Ł à¦®à¦°
à¦Ł à¦²à¦Ĺ
Ġà¦¨ à¦¬à¦¸
Ġà¦¨ à¦¦à¦ķ
Ġà¦¨ à¦ĵà¦®
à§Ģ à¦¿
à§Ģ !âĢĻ
à¦¶ à¦°à¦¤
à¦¶ à¦¬à¦°
à¦¶ à¦®à¦¸
à¦ª à¦ªà¦°
à¦ª à¦®à¦¤
à¦ª à¦ĭà¦£
Ġà¦ı à¦°à¦¤
Ġà¦ı à¦¤à¦¬
Ġà¦ı à¦Ĩà¦ĩà¦ı
à¦ĩ à¦ķà¦°
à¦ĩ à¦ķà¦²
à¦· à¦°à¦ĵ
à¦· à¦²à¦§
à¦Ĺ à¦ªà¦¥
à¦Ĺ à¦°à¦¸à¦¹
à¦¼à§ĩ )à¥¤
Ġà¦ķà¦° à¦¸
à¦§ à¦¹à¦¯
à¦ļ à¦¸à¦¹
à¦ļ à¦¦à¦²
à¦£ à¦°à¦ķ
à¦£ à¦®à¦¤
à¦ĸ à¦§
à¦¡ à¦ĵà¦°
à¦¼à¦¾ à¦¿
Ġà¦¶ à¦¶à¦¬
Ġà¦ĵ à¦ķà¦²
Ġà¦ĵ à¦īà¦¨
Ġà¦ļ à¦°à¦Ń
Ġà¦Ń à¦ľ
Ġà¦ī à¦¸à¦ĸ
Ġà¦¥ à¦°à¦¥
à§ĥ âĢĮ
à¦ł à¦«
à¦ł à¦¤à¦°
Ġà¦² à¦¹à¦®
à¦ľà¦¨ à¦¬à¦°
Ġà¦ĩ à¦ĵà¦°
Ġà¦§ à¦¤
Ġà¦§ à¦ĩà¦°
à¦« à¦Ŀà¦®
Ġà¦¹à¦¬ à¦¸
à¦ī à¦¨à¦Ł
à¦ī à¦ªà¦¶
à¦¿à¥¤ )
à¦¿à¥¤ âĢĿ
à¦¤à¦° à¦¨
à¦¬à¦¸ à¦ĵ
à¦¬à¦¸ à¦®à¦ķ
à¦¼à¦¿ !
à¦¼à¦¿ ;
Ġà¦¹à¦² à¦¸à¦¹
à¦¬à¦¨ à¦ľ
à§İ à¦¨
à§İ à¦¸à¦®
Ġà¦Ĩà¦² à¦ª
à¦°à¦® à¦¸à¦®
Ġà¦ķà¦® à¦ĵ
Ġà¦Ĩà¦Ĺ à¦¬
à¦·à¦¯ à¦ľ
à¦Ĩ à¦ķà¦¤
à¦Ĩ à¦ªà¦¸
Ġà¦¡ à¦Ĺà¦²
Ġà¦Ĺà¦£ à¦ľà¦®
à¦°à¦¦ à¦¦
à¦°à¦¦ à¦²à¦ķ
à¦·à¦ķ à¦¶
à¦Ĺà¦¤ à¦¤
à¦Ĺà¦¤ à¦ĵ
Ġà¦¬à¦¨ à¦°
Ġà¦¸à¦° à¦Ľ
à¦Ŀ à¦¨à¦¦
à¦²à¦ķ à¦£
à¦Ĺà¦° à¦Ĺ
à¦¼à§Ģ à¥¤âĢĻ
à¦¹à¦² à¦®
à¦¨à¦¬ à¦ļà¦°
à¦¨à¦¬ à¦®à¦£
à¦¶à¦ķ à¦¸à¦¹
Ġà¦ıà¦¸ à¦ıà¦¨à¦Ń
à¦¨à¦¨ à¦Ł
à¦¹à¦¤ à¦ķà¦°à¦£
à¦¯à¦¤ à¦ĩ
à¦¸à¦¹ à¦¨
Ġà¦ıà¦² à¦¬
à¦łà¦¨ à¦ķ
à¦ªà¦¦ à¦Ń
à¦·à¦¤ à¦¸
à¦·à¦¤ à¦Ł
à¦·à¦¤ à¦ļ
à¦ķà¦¦ à¦²
à¦ķà¦¦ à¦®
à¦¨à¦ķ à¦¥
à¦ħ à¦ĸ
à¦ħ à¦¡
à¦ħ à¦ĺ
à¦ħ à¦¸à¦¦
à¦¦à¦ķ sar
à¦ĩà¦² à¦®
à¦ĩà¦² à¦¬à¦¨
Ġà§« à§§à§§
à¦¤à¦ķ à¦¸à¦¹
à¦¶à¦Ĺ à¦²
à¦Ĺà¦łà¦¨ à¦¸à¦®
à¦¯à¦° à¦ļà¦¨
à¦¬à¦ķ à¦¸
à¦¬à¦ķ à¦¥
Ġà§¬ à§§à§¦
Ġà§¬ à§§à§Ń
à§® à§¦à§¦
Ġà¦Ĩà¦ĩ à¦ıà¦«
Ġà¦Ĩà¦ĩ à¦¡à¦¬
Ġà¦Ĩà¦ĩ à¦Ĩà¦ĩà¦ľ
Ġà¦Ĩà¦ĩ à¦ĩà¦īà¦¸
Ġà¦ªà¦¶ à¦²
à¦ķà¦¸ à¦ĩà¦Ń
à§ĭà¦ģ à¥¤
Ġà¦¨à¦¬ à¦Ĺà¦Ļ
Ġà¦¦à¦¶à¦ķ à¦¬
à¦¹à¦¸ à¦Ł
Ġà¦ıà¦¨ à¦²
Ġà¦ĭà¦£ à¦¨
à¦Ĺà¦² à¦¸
à¦Ĺà¦² à¦®à¦¯
à¦ķà¦°à¦£ à¦®
Ġà¦¬à¦ĩ à¦ĺà¦°
Ġà¦¬à¦ĩ à¦ªà¦¡
Ġà¦ļà¦° à¦®à¦¤à¦®
Ġà¦ıà¦® à¦ıà¦«à¦ıà¦¨
à¦®à¦ľ à¦Ĺà¦¤
à¦°à¦®à¦£ à¦°à¦¤
à¦ıà¦® à¦ĩà¦Ł
Ġà§§à§® à§¦à§¦
Ġà§§à§® à§¯à§Ń
à¦Ĩà¦¨ à¦«
à¦Ĩà¦¨ à¦Ĩà¦®
à¦Ĩà¦° à¦ı
à¦Ĩà¦° à¦ıà¦²
Ġà§§à§ª à§¨à§©
Ġà§¨à§« à§Ń
Ġà¦ķà¦· à¦²
Ġà¦ıà¦ķà¦¬ à¦ļà¦¨
Ġà¦Ĩà¦ĩà¦ıà¦¸ à¦¸à¦¹
à¦¬à¦ľà¦¨ à¦¸à¦¹
à¦®à¦ļ à¦ŀ
à¦®à¦¹ à¦¡
à¦Ĺà¦ľ à¦ĵ
Ġà§¨à§ª à§§
à¦¯à¦Ł à¦¨à¦¬
à§§à§¦ à§©
Ġà¦īà§İà¦¸à¦¬ à¦ĵ
à¦ľà¦² à¦ľ
Ġà§¨à§¨ à§¯
an c
Ġà§§à§¦à§¦ à§§
Ġà¦«à¦¸à¦² à¦ĵ
Ġà¦¸à¦¨à¦¦ à¦ĵ
Ġà§¨à§¬ à§Ń
Ġà§¨à§¬ à§¯
Ġà¦īà¦ªà¦¨ à¦¦
à¦ĩà¦ī à¦ıà¦®à¦ıà¦²
Ġà¦¬à¦¸à¦¤ à¦ĺà¦°
à¦®à¦¶ à¦¤à¦¬
in e
Ġà§¨à§¯ à§¦
ha d
Ġà¦ľà¦¨à¦®à¦¤ à¦ĵ
Ġà¦£ à¦®
Ġà§ªà§¨ à§«
er al
à¦¬à§İ à¦¸à¦®
Ġà§ªà§® à§¦
Ġà§©à§ª à§®
à¦ıà¦ĩà¦ļ à¦Ĩà¦°à¦¸
à¦°à¦¸à¦¬ à¦ľà¦¨
Ġà§©à§Ń à§«
Ġà§©à§¯ à§¦
Ġà¦ĵà¦ľà¦¨ à¦¦
Ġà§ªà§¬ à§¨
Ġà§ªà§¬ à§¬
à§ĭâĢĶ âĢĺ
à§§à§© à§¦
Ġà§¬à§ª à§Ń
ti es
Ġà§¦ à§«
à¦¨à¦ĸ à¦¦à¦¨
en s
en ha
à¦Ĩà¦ĩà¦ı à¦¸à¦ķ
Ġà¦¨à¦°à¦® à¦ªà¦¨
Ġà§¯à§¬ à§¦
Ġà§Ńà§Ń à§¦
Ġà§Ńà§® à§¬
Ġà§§à§¯à§¦ à§¯
is lam
à¦ıà¦¨à¦ıà¦¨ à¦ķ
Ġà§¬à§¯ à§¦
Ġà¦ĩà¦īà¦ıà¦¸ à¦ıà¦ĩà¦¡
Ġà¦¬à¦²à¦¬à§İ à¦¯
ic al
à§§à§¯à§¬ à§®
ĠC om
as jadulk
ol og
Ġà§§à§®à§« à§«
à§§à§¯à§ª à§«
à§§à§¯à§« à§¦
à§§à§¯à§« à§ª
à§§à§¯à§« à§¬
ta te
Ġà§İ à¦ª
à§®à§® à§®à§®
à¦ĩà¦¥ à¦ĵà¦¯
à¦¼... à¥¤
ĠÌ ģ
à¦ĭ à¦·
Ġà¦Ĺà¦« à¦°à¦Ĺ
à¦Ĩà¦ĩà¦ĵ à¦ıà¦®
Ġà§¯à§§à§ §
Ġà§§à§¯à§§ à§¦
sar ker
à¦ıà¦Ĩà¦ĩ à¦Ĩà¦ĩà¦¬
à¦¥à¦°à¦ĸ à¦£
Ġà¦°à¦ľà¦¤ à¦ľà¦¯
jib on
Ġà¦ķà¦ļà¦ķ à¦ļ
Ġà¦ıà¦Ĩà¦ĩà¦ı à¦¡
à¦¦à¦ķsar fuddin
? ?
d ia
e op
g l
k ar
k et
m p
n al
p o
p ri
r y
t ed
t arupallab
w ik
Ġ '
Ġ 2
Ġ à§Ģà¥¤
Ġ mail
Ġ man
Ġ un
Ġ up
Ġ all
Ġ amirulkhan
à¦¾ *
à§ĩ âĢĮ
à¦¨ à¦¸à¦°
à¦¨ à¦«à¦²
à¦¨ à¦¸à¦ķ
à¦¨ à¦ľà¦²
à¦¨ à¦¸à¦ķà¦¨
à¦¤ à¦ķà¦¬
à¦¤ à¦Ľà¦¡
à¦ķ bishwabd
à¦ķ saiful
à¦¼ ]
à¦² à¦°à¦¸
à¦® à¦Ŀ
à¦® à¦¶à¦¤à¦¬à¦°
Ġà¦ķ à¦ľ
à§ģ ...
Ġà¦¸ à¦Ł
Ġà¦¬ à¦ĩà¦¨
Ġà¦¬ à¦īà¦¦
Ġà¦¬ à¦¤à¦¸
à¦¦ à¦¡
à¦¦ à§İ
à¦¸ à¦ħ
à¦¸ à¦Ĩà¦ª
à¦Ł à¦°à¦ĵ
Ġà¦¨ à¦®à¦°
Ġà¦¨ à¦¹à¦°
Ġà¦¨ à¦¨à¦¦
Ġà¦¨ à¦®à¦¦
à§Ģ âĢĿ
à¦¶ à¦¦à¦°
Ġà¦Ĩ à¦ĸà¦¨
à¦ĩ à¦¹à¦¸
à¦· à¦ªà¦°
Ġà¦¤ à¦²à¦ª
à¦Ĺ à§İ
Ġà¦® à¦ľà¦¨
Ġà¦® à¦²à¦¤
à¦ľ à¦ľà¦Ł
Ġà¦ķà¦° à¦®à¦ļ
à¦§ à¦ļ
à¦§ à¦¬à¦°
à¦§ à¦®à¦¤
à¦ļ à¦ķà¦¬
à¦¹ à¦Ļ
à¦¹ à¦¤à¦¬
à¦¹ à¦Ńà¦°
à¦¹ à¦ľà¦®
à¦£ à¦¯à¦ľ
à¦ĸ à¦¹
à¦ĸ Ã¿
à¦ĵ à¦Ĩà¦ĩà¦¸
à¦¼à¦¾ âĢĿ
à¦Ń à¦£
à§ĩà¥¤ âĢĿâĢĻ
Ġà¦° à¦°
Ġà¦° à¦ķà¦²
Ġà¦° à¦¬à¦ķ
Ġà¦Ĺ à¦¹à¦¨
Ġà¦ĵ à¦Ŀ
à¦ģ -
Ġà¦¸à¦® à¦¬à¦£
à¦Ļ à¦¨à¦ª
Ġà¦Ľ à¦®à¦Ľà¦®
à¦°à¦£ à¦ľà¦¨
Ġà¦ĸ à¦ŀ
Ġà¦ĩ à¦ĸà¦²
Ġà¦ĩ à¦¡à¦¬
Ġà¦Ĩà¦° à¦ĩà¦¬
à¦®à¦¨ à¦ĵ
Ġà¦§ à¦¬à¦²
à¦« à¦ĩ
à¦« à¦īà¦¦
à§Ī à¦¿
à¦ı à¦¹
à¦ı à¦°à¦¦
à¦ı à¦¤à¦Ł
Ġà¦ĺ à¦°à¦ķà¦¨
à¦ī à¦¸à¦¹
à¦¤à¦° à¦ľ
à¦¬à¦¸ à¦¬
Ġà¦ıà¦¬ à¦¡
à¦¬à¦° à¦§
à¦¬à¦° à¦¬à¦°
Ġà¦¹à¦² à¦°
Ġà¦¹à¦² à¦®
à¦¬à¦¨ à¦¸à¦¹
à§İ à¦²
à§İ à¦¶
Ġà¦Ĩà¦² à¦¯
à¦°à¦® à¦²
à¦°à¦® à¦Ń
à¦ķà¦° à¦Ľ
Ġà¦¦à¦² à¦ªà¦¤
à¦°à¦¬ à¦£à¦ķ
à¦°à¦¬ à¦ļà¦¨à¦Ł
à¦¶à¦¨ à¦¸à¦®
à¦¤à¦¨ à¦ª
à¦¤à¦¨ à¦ĸ
à¦¸à¦¬ à¦¶à¦¤
Ġà¦ıà¦° à¦ª
à¦ĺ à¦¤
à¦ĺ à¦°à¦ķ
à¦ĺ à¦°à¦¬
à¦Ĩ à¦¹à¦¸
Ġà¦ıà¦ĸà¦¨ à¦¤à¦ķ
à¦¯à¦¬à¦¸ à¦°
Ġà¦īà¦ª à¦ĸ
Ġà§¨à§¦ à§¯
à¦°à¦§ à¦¨
à¦¦à¦¨ à¦¸
à¦°à¦¹ à¦°à¦£
à¦¯à¦¬ à¦ĩà¦¤
à¦ªà¦ķ anu
Ġà¦¬à¦¨ à¦²à¦¤
à¦¬à¦¬ à¦°à¦£
à¦°à¦ĵ à¦ªà¦°
Ġà¦¸à¦¨ à¦¦à¦ªà¦¤
Ġà¦¶à¦¤ à¦¸à¦¹à¦¸
Ġà¦īà¦¨ à¦ķ
à¦¥à¦¨ à¦Ł
Ġà¦«à¦² à¦«à¦²
à¦ıà¦¨ à¦ıà¦¸à¦ı
à¦¨à¦¬ à¦Ń
à¦¨à¦¬ à¦°à¦£
à¦¸à¦¦ à¦Ł
à¦¶à¦ķ à¦¸
Ġà¦ıà¦¸ à¦ĵ
Ġà¦ıà¦¸ à¦Ĩà¦ĩà¦¯
Ġà¦ĩà¦ī à¦ıà¦®à¦ıà¦²
à¦¸à¦® à¦®
à¦¹à¦¤ à¦ĵ
à¦ļà¦² à¦°à¦¤
à¦¯à¦¤ à¦ķ
Ġà¦ħà¦ª à¦²à¦ķ
à¦®à¦ķ à¦¬
Ġà¦ıà¦² à¦ıà¦«
à¦ħ à¦ļà¦²
à¦°à¦¨ à¦ĩ
à§ĭà¥¤ ...
à¦²à¦¬ à¦ĩ
à¦²à¦¬ à¦ĵ
à¦²à¦¬ à¦Łà¦®
à¦ĩà¦² à¦Łà¦¦
à¦¸à¦ķ à¦ĵ
à¦¤à¦ķ à¦¬à¦²
à¦§à¦¨ à¦Ĺ
Ġà§ª à§§à§©
à¦¨à¦¸ à¦ª
à¦°à¦Ł à¦¸
Ġà¦ħà¦Ĺ à¦¸
à§Ń à§¦à§¦
à¦ļà¦ķ à¦ĩ
à¦ļà¦ķ à¦ļà¦ķ
Ġà¦Ĩà¦ĩ à¦Ńà¦°
à¦¯à¦ķà¦° à¦ĩ
à¦·à¦¦ à¦¸à¦®
à¦Ĩà¦® à¦ľ
à¦Ĩà¦® à¦ľà¦¨à¦¤
Ġà¦Ĩà¦®à¦² à¦¸à¦®
Ġà¦Ĺà¦łà¦¨ à¦¸à¦¹
à¦²à¦® à¦¡
à¦Ĩà¦ĩ à¦Ĩà¦ĩà¦Ł
à¦Ĩà¦ĩ à¦ıà¦ĩà¦ı
Ġà¦Ĩà¦ª à¦¸à¦®
à¦°à¦ľ à¦¤
Ġà¦¦à¦ĸà¦² à¦¸à¦¹
à¦«à¦° à¦īà¦²
Ġà¦¬à¦ĩ à¦¸
Ġà¦¬à¦ĩ à¦ĸ
à¦ĸà¦ķ à¦ĵ
Ġà¦īà§İà¦¸ à¦Ł
Ġà¦Ĩà¦« à¦Ľ
Ġà¦ıà¦® à¦Ĩà¦°
à¦¹à¦°à¦£ à¦ķ
à¦°à¦®à¦£ à¦¸
Ġà¦Ńà¦¬à¦¨ à¦ĩ
Ġà¦Ńà¦¬à¦¨ à¦¸à¦¹
à¦ıà¦® à¦Ĩà¦°
à¦ªà¦£ à¦¨à¦¬
Ġà§§à§® à§¯à§©
Ġà¦ħà¦² à¦¸à¦¤
à§ĩâĢĻ ?
à¦ĩà¦¡ à¦¬à¦ĩ
Ġà¦¤à§İ à¦¸à¦®
à¦¸à¦°à¦£ à¦¯
à¦¯à§İ à¦Ł
à¦ıà¦« à¦ķ
Ġà§¨à§ª à§ª
à¦¦à¦°à¦¬à¦¨ à¦§
à¦¦à¦°à¦¬à¦¨ à¦ĵ
Ġà¦Ĩà¦²à¦® à¦¡
Ġà¦Ĭ à¦·
à¦¬à¦°à¦£ à¦ķ
Ġà¦¸à¦« à¦°à¦¸
à¦¯à¦®à¦¨ à¦¸
Ġà§¨à§Ń à§®
à¦°à¦¬à¦² à¦¤à¦°
Ġà§¨à§© à§§
Ġà¦¸à¦¨à¦¦ à¦Ĺ
Ġà§¨à§¬ à§¬
à¦¬à¦¤à¦¨ à¦¦
Ġà¦Łà¦¨ à¦Łà¦¨
à¦¼à¦¾à¦Ĥ .
à¦¼à¦¾à¦Ĥ :
à¦ĩà¦ª à¦ĩ
Ġà§©à§¨ à§¯
er s
er v
th e
Ġà§©à§© à§®
Ġà§©à§© à§¬
Ġà§©à§¬ à§¨
Ġà§©à§¬ à§Ń
à¦¯à¦Łà¦¨ à¦¸
Ġà§Ńà§« à§§
à§§à§« à§¦
Ġà§ªà§® à§§
Ġà§«à§ª à§¬
à¦ħà¦ª à¦ļà¦¯
à¦ľà¦īà¦ķ à¦¸à¦¹
Ġà¦°à¦£ à¦ľ
Ġà§¬à§ª à§¦
Ġà§«à§® à§®
en d
Ġà¦¸à¦®à¦¤à¦² à¦Ń
Ġà§«à§¨ à§«
ba pp
à§ĩ... âĢĻ
à§ĩ... âĢĻà¥¤
Ġà§ªà§¯ à§¦
Ġà¦«à¦²à¦¨ à¦ĵ
Ġà§®à§¨ à§¨
Ġa c
mz aman
à§§à§¯à§¬ à§¦
à§§à§¯à§¬ à§§
à§§à§¯à§¬ à§Ń
ol la
Ġw ith
à¦ıà¦¸à¦Ĩà¦ĩ à¦Ĩà¦°
à§¯à§¨ à§§
à¦¨à¦ªà¦¦ à¦¸
ĠE N
Ġà¦Ĩà¦ĩà¦ıà¦¸à¦Ĩà¦ĩ à¦ıà¦²
à¦¬à¦ľà¦¨à¦ķ à¦¥
oo d
ĠâĢį +
à¦īà¦ªà¦ķ à¦°à¦£
ub lic
Ġy ou
Ġà¦ĩà¦īà¦ıà¦¸à¦ıà¦¸ à¦¡
nah idknowledge
Ġà¦ĩà¦īà¦ıà¦®à¦ıà¦¨ à¦ĵà¦°
cop enha
Ġà¦¥à¦°à¦¥ à¦°
copenha gen
% -
E E
a w
a af
d ic
e x
h en
i v
i y
i han
i du
n ayeem
p re
r om
r us
t on
t tar
u k
z on
z aaf
Ġ K
Ġ j
Ġ âĢĻà¥¤
Ġ om
Ġ à§ĭ:
Ġ à§Ģ?
Ġ ho
Ġ ....
Ġ zaman
à¦¾ à§į
à¦° à¦ıà¦ĩà¦¡
à¦¿ à¦¾
à¦¨ à¦°à¦¸
à¦¨ à¦Ĩ
à¦¨ à¦ªà¦°à¦¤
à¦¨ à¦ļà¦Ł
à¦¤ à¦ķà¦Ł
à¦¤ à¦ĸà¦¤
à¦ķ à¦°à¦®
à¦² à¦ķà¦¤
à¦® à¦£à¦¦
Ġà¦ķ à¦Ĺ
Ġà¦ķ à¦¨à¦°
à§ģ âĢĻ-
à§ģ ?âĢĻ
Ġà¦¸ à¦²à¦ľ
Ġà¦¬ à¦ķà¦¬à¦ķ
à¦¦ à¦ķà¦¤
à¦¦ à¦¬à¦ķ
Ġà¦ª à¦ĩà¦ªà¦ĩ
à¦¸ à¦°à¦¸
à¦¸ à¦Ĩà¦¬
à¦Ł à¦ªà¦°
à¦Ł à¦ĺ
Ġà¦¨ à¦¤à¦®
Ġà¦¨ à¦¨à¦¸
à¦¶ à¦²à¦¨
à¦¶ à¦Łà¦¨
Ġà¦Ĩ à¦¥
Ġà¦Ĩ à¦ĵà¦«
à¦ª à¦Ĺà¦¤
à¦ª à¦Ńà¦°
Ġà¦ı à¦Ļ
Ġà¦¹ à¦£
Ġà¦¹ à¦Łà¦¬
Ġà¦¹ à¦£à¦¯
Ġà¦¹ à¦«à¦®
à¦· à¦ļ
Ġà¦¦ à¦¶à¦¬
Ġà¦¤ à¦ĵà¦¯
à¦Ĺ à¦¤à¦¬
Ġà¦® à¦Ł
Ġà¦® à¦Īà¦¦
à¦¼à§ĩ ).
à¦ľ à¦¬à¦¦
à¦ľ à¦²à¦Ń
à¦ľ à¦ªà¦¦à¦ķ
Ġà¦ķà¦° à¦ķ
Ġà¦ķà¦° à¦Ń
à¦§ à¦ªà¦ķ
à¦§ à¦²à¦ķ
à¦§ à¦ľà¦¨à¦ķ
à¦ļ à¦ļ
à¦ļ à¦°à¦ķ
Ġà¦¯ à¦·
Ġà¦¯ à§İà¦ķ
à¦¥ à¦¬à¦°
à¦¹ à¦¨à¦Ł
à¦¹ à¦¨à¦¦
à¦Ĥ )
à¦£ à¦ªà¦¦
à¦ĵ à¦ĩà¦¸
à¦ĵ à¦ıà¦ĩà¦ļà¦ıà¦¸
à¦¡ à¦¬à¦¦
Ġà¦° à¦¬à¦¨
Ġà¦° à¦£à¦¨
Ġà¦¶ à¦¬à¦¯
Ġà¦Ĺ à¦ª
Ġà¦Ĺ à¦¥
Ġà¦Ĺ à¦ľà¦¨
Ġà¦Ĺ à§İ
Ġà¦Ĺ à¦°à¦¬
Ġà¦ļ à¦ļ
Ġà§ ±
Ġà¦¸à¦® à¦ħà¦§
à¦¾à¦ģ âĢĻà¥¤
Ġà¦¥ à¦¬
à¦°à¦ķ à¦ļ
à¦°à¦ķ à¦Ĺà¦£
à¦ł à¦Ľ
à¦ł à¦°à¦¤
Ġà¦² à¦¹
à¦°à¦£ à¦ªà¦¦
à¦¾à¦Ĥ âĢĻ
Ġà¦ľà¦¨ à¦ļà¦²
Ġà¦¬à¦² à¦¦à¦°
Ġà¦ĸ à¦¤à¦°à¦¨
Ġà¦ĩ à¦¨à¦¬à¦ķ
Ġà¦« à¦°à¦°
Ġà¦§ à¦¨à¦¦
à¦« à¦Ĺ
à¦« à¦¡
à¦ı à¦²à¦ķ
à¦ī à¦·
à¦ī à¦°à¦ķ
à¦ī à¦²à¦¸
à¦¤à¦° à¦¹
à¦¾. .
à¦ŀ à¦ļ
à¦ŀ à¦ľà¦¨à¦¦
Ġà¦®à¦¨ à¦®à¦°
à¦¬à¦¨ à¦¯à¦¨
à§İ à¦ªà¦¨
Ġà¦Ĩà¦² à¦¬à¦¤
Ġà§¨ à§§à§®
à¦®à¦¤ à¦¸
à¦®à¦¤ à¦¸à¦¹
à¦°à¦® à¦¥
à¦ĺ à¦ª
à¦Ĩ à¦¦à¦¨
à¦Ĩ à¦¸à¦¤
à¦²à¦¨ à¦¯
à¦²à¦¨ à¦Ĺà¦°
Ġà¦ĺà¦Ł à¦®
à¦¼à§ĭ âĢĻ
Ġà¦¬à¦Ľà¦° à¦ĵà¦¯
Ġà¦¬à¦Ľà¦° à¦Ńà¦°
Ġà¦īà¦¦ à¦°à¦ª
à¦¨à¦¤ à¦¦
à¦¨à¦¤ à¦ķà¦°à¦£
à¦¯à¦® à¦¬
Ġà§¨à§¦ à§©à§¨
Ġà§¨à§¦ à§©à§§
à¦·à¦ķ à¦®
à¦·à¦ķ hhintlbd
Ġà¦ħà¦¸ à¦®à¦¨
à¦ķà¦² à¦¬
à¦¬à¦² à¦Ł
Ġà¦¬à¦¨ à¦ª
Ġà¦¬à¦¨ à¦¸à¦®
Ġà¦ħà¦¬à¦¸ à¦¨
Ġà¦ĵà¦ªà¦° à¦®à¦¹à¦²
à¦Ŀ à¦¬à¦¯
à¦®à¦° à¦«
à¦ķà¦¤ à¦Ł
à¦ķà¦¤ à¦ĩ
Ġà¦ªà¦¦ à¦¸à¦¹
Ġà¦ªà¦¦ à¦¦à¦²à¦¨
à¦ıà¦¨ à¦ĩà¦īà¦°
à¦¸à¦® à¦·
à§ĩ? )
Ġà¦ħà¦ª à¦¯
Ġà¦ıà¦² à¦ĵà¦¸
Ġà§© à§§à§ª
Ġà§© à§§à§Ń
à¦ªà¦¦ à¦¸à¦¹
à§ģà¦ģ âĢĵ
Ġà¦ħà¦ªà¦° à¦ļ
Ġà¦¾ à¥¤âĢĻ
à¦ħ à¦ĺà¦Łà¦¨
à¦ħ à¦¸à¦®à¦¯
à¦ħ à¦¥à¦°
à¦ħ à¦ªà¦ª
à§ĭà¥¤ âĢĺ
Ġà¦ªà¦¥ à¦¹
Ġà¦ķà¦² à¦Ł
à¦Łà¦¨ à¦¸
à¦Łà¦¨ à¦¸à¦¹
à¦²à¦¬ à¦Ł
Ġà§« à§§à§¦
à¦¸à¦ķ à¦¬à¦°
à¦¸à¦ķ à¦¬à¦²
à¦¦à¦² à¦Ĺ
à¦¦à¦² à¦ĵ
Ġà¦ķà¦¤ à¦¶à¦¤
à¦¤à¦ķ à¦Ĺ
à¦¤à¦ķ à¦§
Ġà§ª à§§à§®
à¦¨à¦¸ à¦ļ
Ġà¦ħà¦Ĺ à¦®
Ġà§Ń à§¨à§¦
à¥¤âĢĻ âĢĶ
Ġà¦Ĩà¦ĩ à¦Ĩà¦°à¦ľ
Ġà¦Ĩà¦®à¦² à¦Ł
à¦¾âĢĻ ?
Ġà§® à§¨à§¦
Ġà§® à§¨à§«
à§ĭà¦ģ -
à¦¶à¦® à¦¶
Ġà¦ıà¦¨ à¦¡à¦°
Ġà¦ıà¦¨ à¦Ĩà¦°à¦¬
Ġà¦ĭà¦£ à¦Ł
à¦Ĺà¦² à¦ĩ
à¦ķà¦°à¦£ à¦¸à¦¹
à¦Ĩà¦ĩ à¦ĩà¦¡
à¦Ĩà¦ĩ à¦ıà¦«
à¦¨à¦Ĺ à¦¦
à¦¨à¦Ĺ à¦°à¦¬
à¦¨à¦Ĺ à¦°à¦¸à¦¹
Ġà¦Ĩà¦ª à¦Ĺ
à¦ķà¦ķ à¦¨
à¦ªà¦¥ à¦ĵ
Ġà¦¹à¦ķ à¦¸à¦¹
à¦¿) âĢĶ
à¦Ĺà¦® à¦Ĺà¦ŀ
à¦ªà¦Ł à¦ĵ
Ġà¦Ĩà¦« à¦ĵà¦¯
Ġà¦ıà¦® à¦Ł
Ġà¦ıà¦® à¦ĵà¦ª
Ġà¦ĸà¦°à¦ļ à¦¸à¦¹
à¦°à¦Ĺà¦¤ à¦Ń
Ġà§§à§® à§«à§¦
Ġà§§à§® à§Ńà§¦
Ġà¦ıà¦ķà¦¦ à¦«
à¦¤à¦² à¦¬à¦¨
à¦Ĩà¦¨ à¦ª
à¦Ĩà¦° à¦ıà¦¸à¦ıà¦«
Ġà¦¶à¦¹ à¦°à¦¸à¦¹
Ġà§§à§ª à§¨à§¨
à¦ķà¦Ĺ à¦¨
Ġà¦Ĩà¦Ł à¦ĸ
à¦Ĺà¦ľ à¦¶
Ġà¦ħà¦¶ à¦°
à¦ıà¦« à¦Ĩà¦°
Ġà¦Ĩà¦¹à¦¤ à¦ĵ
à¦īà¦¸ à¦Ĺ
à¦Ī à¦²
Ġà§¨à§® à§§
Ġà§¨à§® à§¯
Ġà§¨à§Ń à§ª
à¦ıà¦² à¦ıà¦°
à¦ªà¦ľ à¦Ĺà¦¤
à¦ĩà¦ī à¦ıà¦¸à¦ı
à¦īà¦ĩ à¦ļ
à¦ľà¦ª à¦¥à¦ķ
Ġà§©à§« à§Ń
Ġà¦¸à¦¦à¦° à¦ª
à§ĩ) à¥¤âĢĻ
Ġà¦¦à¦¶ à¦¤à¦²
Ġà¦ıà¦« à¦ª
à¦¨à¦¸à¦¹ à¦ķ
Ġà¦¬à¦¦ à¦Ĺ
ra ihan
à¦¤à¦¸ à¦ŀ
âĢį +
on t
Ġà¦Ĺà¦°à¦® à¦ķ
Ġà¦Ĺà¦°à¦® à¦®à¦¸à¦²
à¦£à¦Ĺà¦¤ à¦®
bd mail
Ġà§«à§Ń à§®
Ġà§ªà§¨ à§®
Ġà§ªà§¨ à§¬
Ġà¦ĩà¦Ł à¦ĸ
à¦¬à¦°à¦¤ à¦®
Ġà¦ľà¦¨à¦¸à¦® à¦·
Ġs h
Ġs ho
Ġs arfuddin
à¦ļà¦ľà¦¨ à¦ĩ
Ġà§ªà§® à§«
Ġà§©à§ª à§«
Ġà§ªà§© à§«
Ġà§ªà§© à§®
Ġà§«à§« à§Ń
Ġà§ªà§ª à§¬
à¦ĩà¦¸à¦² à¦¬
à¦īà¦¶à¦¨ à¦¸
à§§à§¯à§Ń à§Ń
Ġà¦°à¦¹à¦®à¦¤ à¦īà¦²
ee d
wa t
Ġà§«à§¬ à§§
Ġà§Ńà§¨ à§Ń
Ġà§«à§® à§¨
Ġà§¦ à§¬
or e
Ġà§¬à§¨ à§©
Ġà§¬à§¬ à§¦
à¦Ĩà¦ĩà¦ıà¦¸ à¦Ĩà¦ĩ
Ġà¦¹à¦ĩà¦ļ à¦ĩà¦¯
Ġà§¬à§© à§®
Ġà§¯à§¬ à§¯
Ġà§®à§Ń à§«
Ġà§Ńà§Ń à§Ń
Ġà§Ńà§© à§¬
Ġà§Ńà§© à§¯
Ġf bapp
is t
Ġà¦¬à¦¦à¦¨ à¦ĸ
Ġa t
ur e
à¦Łà¦ķà¦² à¦¶
à¦¾... âĢĻà¥¤
à¦ıà¦®à¦ıà¦² à¦ı
Ġà§¨à§¯à§ ¨
Ġà§¨à§¯à§ ©
Ġà§¨à§¯à§ Ń
ĠC o
as t
ÂŃ ÂŃ
ta b
Ġà§Į à¦ģ
Ġà§§à§®à§¬ à§®
à¦¼... à¥¤âĢĻ
à¦¤à¦ķà¦² à¦Ĺ
à¦Ĩà¦¹à¦® à¦¦
Ġà¦ıà¦®à¦ıà¦² à¦ıà¦®
à¦ĭ à¦¦
kh s
Ġà¦ıà¦ķà¦Ŀ à¦²à¦ķ
à§§à§¯à§© à§«
Ġma bbasi
iz an
Ġon e
Ġar nab
Ġà¦ĩà¦Ĺà¦² à¦Łà¦¨
to fail
over n
cho wdhury
Ġà¦Ĩà¦ĩà¦ıà¦® à¦ĵà¦°
con om
à¦ıà¦ķà¦¸ à¦Ļ
mzaman babu
idu ttar
% )à¥¤
1 3
6 9
9 0
A R
E S
S A
a z
e al
g ht
g ol
n c
n ing
o ut
r u
r al
r ic
Â ¦
Ġ 4
Ġ 8
Ġ à§ģ-
Ġ am
à§ĩ ïģ®
à¦° à¦¨à¦¯
à¦° à¦ħ
à¦° à¦«à¦²
à¦° à¦ıà¦ĩ
à¦° à¦ĩà¦¨à¦Ńà¦¯
à§į âĢĻ
à¦¨ à¦ł
à¦¨ à¦ıà¦ľ
à¦¤ à¦²à¦¤
à¦ķ à¦ķà¦¬
à¦ķ mahfuz
à¦¼ âĢĿ
à¦¬ à¦Ĺà¦®
à¦² à¦ľà¦¨
à¦² à¦Łà¦Ĺ
à¦® à¦Ĩà¦®
à¦® à¦¸à¦®à¦¯
Ġà¦ķ à¦¸à¦°
Ġà¦ķ à¦Ĺà¦¨
Ġà¦¸ à¦°à¦¯
Ġà¦¸ à¦²à¦®
Ġà¦¸ à¦²à¦Ń
Ġà¦¬ à¦°à¦®
Ġà¦¬ à¦īà¦®
à¦¦ à¦Ĺà¦¤
à¦¦ à¦Ĩà¦®
Ġà¦ª à¦·
à¦¸ à¦Ĺà¦¤à¦Ń
à¦¸ à¦°à¦¸à¦¹
à¦¸ à¦®à¦¤à¦²
à¦Ł à¦Ńà¦°
Ġà¦¨ à¦¬à¦¦à¦®
à§Ģ à§ĩ
à¦¶ à¦²à¦¯
à¦¶ à¦Ńà¦ķ
à¦ª à¦ĵà¦¯
à¦ª à¦ľà¦¨
à¦ª à¦¦à¦°
Ġà¦ı à¦ıà¦®
Ġà¦ı à¦Ĩà¦°
à¦Ľ à¦¦à¦ķ
à¦ĩ à¦Ŀ
à¦ĩ à¦«à¦²
à¦ĩ à¦ªà¦ľ
à¦ĩ à¦ªà¦®
à¦ĩ à¦ĵà¦¦
à¦· à¦°à¦¬
à¦· à¦ľà¦¨à¦ķà¦Ń
à¦Ĺ à¦°à¦¬
à¦Ĺ à¦²à¦¨
à¦Ĺ à¦²à¦¤
à¦Ĺ à§İà¦ķ
à¦Ĺ à¦²à¦®
à¦Ĺ à¦ªà¦£
à¦Ĺ à¦ľà¦¬
à¦Ĺ à¦¶à¦¯
Ġà¦® à¦ĸ
Ġà¦® à¦ĸà¦²
à¦ľ à¦ĺ
à¦ľ à¦Ĺà¦£
à¦§ à¦°à¦ķ
à¦§ à¦¨à¦¯
à¦§ à¦ķà¦¦
à¦§ à¦²à¦¬
à¦§ à¦ľà¦Ĺà¦¤
Ġà¦¯ à¦ķà¦°
à¦¹ à¦¨à¦Ĺà¦ŀ
à¦ĸ à¦ľ
à¦ĸ à¦Ĺà¦¹
à¦ĵ à¦°à¦ª
à¦ĵ à¦Ĩà¦ĩ
à¦ĵ à¦ķà¦¨
à¦¡ à¦¬à¦ķ
à§ĩà¥¤ /
Ġà¦° à¦Ĺà¦¤
Ġà¦° à¦ĩà¦¸
Ġà¦° à¦ĩà¦Ľ
Ġà¦° à¦Ĺà¦°à¦Ĺ
Ġà¦¶ à¦Ń
Ġà¦¶ à¦°à¦¹
Ġà¦ĵ à¦ıà¦¨à¦ľ
Ġà¦ļ à¦ĩà¦²
Ġà¦¹à¦¯ à¦¬à¦°à¦²
Ġà¦Ń à¦ľà¦¨
Ġà¦Ń à¦Ĺà¦¤
Ġà¦Ń à¦²à¦¤
Ġà¦ıà¦ķ à¦°à¦¤
Ġà¦¸à¦® à¦ľ
Ġà¦¸à¦® à¦¹
à§Ĥ à¦¿
Ġà¦² à¦ĩ
Ġà¦Ľ à¦¬à¦°
à¦ľà¦¨ à¦ªà¦¦
à¦ľà¦¨ à¦¸à¦Ń
à¦¾à¥¤ âĢĿâĢĻ
Ġà¦ľà¦¨ à¦ĵ
Ġà¦ľà¦¨ à¦¬à¦ķ
Ġà¦ľà¦¨ à¦®à¦¨à¦¸
Ġà¦ĸ à¦Ľ
Ġà¦ĸ à¦¸à¦²
Ġà¦ĩ à¦ľà¦®
Ġà¦ĩ à¦ĩà¦īà¦ķ
Ġà¦ıà¦ĩ à¦ľ
Ġà¦Ĩà¦° à¦¬à¦ĩ
Ġà¦Ĩà¦° à¦ıà¦¸à¦ı
à¦ªà¦° à¦¸
à¦¼à¥¤ ïģ¬
à¦« à¦²à¦¤
à¦ı à¦¥
à¦ı à¦¸à¦¹
à¦ı à¦ıà¦¨à¦¸
à¦ī à¦ĵ
à¦ī à¦Ĩà¦ĩà¦ıà¦®
Ġà¦Ł à¦Ĺ
Ġà¦Ł à¦¡
Ġà¦Ł à¦ĩà¦Łà¦®
à¦¼à¦¿ )à¥¤
Ġà¦¹à¦² à¦¹à¦²
à¦¬à¦¨ à¦°
à¦¬à¦¨ à¦ļ
à§İ à¦ļ
à¦¼. âĢĻ
à¦®à¦¤ à¦Ł
Ġà¦Ĩà¦¸ à¦¨à¦ķ
Ġà¦Ĩà¦¸ à¦°à¦Ł
Ġà¦ķà¦¥ à¦¨
à¦ķà¦° à¦°
à¦ķà¦° à¦Ł
à¦ĩà¦¨ à¦²
à¦ĩà¦¨ à¦ĩ
à¦ĩà¦¨ à¦«à¦°à¦®
Ġà¦ħà¦° à¦¡
Ġà¦ıà¦° à¦°
à¦°à¦¸ à¦ķ
à¦°à¦¸ à¦°à¦ķ
à¦°à¦¸ à¦®à¦°
à¦ĺ à¦Ĺ
à¦ĺ à¦¬à¦¨
à¦Ĩ à¦®à¦¨
à¦Ĩ à¦¬à¦¹
à¦Ĩ à¦¶à¦¯
à¦°à¦¶ à¦ª
Ġ( <
à¦¨à¦¤ à¦¬
à¦¨à¦¤ à¦ĵ
Ġà¦Ĩà¦ĩà¦¨ à¦¬à¦²
à¦¯à¦® à¦ªà¦¨
Ġà¦Ĩà¦¬ à¦¹à¦¸
à¦¸à¦¨ à¦Ł
Ġà¦¸à¦¹ à¦¬à¦¨
à¦·à¦ķ à¦ª
à¦¤à¦¬ à¦ľ
Ġà¦ħà¦¸ à¦ķ
à¦¬à¦² à¦ļ
à¦Ŀ à¦¦
à¦²à¦ķ wadudtuhin
Ġà¦¤à¦¬ à¦¤
à¦¸à¦² à¦ĸ
à¦¤à¦® à¦¸à¦ľ
à¦ıà¦¨ à¦¡à¦¬
à¦¨à¦¬ à¦®à¦¨
à¦¨à¦¬ à¦¹à¦¤
à¦¸à¦¦ à¦ķà¦ķ
à¦¶à¦ķ à¦¶
Ġà¦ıà¦¸ à¦ķà¦°
Ġà¦ıà¦¸ à¦Ĩà¦°à¦ĵ
Ġà¦ĩà¦ī à¦¬
à¦¸à¦® à¦¬
à¦ļà¦² à¦¸à¦®
à¦¸à¦¹ à¦ª
Ġà§© à§§à§¦
Ġà§© à§§à§¨
Ġà§© à§§à§®
Ġà§© à§¯à§©
à¦ķà¦¬ à¦¦à¦²
Ġà¦īà§İ à¦¸à¦ķ
à¦ħ à¦¹à¦®
à¦¦à¦ķ à¦¶
à¦¸à¦° à¦ĺà¦°
Ġà¦Ĩà¦ķ à¦®à¦²
Ġà§« à§¨à§¦
Ġà§« à§¯à§©
à¦¸à¦ķ à¦®
à¦¸à¦ķ à¦Ń
Ġà¦Ŀ à¦¨
à¦¤à¦ķ à¦ĩ
à¦§à¦¨ à¦°à¦¬
Ġà§ĩ -
à¦ıà¦¸ à¦ĩà¦ī
Ġà§ª à§§à§¨
Ġà§ª à§§à§¯
Ġà§ª à§¯à§®
Ġà§§à§¦ à§¯à§¨à§§
à¦īà¦¨ à¦¸
à¦īà¦¨ à¦¸à¦¤
à¦¬à¦¹ à¦¨à¦Ĺ
à¦¬à¦¹ à¦¨à¦ĩ
à¦¬à¦¹ à¦¨à¦ĵ
Ġà§¬ à§¯à§¯
à¦¯à¦ĩ à¦Ł
Ġà¦Ĩà¦ĩ à¦ıà¦«à¦¸
Ġà¦Ĩà¦ĩ à¦ĩà¦Ĩà¦°
Ġà¦Ĩà¦ĩ à¦ĩà¦ĩ
Ġà¦®à¦° à¦Ĺ
à¦·à¦¦ à¦Ń
Ġà¦ªà¦¤ à¦ªà¦¤
)à¥¤ âĢĺ
à¦ĩà¦Ł à¦¹
à¦ıà¦ĩ à¦¸
à¦ıà¦ĩ à¦ĸ
Ġà§® à§§à§¦
à¦ķà¦ľà¦¨ à¦¸à¦¹
à¦łà¦ķ à¦®
Ġà¦Ĩà¦¸à¦¨ à¦ª
Ġà¦ıà¦¨ à¦ıà¦ª
Ġà¦ıà¦¨ à¦ıà¦¸à¦Ĩà¦ĩ
Ġà¦ıà¦¨ à¦ıà¦¸à¦ı
Ġà¦¦à¦ĸà¦² à¦ĵ
à¦ľà¦¸ à¦ªà¦¤
Ġà¦Ĩà¦ļà¦°à¦£ à¦Ĺ
à¦ªà¦Ł à¦¦
Ġà§©à§¦ à§«
Ġà§©à§¦ à§¬
Ġà¦ıà¦® à¦ıà¦¸
Ġà¦ıà¦® à¦ıà¦®
Ġà¦ıà¦® à¦Ĩà¦°à¦Ĩà¦ĩ
à¦¿âĢĻ ;
à¦§à¦¬ à¦ĵ
à¦ªà¦£ à¦¯à¦¨
Ġà§§à§® à§§
à¦ķà¦Ĺ à¦®à¦¨
à¦ħà¦¨ à¦§
à§ĩâĢĻ ;
à¦ĩà¦¡ à¦ķ
à¦ĩà¦¡ à¦¸
à¦ķà¦® à¦ªà¦ķ
Ġà¦Ĩà¦Ł à¦¬
à¦®à¦°à¦£ à¦ĩ
Ġà§«à§¦ à§¨
Ġà¦ĺà¦¨ à¦ļ
Ġà§ªà§¦ à§«
Ġà§ªà§¦ à§®
à¦Łà¦® à¦£
à¦ıà¦« à¦ıà¦¸à¦ª
à¦ıà¦« à¦ıà¦¸à¦ı
Ġà§¨à§ª à§¦à§¦
à¦¯à¦Ł à¦ķà¦¬
à§įâĢĮ :
à§įâĢĮ à¥¤
à¦Łà¦ª à¦²
Ġà¦Ĭ à¦¨à¦¸à¦¤
à¦¾! !
à¦Łà¦¸ à¦¸à¦¹
Ġà§¨à§® à§Ń
Ġà§¨à§© à§®
Ġà§¨à§¬ à§ª
à¦£à¦ķ à¦£
Ġ. )
Ġà¦¹à¦ĩ à¦¹à¦²
à§ĢâĢĻ âĢĶ
à¦¶à¦° à§İ
à§ĩ) ;
Ġà¦¦à¦¶ à¦ķà¦Ł
in a
à¦¼âĢĻ ;
Ġà¦¬à¦¦ à¦¹à¦ľà¦®
à¦ĩà¦ª à¦Ĺ
Ġà§ªà§« à§®
Ġà§©à§¨ à§®
Ġà§©à§¨ à§Ń
Ġà§©à§¨ à§¬
à¦īà¦ª à¦®à¦¨
Ġà§§à§§à§ §à§
Ġà§«à§Ń à§©
Ġà§ªà§¨ à§©
Ġà§ªà§¨ à§ª
Ġà§©à§© à§§
Ġà§©à§¬ à§ª
à§Ģà¦Ĥ à¥¤
Ġà§¨à§¦à§¨ à§Ń
ro w
à§ģâĢĻ âĢĶ
Ġà§«à§« à§«
Ġà§«à§« à§©
à§§à§® à§¦
à¦ħà¦ª à¦¹
Ġà§©à§® à§®
Ġà§©à§® à§¬
Ġà¦ķà¦®à¦¨ à¦°
Ġà¦°à¦£ à¦¸
à¦°à¦¬à¦£ à¦¶à¦ķ
Ġà§¬à§ª à§¨
Ġà¦Ĩà¦¦à¦® à¦¸à¦¨
Ġà¦ľà¦Ĺà§İ à¦ľ
Ġà¦ľà¦Ĺà§İ à¦¸à¦®
à¦¯à¦ªà¦¦ à¦ķ
Ġà§¦ à§§à§ª
or i
Ġà¦ļà¦²à¦¨ à¦¸à¦ĩ
Ġà§¬à§¨ à§¯
Ġà§«à§¨ à§¨
Ġà¦ĩà¦ĩà¦ī à¦Ń
Ġà§¬à§Ń à§¦
à¦ıà¦¸à¦ıà¦« à¦Ĩà¦ĩà¦¸
Ġà§¬à§© à§¯
Ġà§§à§¯à§¦ à§ª
à¦ķà¦²à¦¨ à¦Ł
à¦Ńà§İà¦¸ à¦Ń
Ġà§®à§¬ à§®
Ġth is
à¦¦à¦®à¦¤ à¦Ĺ
à¦¬à¦°à¦ķ à¦¤
Ġa b
tion s
à§§à§¯à§® à§«
à¦¨à¦¬à¦¦ à¦°à¦¦
Ġà¦Łà¦¹à¦² à¦°à¦¤
Ġà¦ķà¦¦à¦® à¦ĵ
à§§à§¯à§¬ à§©
el op
de x
Ġà¦¨à¦°à¦ķ à¦¯à¦¨
à¦£à¦ļ à¦ŀ
Ġc oun
ec h
à§ĭ?âĢĻ âĢĺ
te m
ĠD is
oc i
oc ial
ĠE n
ĠE conom
ow er
Ġd o
à§§à§¯à§¨ à§¨
Ġà¦ıà¦Ĩà¦ĩ à¦ĩà¦īà¦¡
uz ul
à§§à§§à§ ©
à§§à§§à§ ª
Ġà§§à§®à§Ń à§¬
à§§à§¯à§© à§¦
af ef
ew s
all y
Ġar e
Ġà¦¨à¦« à¦¸à¦ķ
Ġsa jal
Ġi o
sc pc
tud ent
tern ational
jec t
à¦Ļà¦¨à¦ķ à¦¬à¦²
eop le
à¦¨à¦Ĩ à¦¨à¦®
izan ur
gol am
Ġà¦Ĩà¦°à¦ıà¦¸à¦ı à¦¸à¦ķ
Ġcoun try
scpc du
- )
1 6
L N
S O
b e
e p
g ma
g oo
h r
h ic
i e
m olla
n y
p n
s ia
w ork
y mail
y khs
ï Ĥ
Ġ "
Ġ ba
Ġ 1950
Ġ ever
à¦¾ âĢĭà§ĩ
à¦¾ âĢĭà¦¿
à§ĩ âĢĭà§ĩ
à¦° à¦ıà¦ķ
à¦¨ à¦¸à¦¬
à¦¨ à¦°à¦ĵ
à¦¨ à¦¶à¦Ł
à¦¨ à¦ľà¦®
à¦¨ à¦ıà¦Ł
à¦¨ à¦Ĺà¦¤à¦Ń
à¦¨ rashedtr
à¦¯ à¦¤à¦¨
à¦¯ à¦Ńà¦°
à¦¯ à¦¨à¦¤à¦®
à¦¤ à¦ªà¦¦
à¦¤ à¦ĭà¦£
à¦¤ à¦ľà¦¨à¦ĩ
à¦¤ à¦Ŀà¦°
à¦ķ à¦ĩà¦¨
à¦ķ asjadulk
à¦¬ à¦ķà¦²
à¦¬ à¦Ĳà¦¤
à¦² à¦°à¦ĵ
à¦² à¦ľà¦¬
à¦² à¦Ĺà¦¤à¦Ń
à¦² à¦ķà¦²à¦®
à¦® à¦¬à¦²
à¦® à¦¹à¦¬
Ġà¦ķ à¦ĩà¦¨
Ġà¦ķ à¦Ľà¦°
Ġà¦ķ à¦ľà¦¨à¦ĩ
à§ģ !âĢĻ
Ġà¦¬ à¦Ĺà¦²à¦¦
à¦¦ à¦¤à¦°
à¦¦ à¦ªà¦¨
à¦¦ à¦ĺ
à¦¦ à¦¤à¦¬
à¦¦ à¦¤à¦¤
à¦¦ à¦¢
à¦¦ à¦¤à¦ĩ
à§ĭ ]
à¥¤ /
à¥¤ ]
à¦¸ à¦¯à¦¨
à¦Ł à¦¸à¦¬
à¦Ł à¦¸à¦ķ
à¦Ł à¦¬à¦ķ
à¦Ł à¦¤à¦¤
à¦¶ à¦ľà¦¨
à¦¶ à¦¬à¦²
à¦¶ à¦¸à¦ļ
Ġà¦Ĩ à¦¬à¦¸
à¦ª à¦¶à¦ķ
à¦ª à¦łà¦¨
Ġà¦ı à¦®à¦°
Ġà¦ı à¦¹à¦¨
Ġà¦¹ à¦ľà¦¨
Ġà¦¹ à¦°à¦²
Ġà¦¹ à¦°à¦ķà¦²
à¦· à¦°à¦¸
à¦· à¦°à¦Ĺ
Ġà¦¦ à¦ĩà¦¯
Ġà¦¤ à¦¯
Ġà¦¤ à¦ĩ
Ġà¦¤ à¦¸à¦¬
Ġà¦® à¦ªà¦¨
à¦¼à§ĩ âĢĻ.
à¦ľ à¦«
à¦ľ à¦¦à¦£
Ġà¦ķà¦° à¦ĸ
Ġà¦ķà¦° à¦¬à¦°
à¦§ à¦°à¦ĩ
à¦§ à¦°à¦²
à¦§ à¦ķà¦ķ
Ġà¦ħ à¦ľà¦¨
à¦ļ à¦°à¦¦
à¦ļ à¦ĵà¦¡
Ġà¦¯ à¦¤à¦®
à¦¥ à¦ĵà¦¯
à¦¥ à¦°à¦¶
à¦¥ à¦²à¦¯
à¦¹ à¦¤à¦°
à¦¹ à¦²à¦ķ
à¦¹ à¦ľà¦¨à¦ķà¦Ń
à¦¹ à¦ĭà¦£
à¦Ĥ âĢĻ-
à¦£ à¦ľ
à¦£ à¦ªà¦ķ
à¦£ à¦ķà¦²
à¦ĵ à¦°à¦ķ
à¦ĵ à¦ķà¦°
à¦Ń à¦°à¦ª
Ġà¦¶ à¦ľà¦¨
Ġà¦¶ à¦¤à¦°à¦ŀ
Ġà¦Ĺ à¦ľà¦°
Ġà¦Ĺ à¦īà¦Ľ
Ġà¦ĵ à¦°à¦¤
Ġà¦ĵ à¦²à¦¨
Ġà¦ļ à¦ĩ
à¦ģ .
Ġà¦Ń à¦¨à¦Ń
Ġà¦ªà¦° à¦®à¦¬
Ġà¦¸à¦® à¦°à¦ķ
à¦°à¦¤ à¦¯
à¦°à¦¤ à¦ª
à¦°à¦¤ à¦ļà¦¨
à¦¾à¦ģ à¦ģ
à§Ĥ à§į
à§ĥ :
à¦ł à¦ľ
à¦ł à¦ľà¦¨à¦¦
Ġà¦² à¦¬à¦²
Ġà¦² à¦ĩà¦¬
à¦ľà¦¨ à¦®à¦¨
à¦ľà¦¨ à¦¸à¦®
à¦¾à¥¤ ïģ¬
Ġà¦ĸ à¦Ł
Ġà¦ĩ à¦«à¦°
Ġà¦ıà¦ĩ à¦Ĺ
Ġà¦« à¦ķà¦²
Ġà¦Ĩà¦° à¦«
à¦®à¦¨ à¦¦
à¦¼à¥¤ (
à¦« à¦¬
à¦« à¦°à¦ķ
à¦ļà¦¨ à¦Ń
à¦ı à¦ľà¦°
à¦ı à¦ıà¦¸à¦Ĩà¦ĩ
Ġà¦ĺ à¦°à¦ĩ
à¦ī à§İ
à¦ī à¦®à¦°
à¦ī à¦ľà¦Ł
à¦¿à¥¤ âĢĶ
à¦¿à¥¤ âĢĿâĢĻ
à¦¤à¦° à¦ĸà¦£
âĢĻ )à¥¤
Ġà¦Ł à¦Ł
Ġà¦Ł à¦²à¦¸
à¦¼à¦¿ )
à¦¼à¦¿ /
Ġà¦¹à¦² à¦Ńà¦°
à¦¬à¦¨ à¦¶
Ġà¦§à¦° à¦®
à¦ªà¦¨ à¦¯
Ġà¦ķà¦® à¦«
à¦ķà¦° à¦¨
à¦ĩà¦¨ à¦¶
à¦¶à¦¨ à¦¨
à¦¤à¦¨ à¦ļà¦¨
à¦¸à¦¬ à¦Ĺ
à¦°à¦¸ à¦¬à¦¸
à¦Ĩ à¦·
à¦Ĩ à¦®à¦¤
à¦Ĩ à¦°à¦¸à¦¹
à¦Ĩ à¦īà¦ĵà¦¯
Ġà¦Ĩà¦¨ à¦ļ
à¦¨à¦¤ à¦ĩ
à¦¨à¦¤ à¦¸à¦®
Ġà¦¬à¦° à¦ŀ
à¦¿à¦Ĥ )à¥¤
à¦¿à¦Ĥ ).
à¦¸à¦¨ à¦¶
Ġà¦Ĺà¦£ à¦¸à¦®à¦°
à¦¦à¦¨ à¦¨
à¦¦à¦¨ à¦®à¦¤
à¦¦à¦¨ à¦®à¦¯
à¦·à¦ķ nayeem
à¦°à¦¹ à¦®à¦¤
à¦°à¦¹ à¦¸à¦¹
Ġà¦ħà¦¸ à¦¬à¦°
à¦ķà¦² à¦ĩ
à¦¬à¦² à¦ª
Ġà¦¢ à¦ķ
à¦ķà¦Ł à¦¦
à¦ķà¦Ł à¦ľà¦¨à¦¦
Ġà¦¬à¦¨ à¦ĸ
Ġà¦¬à¦¨ à¦°à¦ķ
à¦¬à¦¬ à¦¤
à¦²à¦¤ à¦¤
à¦ķà¦¤ à¦Ĺ
Ġà¦Ĩà¦¶ à¦¹
Ġà¦Ĩà¦¶ à¦Ĩà¦°
à¦Ĺà¦° à¦ĸ
à¦¤à¦® à¦¬
Ġà¦Ĩà¦¦ à¦°à¦£
à¦¼à§Ģ :
à¦ıà¦¨ à¦«
à¦¹à¦² à¦ĵ
à¦¨à¦¬ à¦¯
à¦¨à¦¬ à¦¶à¦°
à¦¶à¦ķ à¦¨à¦¨
Ġà¦ĩà¦ī à¦«
Ġà¦ĩà¦ī à¦ķà¦¸
Ġà¦ĩà¦ī à¦ıà¦ĩ
Ġà¦§à¦°à¦¨ à¦ĩ
Ġà¦ĵà¦ĩ à¦°
à¦ļà¦² à¦Ĺà¦¤
à¦¹à¦° à¦²
à¦¦à¦° à¦²
à¦¦à¦° à¦ª
à§ĩ? âĢĶ
à¦Ĺà¦£ à¦¸
à¦Ĺà¦£ à¦ĵ
à¦®à¦ķ à¦¹
Ġà¦ıà¦² à¦ĩ
à¦ªà¦¦ à¦ª
à¦·à¦¤ à¦Ĺ
Ġà¦®à¦¹ à¦Ľ
Ġà¦¾ .)
à¦ħ à¦ķà¦²
à¦ħ à¦²à¦Ł
à¦ħ à¦¸à¦Ń
à¦ħ à¦ªà¦¸
à¦ħ à¦¸à¦ļ
à¦ħ à¦¬à¦ľ
à¦ħ à¦¸à¦¹à¦¯
à¦¦à¦ķ à¦¯
à¦¦à¦ķ faruk
à§¨ à§Ńà§¦
Ġà¦ªà¦¥ à¦¸à¦¨
à¦¸à¦° à¦¬à¦°
à¦®à¦¸ à¦«
Ġà¦Ĩà¦ľ à¦°
à¦ĩà¦² à¦Ĩà¦īà¦Ł
Ġà§« à§§à§«
Ġà§« à§§à§ª
Ġà¦ľà¦¨à¦Ĺà¦£ à¦¸à¦¹
à¦«à¦² à¦®
à¦«à¦² à¦¦
Ġà¦Ŀ à¦Łà¦ķ
à¦¦à¦² à¦ĩ
Ġà¦ķà¦¤ à¦ľà¦¨à¦ĩ
à¦¤à¦ķ à¦ł
à¦§à¦¨ à¦§
à¦ıà¦¸ à¦Ĩà¦ĩà¦¡
Ġà§ª à§§à§¦
Ġà§ª à§§à§Ń
Ġà§ª à§¯à§¬
Ġà¦īà¦² à¦Ł
Ġà¦īà¦² à¦ª
Ġà¦ıà¦Ĺ à¦®à¦¨
à¦Łà¦ķ à¦ĵ
à¦ĩà¦ķ à¦°à¦£
à¦¨à¦¸ à¦ªà¦Ł
Ġà¦ħà¦Ĺ à¦ª
Ġà§¬ à§§à§¯
Ġà§¬ à§¯à§§
Ġà§Ń à§¯à§¯
Ġà¦Ĩà¦ĩ à¦ļ
Ġà¦Ĩà¦ĩ à¦ĩà¦¬
Ġà¦Ĩà¦ĩ à¦ĩà¦¡
Ġà¦Ĩà¦ĩ à¦¡à¦²
Ġà¦Ĩà¦ĩ à¦ĸà¦®
Ġà¦Ĩà¦ĩ à¦ıà¦¨à¦¡
à¦ķà¦¸ à¦¸à¦¹
Ġà¦¤à¦¤ à¦¦
à¦·à¦¦ à¦ĩ
à¦¶à¦² à¦®
à¦ĩà¦Ł à¦¬
à¦¼à¦¾. ..
à¦°à¦Ĺ à¦²à¦Ń
Ġà§® à§©à§¦
à¦Ĩà¦ĩ à¦Ń
à¦Ĩà¦ĩ à¦Ĩà¦ĩà¦ıà¦¸à¦ıà¦¸
à¦ķà¦ķ à¦¥
à¦ªà¦¥ à¦Ł
à¦ªà¦¥ à¦ļ
à¦°à¦ľ à¦²
à¦°à¦ľ à¦ª
à¦°à¦° à¦ŀ
Ġà¦¬à¦ĩ à¦ł
Ġà¦Ĩà¦ļà¦°à¦£ à¦Ł
à¦ĸà¦ķ à¦ĩ
Ġà¦īà§İà¦¸ à¦ĩ
Ġà¦īà§İà¦¸ à¦Ń
à¦ªà¦Ł à¦²
à¦²à¦¸ à¦Ł
à¦²à¦¸ à¦Ń
Ġà¦Ĩà¦§ à¦ĸ
Ġà¦Ī à¦¶à¦ª
Ġà¦ªà¦£ à¦¬à¦¨
Ġà§©à§¦ à§¯
à¦īà¦Ł à¦«
Ġà§§à§¨ à§§à§«
à¦®à¦ľ à¦²
à¦°à¦®à¦£ à¦¸à¦¹
à¦ıà¦® à¦ıà¦ľ
à¦ªà¦£ à¦ĩ
à¦²à¦Ł à¦¸à¦Ń
Ġà¦ľà¦² à¦Ń
Ġà¦ľà¦² à¦¬à¦¨
à¦ķà¦¨ à¦ľà¦°
à¦¹à¦¨ à¦ĩ
Ġà§§à§® à§§à§®
Ġà§§à§® à§¨à§ª
Ġà§§à§® à§¯à§ª
Ġà§§à§® à§ªà§¨
Ġà¦Īà¦¦ à¦Ł
il y
à¦¨à¦ĵ à¦Ĺ
Ġà¦¤à§İ à¦ªà¦°à¦¬à¦°
à¦¾à¥¤âĢĻ ...
Ġà¦¨à¦ľ à¦°à¦ĵ
à¦®à¦°à¦£ à¦¶à¦ķ
Ġà§§à§© à§¦à§¦
à¦¬à¦ľà¦¨ à¦ĵ
Ġà§«à§¦ à§ª
Ġà§«à§¦ à§¬
Ġà§ªà§¦ à§¨
Ġà§ªà§¦ à§ª
Ġà§ªà§¦ à§¯
à§ĩ! )
à§¨à§¦ à§§
Ġà¦®à¦¹à¦² à¦ĩ
à¦ıà¦« à¦ıà¦Ł
Ġà§¨à§ª à§®
à§§à§¦ à§¬
à¦¦à¦°à¦¬à¦¨ à¦¸
Ġà¦īà§İà¦¸à¦¬ à¦ĩ
à¦ĩà¦Ń à¦¸à¦ķ
Ġà¦Ĩà¦²à¦® à¦ĵ
à¦Łà¦¬ à¦ĩà¦¯
à¦Ī à¦°
Ġà¦«à¦¸à¦² à¦¬
Ġà¦«à¦¸à¦² à¦ĩ
Ġà§¬à§¦ à§¨
à¦īà¦ľ à¦«
Ġà¦¸à¦¨à¦¦ à¦¸à¦¹
à¦ķà¦ļ à¦ĵ
à¦ıà¦² à¦ıà¦«
à¦ĩà¦« à¦ª
Ġà¦ªà¦¤à¦¨ à¦ķ
à¦ĩà¦ī à¦®
à¦ĩà¦ī à¦ıà¦«à¦ıà¦²
Ġà§©à§« à§¨
à¦¼à¥¤âĢĻ âĢĺ
?âĢĻ âĢĶ
Ġà¦Ķ à¦°à¦¸à¦ľ
in t
à¦¼à¦¾à¦Ĥ à¥¤
à¦ĩà¦®à¦¸ à¦ĵ
à¦®à¦£ à¦°
à¦®à¦£ à¦ª
ha k
Ġà¦¬à¦¦ à¦®à¦¤à¦²à¦¬
à¦¯à¦Ĺ à¦Ĺà¦¨
Ġà¦ıà¦ĩà¦ļ à¦ıà¦¸à¦¬
Ġà§©à§¦à§¦ à§¦
à§¯à§ ¯à§
ra tion
à¦¼! )
à¦°à¦¦à¦² à¦ĩ
à¦®à¦ĺ à¦Łà¦ķ
à¦ĸà¦¬à¦° à¦¦
Ġà¦£ à¦ķ
Ġà¦£ à¦¬
Ġà¦ħà¦Ĺà¦£ à¦¨
Ġà§«à§Ń à§«
à¦Ĺà¦ľà¦¨à¦ķ à¦ĩ
er e
er os
th er
Ġà§©à§© à§¨
Ġà§©à§© à§«
Ġà§©à§© à§ª
Ġà§©à§© à§¯
Ġs ee
Ġs tate
Ġl à¦¬
Ġl à¦Ĩà¦ªà¦¨
Ġl ik
à¦ĭà¦£ à¦ĸ
Ġà¦ļà¦® à¦ķà¦Ł
mu n
Ġà§ªà§® à§Ń
Ġà§©à§ª à§¯
Ġ[ (
Ġà§«à§« à§§
Ġà§©à§Ń à§§
Ġà§©à§Ń à§Ń
Ġà¦ľà¦¨à¦¬à¦² à¦ĵ
Ġà§ªà§Ń à§«
Ġà§ªà§ª à§®
Ġà§©à§® à§«
à¦¤à¦ļ à¦°à¦¦
à¦ıà¦®à¦ĩ à¦ıà¦ķ
à¦ĵà¦ķ à¦¨à¦¦
sh ykhs
à¦ķà¦¸à¦¹ à¦ķ
ti m
ed it
Ġà§«à§¬ à§ª
à¦Ĩà¦ª à¦¸à¦¹
Ġà§«à§® à§©
Ġà§«à§® à§Ń
Ġà§«à§® à§¬
Ġà§¦ à§¨
Ġà§¦ à§¯
Ġà¦²à¦¬à¦£ à¦ļ
or d
Ġà¦ļà¦²à¦¨ à¦¶à¦ķ
Ġà¦īà¦ĩà¦² à¦¸à¦¨à¦ķ
à¦ľà¦Ń à¦¬à¦¨
Ġà§¬à§® à§¯
Ġà§«à§¨ à§Ń
ba u
Ġà¦®à¦¹à§İ à¦ª
à¦¤à¦ĸà¦¨ à¦ĩ
à¦¦à¦ĸà¦² à¦¬
Ġà§¯à§« à§®
Ġà§¬à§Ń à§«
Ġà§¬à§Ń à§Ń
Ġà§¯à§¬ à§§
à¦ıà¦°à¦ªà¦° à¦ĵ
Ġà¦®à¦°à¦£ à¦¶
à¦ľà¦¨à¦Ĺà¦£ à¦ķ
Ġà§Ńà§© à§¨
Ġà§Ńà§© à§®
Ġà¦Ĩà¦¯à¦® à¦īà¦¤
dr tazul
Ġà¦¡à¦ķ à¦ĩà¦¯
Ġà§§à§¯à§¦ à§§
Ġà§§à§¯à§¦ à§Ń
is tan
Ġà§Ńà§¬ à§¯
200 8
Ġà§®à§ª à§®
Ġà§®à§¬ à§§
à§§à§¯à§® à§Ń
à¦Ĩà¦ļà¦°à¦£ à¦¬
Ġà¦¬à¦°à¦« à¦ĸà¦£
Ġà¦Ŀà¦ķ à¦®à¦ķ
qu e
à¦¤à¦ķà¦¤ à¦ķ
Ġà§¨à§¯à§ ®
à¦īà¦Łà¦° à¦°
el f
el l
à¦§à¦¯ à¦¡
Ġw orld
à§§à§¯à§« à§®
à¦¿... à¥¤âĢĻ
us e
ta iy
Ġà§İ à¦¸à¦ķ
faruk wasif
Ġà§§à§®à§¬ à§Ń
oc rac
oc eros
ĠE lec
à¦ıà¦«à¦Ĩà¦ĩ à¦ĩà¦ī
Ġà§¯à§¯à§ ¯
ĠM an
à§§à§¯à§¨ à§§
mah med
ig n
ĠIn ternational
à¦Ĩà¦²à¦® à¦Ĺ
Ġsohrab o
san jeebdrong
Ġà¦ıà¦¨à¦ıà¦¸ à¦ĩà¦īà¦°
Ġà¦ķà¦¨à¦ķ à¦ļ
à¦Ĩà¦°à¦ĩ à¦ī
Ġ201 6
Ġà¦ĺà¦°à¦Ń à¦°
Ġà¦Ĩà¦°à¦ıà¦¸ à¦ĵ
over ty
co un
ĠU N
ob al
sti tu
ĠÂ ·
olitic al
ĠVirtu es
Ġà¦ļà¦°à¦Ń à¦¦
Ġà§¬à§§à§Ń à§ª
kar zon
Ġà¦ıà¦¸à¦ĵ à¦ıà¦¸
Ġho w
à¦ĩà¦īà¦ıà¦¸à¦ı à¦Ĩà¦ĩà¦¡
nc bd
ïĤ ®
Ġà¦Ńà¦¨à¦Ń à¦¨
taiy eb
ocrac y
* *
/ ?
/ )à¥¤
1 1
A L
A T
I t
L I
P ro
S I
S haraf
] .
a ge
a ture
b n
c r
d f
e k
e an
f a
f ul
f ess
g y
g ed
h u
h it
l l
l us
l obal
o te
r in
s m
s o
t ing
w ka
w orld
ï Ģ
Ġ à§ĩà¥¤âĢĻ
Ġ à§Ģ-
Ġ âĢĻ-
Ġ âĢĻ.
Ġ khan
Ġ ro
Ġ et
Ġ net
Ġ org
à¦¾ à¦ĥ
à¦° à¦ı
à¦° à¦Ńà¦¬
à¦° à¦ħà¦§
à¦° wadudtuhin
à¦° à¦²à¦¤à¦®
à§į à§į
à¦¿ ]
à¦¨ à¦®à¦ķ
à¦¨ à¦ķà¦¦
à¦¨ à¦ħà¦¨
à¦¯ à¦Ľ
à¦¯ à¦Ĺà¦°
à¦¯ à¦§à¦°
à¦ķ à¦ªà¦°
à¦ķ à¦ªà¦¤
à¦ķ à¦¶à¦ķ
à¦ķ à¦Ĩà¦²
à¦ķ à¦ªà¦£
à¦ķ à¦ĺà¦°à¦Ł
à¦¬ à¦ªà¦ķ
à¦² à¦ļà¦¨
à¦² à¦Ĩà¦®
à¦² à¦Ĩà¦ª
à¦® à¦ľà¦¨
à¦® à¦£à¦ķ
à¦® à¦¬à¦°à¦¦
à¦® à¦¦à¦¨à¦Ĺà¦°
à§ģ âĢĮ
Ġà¦¸ à¦ĵ
Ġà¦¬ à¦ķà¦¤
à¦¦ à¦¬à¦¦
à¦¦ à¦ļà¦°
Ġà¦ª à¦Ń
Ġà¦ª à¦Ĺà¦¬
à¦Ł à¦Ļ
à¦Ł à¦¤à¦¨
à¦Ł à¦°à¦ļ
à¦Ł à¦°à¦ĩ
à¦Ł à¦²à¦®
à¦Ł à¦°à¦¸à¦¹
Ġà¦¨ à¦°à¦ª
Ġà¦¨ à¦¬à¦¦
Ġà¦¨ à¦²à¦¡
Ġà¦¨ à¦ĵà¦ľ
à§Ģ âĢĻ-
à¦¶ à¦Ńà¦°
à¦¶ à¦¤à¦²
à¦¶ à¦ªà¦²
Ġà¦Ĩ à¦īà¦Łà¦°
à¦ª à¦¸à¦¦
à¦ª à¦®à¦¯
à¦ª à¦ıà¦ĩ
à¦ª à¦¹à¦ª
Ġà¦ı à¦ľà¦°
Ġà¦¹ à¦°à¦ª
Ġà¦¹ à¦°à¦Ĺ
à¦Ľ à¦ľ
à¦ĩ à¦ķà¦¬
à¦ĩ à¦²à¦¬
à¦ĩ à¦ıà¦®
à¦ĩ à¦ıà¦«
à¦ĩ à¦«à¦¸
à¦· à¦Ĺà¦£
à¦· à¦§à¦¨
Ġà¦¦ à¦¹à¦Ĺ
Ġà¦¤ à¦¬à¦°
Ġà¦¤ à¦ĸà¦¤
Ġà¦¤ à¦®à¦¦
Ġà¦¤ à¦ĵà¦«
à¦Ĺ à¦Ŀ
à¦Ĺ à¦¯à¦¨
à¦Ĺ à¦®à¦¸
Ġà¦® à¦ª
Ġà¦® à¦ĺ
Ġà¦® à¦ĩà¦°
Ġà¦® à¦²à¦Ĺ
Ġà¦® à¦Ĺà¦¦
Ġà¦® à¦ĩà¦¦
à¦¼à§ĩ ?âĢĻ
à¦ľ à¦®à¦¨
à¦ľ à¦¬à¦ĩ
à¦ľ à¦ħà¦°
à¦ľ à¦®à¦¨à¦¸
à¦ļ à¦ĸ
à¦ļ à¦®à¦¨
à¦ļ à¦¤à¦¨
à¦ļ à¦¯à¦¨
à¦ļ à¦®à¦¬
Ġà¦¯ à¦¤à¦¨
Ġà¦¯ à¦®à¦¦
Ġà¦¯ à¦¶à¦¸
à¦¥ à¦°à¦ļ
à¦¹ à¦¡
à¦¹ à¦®à¦¨
à¦¹ à¦ªà¦¨
à¦¹ à¦¸à¦ķ
à¦Ĥ âĢĮ
à¦£ à¦²à¦¤
à¦ĸ à¦«
à¦ĸ à¦ķà¦¬
à¦ĵ à¦§à¦°
à¦¡ à¦ľà¦¨
à¦¡ à¦ı
à¦¡ à¦ķà¦Ł
à¦¡ à¦¸à¦®
à¦¡ à¦¨à¦ķ
à¦¡ à¦²à¦ª
à¦¡ à¦ıà¦ľ
à¦¡ à¦Łà¦ķà¦®
à¦Ń à¦¸à¦¹
à¦Ń à¦Ńà¦°
à§ĩà¥¤ à¥¤
Ġà¦° à¦¦à¦°
Ġà¦° à¦¸à¦¹
Ġà¦° à¦£à¦¬
Ġà¦° à¦¤à¦¨à¦¬
Ġà¦¶ à¦ĩ
Ġà¦¶ à¦ķà¦Ł
Ġà¦¶ à¦¬à¦¦
Ġà¦ļ à¦®à¦¤
Ġà¦ļ à¦Łà¦ķ
à¦ģ à¦¾.
Ġà¦Ń à§İ
Ġà¦Ń à¦¬à¦²
Ġà¦ªà¦° à¦®à¦¹
Ġà¦ıà¦ķ à¦ļà¦ķ
Ġà¦¸à¦® à¦°à¦ª
Ġà¦¸à¦® à¦°à¦¶à¦ķ
Ġà¦¥ à¦¤
à¦°à¦ķ à¦¤
à¦°à¦ķ à¦ªà¦¤
Ġà¦ħà¦¨ à¦ķ
à§ĩ. âĢĺ
à§ĩ. ...
Ġà¦² à¦¬à¦Ļ
Ġà¦Ľ à¦¹
Ġà¦Ľ à¦ĩà¦¯
à¦°à¦£ à¦Ĺà¦¤
à¦°à¦£ à¦¯à¦¨
à¦°à¦£ à¦¬à¦ķ
à¦°à¦£ à¦¬à¦¶à¦¤
à¦ľà¦¨ à¦ķà¦²
à¦ľà¦¨ à¦¸à¦®à¦°
Ġà¦ľà¦¨ à¦¨à¦¨
Ġà¦ľà¦¨ à¦ĺà¦¨
Ġà¦ĸ à¦ķ
Ġà¦ĸ à¦¤à¦¨
Ġà¦ĸ à¦Łà¦ĸ
Ġà¦ĸ à¦Łà¦®à¦Ł
Ġà¦ĩ à¦¬à¦¸
Ġà¦ĩ à¦¹à¦¤
Ġà¦ĩ à¦Łà¦Ĺ
Ġà¦« à¦ķà¦¨
Ġà¦Ĩà¦° à¦īà¦ĩà¦¨
à¦®à¦¨ à¦¤à¦°
Ġà¦§ à¦ķ
Ġà¦§ à¦¬
à¦ªà¦° à¦ªà¦°
à¦« à¦Łà¦ª
à¦ĸà¦¨ à¦ķ
à¦ĸà¦¨ à¦¦
à¦ļà¦¨ à¦¸à¦®
à¦ı à¦²à¦Ł
à¦ı à¦Ĩà¦°
à¦ı à¦¤à¦Ĺ
Ġà¦ĺ à¦¸
Ġà¦ĺ à¦°à¦¹
à¦ī à¦°à¦®
à¦ī à¦¸à¦®
à¦ī à¦Ĩà¦ĩ
à¦¤à¦° à¦ĸ
à¦¬à¦¸ à¦ļ
à¦¬à¦¸ à¦®à¦¯
à¦¾. /
à¦¬à¦¨ à¦ķà¦¥
Ġà¦Ĩà¦² à¦¬à¦¦
à¦ªà¦¨ à¦¸à¦°à¦¶
Ġà¦Ĩà¦¸ à¦¸
Ġà¦Ĩà¦¸ à¦¹
Ġà¦Ĩà¦¸ à¦«
à¦°à¦® à¦ªà¦°
Ġà¦ķà¦® à¦¬à¦¯
à¦ķà¦° à¦²
à¦ĩà¦¨ à¦·
à¦°à¦¬ à¦¯
à¦°à¦¬ à¦Ľà¦°
Ġà¦Ĩà¦Ĺ à¦ª
Ġà¦Ĩà¦Ĺ à¦°à¦ĵà¦¯
à¦¿. à¥¤
Ġà¦ħà¦° à¦Ĺ
à¦°à¦¸ à¦®à¦¯
à¦ĺ à¦°à¦ĵ
à¦ĺ à¦¨à¦ĩ
à¦Ĩ à¦¤à¦°
à¦Ĩ à¦°à¦¶
à¦Ĩ à¦¹à¦²
à¦Ĩ à¦¨à¦ķ
à¦Ĩ à¦īà¦²
à¦Ĩ à¦¦à¦¤
à¦Ĩ à¦¸à¦¸
à¦Ĩ à¦«à¦Ł
à¦Ĩ à¦²à¦¬à¦¦
Ġà¦Ĩà¦¨ à¦Ł
Ġà¦Ĩà¦¨ à¦ª
à¦²à¦¨ à¦¶
Ġà¦¡ à¦¨à¦¬
Ġà¦¡ à¦Łà¦¬
Ġà¦ļà¦² à¦ķ
Ġà¦Ĩà¦ĩà¦¨ à¦®
Ġà¦īà¦ª à¦ĸà¦£
à¦¯à¦® à¦¸
à¦¯à¦® à¦¸à¦®
Ġà§¨à§¦ à§©à§©
à¦¸à¦¨ à¦¯
à¦¸à¦¨ à¦ķà¦°
à¦¸à¦¨ à¦¸à¦ļ
Ġà¦Ĺà¦£ à¦ĸ
Ġà¦Ĺà¦£ à¦¶à¦¤
Ġà¦Ĺà¦£ à¦ķà¦£
Ġà¦¸à¦¹ à¦¨à¦ķ
à¦·à¦ķ à¦²
à¦¬à¦² à¦°
à¦ķà¦Ł à¦¨
Ġà¦¬à¦¨ à¦¨
Ġà¦¬à¦¨ à¦®
Ġà¦¬à¦¨ à¦¦à¦¸
Ġà¦ħà¦¬à¦¸ à¦Ł
à¦®à¦² à¦ļà¦¨
à¦Ŀ à¦¨
à¦ķà¦¤ à¦ª
à¦²à¦ķ à¦®à¦²
à¦°à¦ĵ à¦¶à¦¨
à¦°à¦ĵ à¦¨à¦ķ
Ġà¦¸à¦¨ à¦¦à¦ķ
à¦¤à¦® à¦¶
Ġà¦ªà¦¦ à¦ķà¦Ł
Ġà¦ªà¦¦ à¦ªà¦¦à¦¬
à¦¥à¦¨ à¦¸
à¦ıà¦¨ à¦Ĺ
à¦ıà¦¨ à¦ıà¦ķ
à¦ıà¦¨ à¦ıà¦¤
à¦¹à¦² à¦Ł
à¦¹à¦² à¦«à¦¨
âĢĶ à§ģ
à¦¨à¦¬ à¦ĩ
à¦¨à¦¬ à¦ĵ
à¦¨à¦¬ à¦¹à¦°
à¦¨à¦¬ à¦§à¦°
Ġà¦ħà¦¤ à¦¶à¦¤
Ġà¦ıà¦¸ à¦Ĩà¦ĩà¦ķ
Ġà¦ıà¦¸ à¦ĩà¦ı
Ġà¦ĩà¦ī à¦ıà¦¸à¦Ł
à¦¹à¦¤ à¦ķ
à§ĩ? :
Ġà§© à§§à§§
Ġà§© à§§à§¯
Ġà§© à§¯à§¬
à¦ªà¦¦ à¦¸à¦®
à¦ªà¦¦ à¦¬à¦ŀ
à¦¨à¦ķ à¦®
Ġà¦¾ :
à¦ķà¦¬ à¦¹
à¦°à¦Ń à¦ķ
à¦ħ à¦¬à¦¨
à¦ħ à¦¬à¦²
à¦ħ à¦¦à¦®
à¦ħ à¦ªà¦Ł
à¦ħ à¦¨à¦Ń
à¦ħ à¦®à¦Ļ
à¦ħ à¦Ĺà¦£à¦¤
à¦¦à¦ķ à¦¹
à¦¦à¦ķ à¦ļà¦ķ
Ġà¦ªà¦¥ à¦ľ
Ġà¦ªà¦¥ à¦ĸ
Ġà¦ķà¦² à¦¡
à¦Łà¦¨ à¦Ł
à¦ĩà¦² à¦¸à¦¹
Ġà§« à§§à§Ń
Ġà§« à§¯à§Ń
à¦°à¦ª à¦Ł
à¦¤à¦ķ à¦ª
à¦¤à¦ķ à¦ĵ
Ġà¦ĩà¦¨ à¦ĩà¦ķ
Ġà§ª à§§à§¬
Ġà§ª à§§à§§
Ġà§ª à§¯à§¨
à§Ģà¥¤ âĢĺ
à¦ĩà¦° à¦«
à¦¨à¦¸ à¦°à¦ķ
Ġà¦¿ âĢĻ
Ġà¦¯à¦¤ à¦ľà¦¨à¦ķ
Ġà¦¶à¦¹à¦° à¦Ń
à¦¬à¦¤ à¦Ĺ
à¦¬à¦ķ à¦¶
Ġà¦¬à¦ķ à¦°à¦ķ
Ġà§¬ à§¯à§¬
Ġà§Ń à§©à§¦
Ġà§Ń à§§à§ª
Ġà¦Ĩà¦ĩ à¦¸à¦¬
Ġà¦Ĩà¦ĩ à¦ľà¦ķ
Ġà¦Ĩà¦ĩ à¦ĵà¦¸
Ġà¦Ĩà¦ĩ à¦ıà¦ĩà¦ı
Ġà¦®à¦° à¦«
Ġà¦¤à¦¤ à¦ľà¦¨
à¦¼à§ģ âĢĵ
à¦ĩà¦Ł à¦ĵà¦¯
Ġà¦¹à¦¨ à¦¹à¦¨
Ġà§® à§§à§®
Ġà§® à§ªà§¦
Ġà§® à§¯à§ª
à¦¯à¦ª à¦¤à¦¨
Ġà¦¨à¦¬ à¦Ĺ
à¦łà¦ķ à¦®à¦¹à¦²
Ġà¦Ĩà¦¸à¦¨ à¦¸à¦¹
Ġà¦ıà¦¨ à¦Ĩà¦ĩ
Ġà¦ĭà¦£ à¦Ŀ
à¦Ĺà¦² à¦Ĺ
à¦°à¦ľ à¦®
à¦Ńà¦° à¦¨à¦ķ
Ġà¦¹à¦ķ à¦ĩ
à¦¿) à¥¤âĢĻ
à¦²à¦¸ à¦¸
Ġà¦Ĩà¦°à¦¬ à¦Ń
à¦ĩà¦¸ à¦¡
Ġà§©à§¦ à§®
Ġà¦ıà¦® à¦Ĩà¦ĩà¦ıà¦¸
Ġà¦ıà¦® à¦ıà¦¡
Ġà¦ĸà¦°à¦ļ à¦ķ
à¦°à¦®à¦£ à¦¬
à¦°à¦®à¦£ à¦ĩ
à§ĩ; (
à¦ıà¦® à¦ĵà¦°
à¦¿? )
à¦ªà¦£ à¦¸
Ġà¦ľà¦² à¦ĵ
Ġà¦ľà¦² à¦¸à¦®
Ġà§§à§® à§¨à§¦
Ġà§§à§® à§ªà§®
à¦¤à¦² à¦ĵ
à¦Ĩà¦° à¦ıà¦®
Ġà¦¶à¦¹ à¦°à¦®à¦¯
il ity
Ġà§§à§ª à§¨à§ª
Ġà¦ħà¦² à¦Ĩà¦īà¦Ł
Ġà§¨à§« à§¯
Ġà¦ļà¦°à¦® à¦ªà¦¤
Ġà¦Ĩà¦ĩà¦ıà¦¸ à¦Ĩà¦ĩà¦ıà¦¸
Ġà¦Ĩà¦ĩà¦ıà¦¸ à¦Ĩà¦ĩà¦ķ
à¦īà¦² à¦¶
à¦°à¦¥ à¦²
à¦¬à¦¹à¦¨ à¦¸à¦¹
Ġà§§à§§ à§¦à§¦
Ġà¦¨à¦ľ à¦°à¦ĩ
à¦¬à¦ľà¦¨ à¦ĩ
à¦ľà¦¬ à¦¦à¦²
Ġà§«à§¦ à§«
Ġà¦ĺà¦¨ à¦ĺ
à¦®à¦¹ à§İ
à¦¬à¦® à¦£
Ġà§ªà§¦ à§Ń
à§ĩ! !
à§¨à§¦ à§¨à§¦
à§¨à§¦ à§©à§«
Ġà§§à§Ń à§®à§ª
à¦¼à¦Ĥ .
Ġà¦Ĺà¦ł à¦¨à¦¤
Ġà§¨à§ª à§Ń
Ġà§¨à§ª à§¯
à¦¤à¦°à¦£ à¦ĩ
Ġà¦ķà¦¨ à¦ķà¦°
à¦ıà¦ķ à¦ķà¦Ń
Ġà¦īà¦¡ à¦¸
Ġà¦¨à¦° à¦ĺ
à¦°à¦Ĩà¦¨ à¦ĵà¦¯
à¦ĩà¦® à¦ļà¦°
à¦¬à¦°à¦£ à¦Ł
à¦¬à¦°à¦£ à¦¸à¦¹
à¦¬à¦ľ à¦Ĺà§İà¦ķ
Ġà¦¸à¦« à¦°à¦ĩ
Ġà¦«à¦¸à¦² à¦°à¦ķ
Ġà§¬à§¦ à§©
Ġà¦ķà¦ķ à¦ª
à¦¨à¦ľ à¦Ĺà¦¤
Ġà§Ńà§¦ à§Ń
Ġà§Ńà§¦ à§ª
à¦¨à¦¶à¦¨ à¦ķ
Ġà¦ľà¦²à¦¬ à¦£
à¦ıà¦² à¦ĵà¦ķ
à¦Ĩà¦ĩà¦¨ à¦ª
à¦Ĺà¦¸ à¦ŀ
à¦¨à¦ª à¦¤à¦¨
à¦²à¦¶ à¦¹à¦°
Ġà§¯à§¦ à§ª
à¦¥à¦¬ à¦Ľ
à¦ªà¦® à¦¹à¦²
Ġà¦¦à¦¶ à¦®à¦¬
Ġà¦ıà¦« à¦¡à¦¬
Ġà¦ıà¦« à¦ıà¦ĵ
à¦«à¦²à¦¨ à¦ĵ
Ġà¦°à¦¹ à¦£à¦¯
à¦¨à¦Ľ à¦¡
Ġà¦¨à¦Ĺ à¦°à¦¸à¦Ń
à¦īà¦ª à¦Ń
à¦īà¦ª à¦²à¦¬
Ġà¦ĩà¦ľ à¦Ń
Ġà¦£ à¦¦
Ġà§ªà§¨ à§¨
Ġà§ªà§¨ à§§
Ġà§ªà§¨ à§Ń
Ġà§©à§¬ à§©
ar e
ar ch
Ġà¦ĩà¦īà¦ıà¦¨ à¦ĵà¦¦
Ġà¦ĩà¦īà¦ıà¦¨ à¦ıà¦«à¦¸
Ġs o
Ġs elim
Ġà§Ńà§« à§®
Ġl ife
Ġà§ªà§® à§©
Ġà§ªà§® à§®
Ġà§¨à§¦à§¨ à§®
à¦ľà¦ĵ à¦¹à¦°à¦²
Ġà§©à§ª à§«à§§
à¦ıà¦ĩà¦ļ à¦Ĩà¦ĩ
à¦Ĩà¦¦ à¦Ń
Ġà§¬à§« à§®
Ġà§«à§ª à§¨
Ġà§«à§ª à§Ń
Ġ[ âĢĺ
à¦²à¦®à¦¨ à¦ķ
Ġà§©à§Ń à§¨
Ġà§©à§Ń à§©
Ġà§©à§Ń à§®
à¦¬à¦Ĺ à¦®à¦¨
Ġà¦¼ à¦¾.
à§§à§¨ à§¦
Ġà§ªà§ª à§¨
Ġà§ªà§ª à§«
Ġà§ªà§ª à§¯
Ġà§©à§® à§§
Ġà§©à§® à§©
Ġà¦īà¦ªà¦ķà¦°à¦£ à¦Ĺà¦¤
Ġà¦°à¦£ à¦ª
à¦°à¦¬à¦£ à¦ª
ti v
ed ia
Ġà¦Ĩà¦īà¦Ł à¦ª
Ġà§¦ à§§à§Ń
ak istan
Ġà§¬à§¬ à§®
à¦§à¦¦ à¦¶à¦ķ
Ġà§«à§¨ à§¯
à¦Ĩà¦ĩà¦ı à¦ıà¦¸
Ġà§®à§¦à§¦ à§¦
Ġà§«à§© à§¨
Ġà§«à§© à§Ń
Ġà§«à§¯ à§¦
Ġà§¬à§Ń à§©
à¦¯à¦¸à¦¹ à¦ķ
hin oceros
Ġà§¬à§© à§§
Ġà§¯à§¬ à§«
du r
Ġà§®à§Ń à§¦
Ġà§®à§Ń à§¯
Ġà¦²à¦¬ à¦£à¦®
à¦Ĳ à¦¶
Ġà§®à§© à§ª
Ġà§§à§¯à§¦ à§¨
Ġà§§à§¯à§¦ à§©
Ġo ur
Ġà¦Łà¦® à¦¸à¦¨
à¦¯à¦ĸà¦¨ à¦ĩ
200 9
Ġà§®à§¬ à§«
Ġà§®à§¬ à§ª
à¦ªà¦ķà¦¥à¦¨ à¦Ł
Ġà¦¨à¦Ł à¦¬à¦°
Ġà§¯à§© à§ª
Ġà¦®à¦Ĺ à¦§
Ġà§Ńà§¯ à§¦
à¦Ŀà¦ķ à¦Ŀà¦ķ
à¦¿?âĢĻ âĢĺ
Ġt arupallab
Ġà¦Ĺà¦®à¦¨ à¦ķ
Ġà¦¥à¦® à¦¸à¦¨
Ġp ar
à§§à§¯à§¬ à§ª
ĠC ent
ri v
ĠA g
ĠA n
ĠA sia
Ġà¦¨à¦¬à¦¬ à¦§
Ġà¦ħà¦®à¦² à¦ķ
Ġà§§à§¨à§© à§¬
Ġw e
à¦®à¦¹à¦° à¦°à¦®
à§§à§¯à§« à§¯
Ġà¦ĸà¦¸ à¦ĸà¦¸
à¦¿... âĢĻ
à¦¿... âĢĻà¥¤
Ġà§§à§®à§® à§¯
Ġc an
tr uc
Ġà§§à§®à§¬ à§¨
à¦Ĩà¦ĩà¦ıà¦® à¦ĵ
à¦Ĩà¦ĩà¦ıà¦® à¦ĩà¦¡
ĠE duc
ow du
Ġà§¯à§¯à§ §
Ġà§¯à§¯à§ ª
Ġà§¯à§¯à§ ¬
Ġà¦ĩà¦« à¦ª
Ġà¦Ĺà¦Ĺ à¦¨à¦¬
ig h
à§§à§§à§ ¨
à§§à§§à§ «
à¦īà¦ıà¦ĩà¦ļ à¦ĵà¦°
Ġà¦ıà¦¨à¦ıà¦¸ à¦Ĩà¦ĩà¦¯
Ġr es
ib ra
ĠâĢĮ âĢĺ
ail y
Ġ201 8
Ġfa iz
Ġha ve
Ġit s
ip edia
sti ce
nah iduttar
Ġà¦«à¦°à¦Ĺ à¦Ł
olitic s
Ġaf ef
pri ori
Ġà¦§à¦¬à¦² à¦§
Ġà¦ıà¦²à¦ıà¦« à¦ĵà¦°
à¦ľà¦²à¦Ń à¦¡
Ġà¦ıà¦ıà¦® à¦Ĩà¦ĩà¦ĩ
Ġà¦ıà¦Ĩà¦° à¦ĵà¦¯
elop ment
pn ar
Ġba s
wka t
ïĢ ł
Ġà¦ĸà¦Łà¦ĸ à¦Ł
ĠEduc ation
! âĢĺ
2 2
2 4
4 4
9 2
? :
A N
D A
D oc
E R
L A
a i
a u
a sh
a bi
c a
c i
e qu
f ra
f ont
k s
l an
l og
m izanur
n o
o uld
p b
p t
p er
p ar
p ublic
p df
s han
s truc
t in
u man
w ard
z ahmed
Ã °
Ã Ħ
Ġ Z
Ġ u
Ġ à§ĭà¦ģ
Ġ à§ģà¦ĥ
Ġ mu
Ġ qu
Ġ Ãĳ
Ġ alimkzaman
à¦¾ âĢĺ
à¦° à¦²à¦ķ
à¦° à¦¨à¦¬
à¦° à§İà¦¸
à¦° à¦ĺà¦°
à¦° à¦ĺà¦¨
à¦° à¦Ŀà¦¡
à¦¿ (
à¦¿ +
à¦¿ âĢĺ
à¦¿ âĢĭà¦¿
à¦¨ à¦¶à¦ķ
à¦¨ à¦ļà¦ķ
à¦¨ à¦Ĩà¦¨
à¦¨ à¦°à¦¸à¦¨
à¦¨ à¦ıà¦¬
à¦¨ à¦Ĩà¦ĵà¦¯
à¦¨ à¦Ĩà¦īà¦Ł
à¦¯ à¦¦à¦°
à¦¤ à¦¸à¦¬
à¦¤ à¦¶à¦ķ
à¦¤ à¦§à¦¨
à¦¤ à¦ľà¦®
à¦¤ à¦ªà¦£
à¦ķ à¦ªà¦¨
à¦ķ à¦¨à¦°
à¦ķ à¦ªà¦¯
à¦ķ à¦°à¦¤à¦®
à¦¼ à¦ģ
à¦¬ à¦Ĺà¦£
à¦¬ à¦¦à¦ķ
à¦¬ à¦Łà¦°
à¦² à¦ĸà¦¨
à¦® à§İ
à¦® à¦Ĺà¦²
à¦® à¦ĵà¦²
à¦® à¦Ŀà¦®
Ġà¦ķ à¦Łà¦¨
à§ģ âĢĭ
Ġà¦¸ à¦ķà¦°
Ġà¦¸ à¦ĩà¦²
Ġà¦¸ à¦ĩà¦ķ
Ġà¦¸ à¦²à¦ª
Ġà¦¬ à¦Ń
Ġà¦¬ à¦¸à¦¦
Ġà¦¬ à¦£à¦¤
à¦¦ à¦Ĺà¦£
à¦¦ à¦¬à¦¹
à¦¦ à¦°à¦¤à¦°
à¦¦ à¦¨à¦¤à¦²
Ġà¦ª à¦¹
Ġà¦ª à¦²à¦¸
à¥¤ [
à¥¤ à¥¤
à¦Ł à¦°à¦¶
à¦Ł à¦°à¦Ń
à¦Ł à¦°à¦ª
à¦Ł à¦²à¦¸
à¦Ł à¦¸à¦Ń
à¦¶ à¦ĵà¦¯
à¦¶ à¦¤à¦¬
à¦¶ à¦ªà¦¥à¦Ĺ
Ġà¦Ĩ à¦īà¦¨
Ġà¦Ĩ à¦Ńà¦¨
Ġà¦Ĩ à¦ĵà¦¸
Ġà¦Ĩ à¦īà¦«
Ġà¦Ĩ à¦īà§İà¦¸
Ġà¦Ĩ à¦īà¦Łà¦ķ
à¦ª à¦ªà¦¨
à¦ª à¦Łà¦¨
à¦ª à¦ĩà¦¯
à¦ª à¦¸à¦®à¦¯
Ġà¦ı à¦ıà¦ĩà¦ļà¦Ĩà¦°à¦¸
Ġà¦¹ à¦ķà¦°
Ġà¦¹ à¦ķà¦¬
à¦Ľ à¦¶
à¦Ľ à¦ĵà¦¯
à¦Ľ à¦¬à¦°
à¦Ľ à¦¦à¦¶
à¦ĩ à¦ĺ
à¦ĩ à¦°à¦¹
à¦ĩ à¦ªà¦ķ
à¦ĩ à¦¸à¦ķ
à¦ĩ à¦Ĩà¦®
à¦ĩ à¦®à¦¬
à¦ĩ à¦¸à¦ķà¦¨
à¦· à¦«à¦²
à¦· à¦°à¦Ł
Ġà¦¦ à¦°à¦¦à¦°
Ġà¦¤ à¦Ĺ
Ġà¦¤ à¦¦à¦ª
Ġà¦¤ à¦ĵà¦¹
Ġà¦¤ à¦¹à¦¶
à¦Ĺ à¦¬à¦°
à¦Ĺ à¦¦à¦°
à¦Ĺ à¦¸à¦°
à¦Ĺ à¦®à¦¦
à¦Ĺ à¦ľà¦ķ
Ġà¦® à¦ķà¦²
Ġà¦® à¦Ŀ
Ġà¦® à¦¦à¦ķ
Ġà¦® à¦Łà¦°
Ġà¦® à¦Ĺà¦¨
Ġà¦® à¦¦à¦¨à¦®
Ġà¦® à¦ĸà¦¦
à¦ľ à¦īà¦²
à¦ľ à¦ĵà¦¨
à¦ľ à¦¹à¦°à¦¤
à¦§ à¦ĸ
Ġà¦ħ à¦®à¦¸
Ġà¦ħ à¦ĩà¦¬
Ġà¦ħ à¦ĺà¦Łà¦¨à¦ķ
Ġà¦¯ à¦¸
Ġà¦¯ à¦®à¦°
à¦¥ à¦Ľ
à¦¥ à¦¶à¦ķ
à¦¥ à¦¸à¦°
à¦¥ à¦°à¦Ł
à¦¥ à¦²à¦®
à¦¥ à¦²à¦Ł
à¦¥ à¦°à¦Ĺà¦¤
à¦¹ à¦°à¦¦
à¦Ĥ !
à¦Ĥ âĢĶ
à¦£ à¦ķà¦°à¦£
à¦£ à¦¸à¦®à¦¯
Ġà¦ľ à¦¦
Ġà¦ľ à¦°à¦¦
Ġà¦ľ à¦¹à¦°
à¦ĵ à¦§
à¦ĵ à¦ľà¦¨
à¦ĵ à¦¡à¦°
à¦ĵ à¦ıà¦®à¦ıà¦¸
à¦¡ à¦°à¦Ĺ
à¦¡ à¦²à¦®
à¦¡ à¦ıà¦«
à¦¼à¦¾ âĢĺ
à¦¼à¦¾ âĢĻ-
à¦Ń à¦°à¦£
à¦Ń à¦ľà¦¨
Ġà¦° à¦ĸ
Ġà¦° à¦ī
Ġà¦¶ à¦ĵ
Ġà¦¶ à¦¬à¦°
Ġà¦¶ à¦ķà¦¤
Ġà¦Ĺ à¦¦à¦°
Ġà¦Ĺ à¦Łà¦Ĺ
Ġà¦ĵ à¦ļ
Ġà¦ĵ à¦²à¦ª
Ġà¦ļ à¦°à¦ª
Ġà¦Ń à¦ŀ
Ġà¦Ń à¦¬à¦¤
Ġà¦Ń à¦°à¦Ľ
Ġà¦Ń à¦²à¦Ĺ
Ġà¦ªà¦° à¦¶à¦ª
Ġà¦ī à¦ĩà¦°
Ġà¦ī à¦ĩà¦¡
Ġà¦ī à¦Ľà¦²
à¦°à¦¤ à¦¶
à¦¾à¦ģ à¥¤âĢĻ
Ġà¦¥ à¦Ł
Ġà¦¥ à¦Łà¦¸
à§ĥ à¦¿
Ġà¦Ĩà¦® à¦¹
Ġà¦Ĩà¦® à¦ĵ
Ġà¦ħà¦¨ à¦¬à¦§
Ġà¦² à¦¦
Ġà¦² à¦ĸ
Ġà¦² à¦¹à¦°
Ġà¦² à¦Łà¦¬
Ġà¦Ľ à¦®
à¦°à¦£ à¦ķà¦°
à¦°à¦£ à¦ķà¦²
à¦ľà¦¨ à¦ľ
à¦ľà¦¨ à¦Ń
à¦ľà¦¨ à¦°à¦¸
à¦ľà¦¨ à¦Ĺà¦°
Ġà¦ľà¦¨ à¦¶à¦¤
Ġà¦ľà¦¨ à¦ĸà¦£
Ġà¦¬à¦² à¦ĵ
Ġà¦¬à¦² à¦¬à¦¤
Ġà¦ĩ à¦ķà¦²
Ġà¦ĩ à¦Łà¦¨
Ġà¦ĩ à¦ĵà¦®
Ġà¦« à¦ķà¦°
Ġà¦Ĩà¦° à¦¦
Ġà¦Ĩà¦° à¦Ń
à¦®à¦¨ à¦¡
Ġà¦§ à¦Ń
à¦¼à¥¤ *
à¦« à¦¤à¦ķ
à¦« à¦ľà¦°
à¦ļà¦¨ à¦¹
à¦ļà¦¨ à¦¸à¦°
à¦ı à¦ıà¦¨à¦ª
à¦ı à¦ķà¦¶
à¦ı à¦Ĩà¦ĩà¦Ĩà¦°
à¦ī à¦ĩà¦Ł
à¦ī à¦łà¦¤
à¦ī à¦¶à¦¨à¦ķ
à¦ī à¦ªà¦Ĺ
à¦¿à¥¤ /
âĢĻ âĢĻ
Ġà¦Ł à¦°à¦®
Ġà¦Ł à¦Ĺà¦°
à¦¬à¦° à¦¨
à¦¬à¦° à¦¸
à¦¬à¦° à¦ĸ
à¦¬à¦° à¦ªà¦¤
Ġà¦¹à¦² à¦¬
Ġà¦®à¦¨ à¦ĸ
à¦¬à¦¨ à¦ľà¦¯
à¦¬à¦¨ à¦®à¦°à¦£
à§İ à¦®à¦¨
à§İ à¦Ĺà¦¤
à§İ à¦¬à¦ŀ
Ġà¦Ĩà¦² à¦®à¦ª
à¦ªà¦¨ à¦¸à¦ļ
à¦®à¦¤ à¦¬
Ġà¦ķà¦¥ à¦ķà¦¤
à¦°à¦® à¦¥à¦¨
Ġà¦¦à¦² à¦®
à¦ĩà¦¨ à¦¸à¦Ĺ
à¦°à¦¬ à¦ĵ
à¦°à¦¬ à§İ
à¦¶à¦¨ à¦¯
à¦¶à¦¨ à¦¦
à¦¸à¦¬ à¦¦
à¦¿. ...
à¦°à¦¸ à¦¦
à¦°à¦¸ à¦Ĺ
à¦°à¦¸ à¦°à¦¦
à¦°à¦¸ à¦¹à¦¤
à¦°à¦¸ à¦¨à¦ĩ
à¦ĺ à¦Ń
à¦·à¦£ à¦¸à¦®
à¦Ĩ à¦ł
à¦Ĩ à¦ĸà¦²
à¦Ĩ à¦°à¦²
à¦Ĩ à¦«à¦°
à¦Ĩ à¦«à¦¤
à¦Ĩ à¦¶à¦ª
à¦Ĩ à¦ĵà¦²
Ġà¦Ĩà¦Ľ à¦²
à¦²à¦¨ à¦ļ
à¦²à¦¨ à¦ľà¦¨
Ġà¦¡ à¦Ļ
Ġà¦¡ à¦Ĺà¦®
Ġà¦¡ à¦¬à¦²à¦®
Ġà¦¬à¦Ľà¦° à¦ª
à¦¯à¦ķ à¦ķ
à¦¨à¦¤ à¦Ĺ
à¦°à¦¯ à¦¤
Ġà¦¬à¦° à¦ľ
Ġà¦¬à¦° à¦¦à¦²à¦ĩ
à¦¿à¦Ĥ âĢĻ.
Ġà¦īà¦ª à¦²
à¦¯à¦® à¦Ń
Ġà¦Ĩà¦¬ à¦¹à¦ķ
à¦·à¦ķ à¦Ł
à¦°à¦¹ à¦¬
Ġà¦ħà¦§ à¦®à¦ķ
à¦¯à¦¬ à¦¦à¦²
à¦¯à¦¬ à¦ĩà¦ķ
à¦ªà¦ķ à¦ĵ
à¦ªà¦ķ à¦¸à¦¹
Ġà¦ħà¦¸ à§İà¦ķ
Ġà¦°à¦ķ à¦¦
à¦¬à¦² à¦¸à¦¹
Ġà¦¬à¦¨ à¦¹
Ġà¦¬à¦¨ à¦«
Ġà¦¸à¦° à¦¨
Ġà¦¸à¦° à¦ª
Ġà¦¸à¦° à¦²à¦®à¦¨
à¦Ŀ à¦¦à¦°
à¦°à¦ĵ à¦Ł
à¦°à¦ĵ à¦ĩ
à¦°à¦ĵ à¦°à¦ĩ
à¦¤à¦® à¦¢
Ġà¦Ĩà¦¦ à¦®à¦¦
Ġà¦ªà¦¦ à¦Ń
Ġà¦«à¦² à¦¶
à¦ıà¦¨ à¦ıà¦¸à¦ıà¦«
à¦ıà¦¨ à¦ıà¦ª
à¦¹à¦² à¦ª
Ġà¦§à¦°à¦¨ à¦ķ
à¦°à¦¹à¦£ à¦Ń
Ġà¦ł à¦ķà¦¬
Ġà¦ĵà¦ĩ à¦Ĺ
à¦¹à¦° à¦ª
à¦¦à¦° à¦°
à¦¸à¦¹ à¦ĩ
Ġà¦ħà¦ª à¦ļà¦°
à¦Ĺà¦£ à¦¶à¦¤
à¦®à¦ķ à¦ķ
Ġà¦ıà¦² à¦Ĩà¦°à¦¬
Ġà§© à§¯à§«
Ġà¦®à¦¹ à¦¨
à§ģà¦ģ à¥¤
Ġà¦¾ ?
Ġà¦īà§İ à¦ĸà¦¨à¦¨
à¦ħ à¦¨à¦¤
à¦ħ à¦®à¦²
à¦ħ à¦§à¦®
à¦ħ à¦ªà¦¶
à¦¦à¦ķ à¦Ĺ
à¦¦à¦ķ à¦ľ
à¦¦à¦ķ à¦¸à¦®
à¦¦à¦ķ sha
à¦¦à¦ķ afef
à¦¦à¦ķ mizanur
à§ĭà¥¤ )
Ġà¦ªà¦¥ à¦¬
à¦°à¦² à¦Ń
à¦°à¦² à¦Łà¦¸à¦Ń
à¦ĩà¦² à¦ľ
Ġà§« à§©à§¦
Ġà§« à§¯à§®
Ġà§« à§¯à§¯
Ġà§« à§¯à§«
Ġà¦ľà¦¨à¦Ĺà¦£ à¦¤
à¦«à¦² à¦¸
à¦«à¦² à¦ª
Ġà¦Ŀ à¦¤
Ġà¦Ŀ à¦ª
Ġà¦Ŀ à¦®à¦Ŀà¦®
à¦¤à¦ķ à¦Ń
Ġà§ĩ âĢĶ
à¦ıà¦¸ à¦ıà¦¨à¦ª
à¦ıà¦¸ à¦ıà¦®
à¦ıà¦¸ à¦ıà¦®à¦ĩ
à¦ıà¦¸ à¦ĩà¦īà¦°
Ġà¦ĩà¦¨ à¦Ĺ
Ġà§ª à§¯à§¯
Ġà¦īà¦² à¦®
à¦Łà¦ķ à¦ª
à¦Łà¦ķ à¦ļ
à¦ĩà¦ķ à¦¯
à¦¶à¦Ĺ à¦łà¦¨
à¦¨à¦¸ à¦Ł
à¦¨à¦¸ à¦Ļ
à¦¨à¦¸ à¦Ĺà¦łà¦¨
Ġà¦ķà¦ĸà¦¨ à¦ĵ
à¦¬à¦¹ à¦¸
Ġà¦¿ à¦ĥ
à¦ľà¦¨à¦ķ à¦ĩ
Ġà§¬ à§§à§¬
Ġà§¬ à§¯à§Ń
Ġà¦¨à¦¦ à¦ĩ
Ġà§Ń à§§à§®
Ġà§Ń à§§à§§
Ġà§Ń à§§à§Ń
Ġà¦Ĩà¦ĩ à¦®
Ġà¦¸à¦Ń à¦¯
à¦¼à§ģ âĢĻ
à¦¸à¦ª à¦ľ
à¦Łà¦Ĺ à¦®
Ġà¦Ĺà¦łà¦¨ à¦¸
Ġà¦Ĺà¦łà¦¨ à¦¶
Ġà¦Ĺà¦łà¦¨ à¦ĵ
Ġà¦Ĺà¦łà¦¨ à¦Ĺà¦¤
à¦¬à¦ĩ à¦¤
Ġà§® à§§à§¨
Ġà¦Ĺà¦° à¦°
à¦łà¦ķ à¦¯
Ġ: -
Ġà¦ªà¦¦à¦ķ à¦ĵ
Ġà¦ıà¦¨ à¦Ĩà¦°à¦ıà¦°
Ġà¦ıà¦¨ à¦ıà¦ĩà¦ļà¦ķ
Ġà¦ľà¦¨à¦¸ à¦Ļ
à¦Ĺà¦² à¦¹
à¦Ĺà¦² à¦ĸ
à¦ķà¦°à¦£ à¦¬
à¦ķà¦°à¦£ à¦ª
à¦Ĩà¦ĩ à¦¦
à¦Ĩà¦ĩ à¦ĩà¦¬
à¦Ĩà¦ĩ à¦Ĩà¦°à¦Ĩà¦ĩ
à¦¯à¦¥ à¦°
à¦ªà¦¥ à¦ĩ
om e
om y
à§ĩ- âĢĺ
Ġà¦¹à¦ķ à¦Ĩà¦®
à¦¿) :
à¦Ĺà¦® à¦¥
à¦Ĺà¦® à¦ĸ
à¦Ĺà¦® à¦ĵ
Ġà¦Ĩà¦¹ à¦¯
Ġà¦Ĩà¦¹ à¦Ń
ma r
Ġà¦· à¦¨
Ġà¦· à¦ķà¦¦
.. ...
Ġà¦§à¦¨ à¦§
à¦ĩà¦¸ à¦ĵà¦¯
Ġà¦ħà¦« à¦ķà¦®
Ġà¦ıà¦® à¦Ĩà¦°à¦Ł
Ġà¦ıà¦® à¦ıà¦¨à¦ı
Ġà¦ĸà¦°à¦ļ à¦¸
à¦¨à¦Ń à¦ķ
à¦¿âĢĻ )
à¦¿âĢĻ ?
à¦ıà¦® à¦ıà¦¡
à¦ªà¦£ à¦ĵ
à¦ªà¦£ à¦¨à¦ķà¦°
Ġà¦ľà¦² à¦ĩ
à¦ķà¦¨ à¦ĵ
à¦ķà¦¨ à¦īà¦¦
Ġà¦¨à¦ľà¦° à¦¬à¦¨
à¦°à¦ľà¦¨ à¦ķà¦Ń
à¦¹à¦¨ à¦ª
Ġà§§à§® à§¨à§©
Ġà§§à§® à§¨à§¯
Ġà§§à§® à§©à§¨
à¦Ĩà¦¨ à¦²
Ġà¦¨à¦Ĺà¦° à¦Ń
Ġà¦Ĩà¦ĩà¦ıà¦¸ à¦ĩ
Ġà¦Ĩà¦ĩà¦ıà¦¸ à¦ıà¦°
à¦īà¦° à¦¡
Ġà¦¤à§İ à¦ª
Ġà¦Ĩà¦Ł à¦ļà¦²
Ġà¦¨à¦ľ à¦°à¦Ł
à¦ľà¦¬ à¦ĵ
Ġà§«à§¦ à§Ń
à¦®à¦ļ à¦Ł
à¦ªà¦¸ à¦ĩ
à¦ªà¦¸ à¦Ĺ
à¦Ĺà¦ľ à¦ĩ
Ġà§¯à§ ¯à§¦
Ġà§§à§Ń à§®à§¯
à¦ıà¦« à¦ľ
à¦ıà¦« à¦ıà¦®à¦¡
Ġà¦Ĺà¦ł à¦¨à¦¬
à¦°à¦®à¦¨ à¦¸
Ġà¦īà§İà¦¸à¦¬ à¦ª
à¦ĩà¦Ń à¦²
à¦ıà¦ķ à¦ªà¦°
Ġà¦Ĩà¦²à¦® à¦¸à¦¹
à¦ıà¦¸à¦¬ à¦ķ
à¦Łà¦² à¦¸à¦®
à¦ıà¦®à¦¨ à¦Ń
à¦¾! )
à¦¬à¦°à¦£ à¦Ĺ
à¦Ī à¦·à§İ
à¦ªà¦² à¦°
... !
Ġà§Ńà§¦ à§§
à¦¨à¦¶à¦¨ à¦¬
Ġà¦¸à¦¨à¦¦ à¦¬
Ġà¦īà¦łà¦² à¦ĩ
à¦ķà¦¸à¦ĩ à¦ĵ
à¦ıà¦² à¦ĩà¦Ł
Ġà¦īà¦ªà¦¨ à¦Ĺà¦°
à¦¨à¦ľà¦Ł à¦¸à¦¹
à¦Ĺà¦ĵ à¦¹
Ġà¦ªà¦¤à¦¨ à¦¶
Ġà§¯à§¦ à§©
?âĢĻ :
Ġà¦Ķ à¦·à¦§à¦¨
Ġà¦¦à¦¶ à¦ľà¦¨à¦ķ
Ġà¦¦à¦¶ à¦°à¦¥
à¦®à¦¡ à¦ĵà¦¯
Ġà¦ıà¦« à¦Ĩà¦°à¦¸
Ġà¦ıà¦« à¦Ĩà¦ĩà¦ıà¦°
à¦«à¦²à¦¨ à¦ĩ
à¦Ĩà¦¬ à¦Ĺ
Ġà¦¶à¦ªà¦¥ à¦ĵ
à¦ĸà¦ľà¦¨à¦ķ à¦ĩ
Ġà§ªà§« à§¬
à¦¤à¦ĵ à¦¬
ra os
Ġà¦¯à¦¶ à¦¬à¦¨
on d
on omy
à¦¤à¦ľ à¦Ĺà¦¤
han j
han ge
Ġà§©à§¬ à§®
Ġà§©à§¬ à§¬
ar i
Ġà¦ĩà¦īà¦ıà¦¨ à¦ĵà¦¡
Ġà¦ķà¦¬à¦° à¦¬
à¦¬à§İ à¦¸à¦°
Ġs t
Ġs harifrari
Ġs up
à¦¼: âĢĺ
Ġà¦ľà¦¨à¦®à¦¨ à¦ķ
Ġà¦ĸà¦¨à¦¨ à¦ªà¦¦
à¦ıà¦ĩà¦ļ à¦ĩ
à¦ħà¦¸ à¦®à¦¤
à¦°à¦¸à¦¬ à¦ª
à¦°à¦¸à¦¬ à¦ķà¦ķ
Ġà§«à§ª à§¯
Ġà§ªà§© à§Ń
Ġà§ªà§© à§ª
Ġà§ªà§© à§¯
Ġà§©à§Ń à§¯
Ġà§ªà§Ń à§Ń
Ġà§ªà§Ń à§¯
à¦ķà¦¬à¦² à¦ĵ
à§§à§® à§Ń
à§§à§® à§«à§Ń
Ġà§ªà§ª à§ª
à¦ħà¦ª à¦°à¦ķ
à¦ħà¦ª à¦¶à¦¨
Ġà¦ħà¦®à¦° à¦¨
à§§à§ª à§¦
Ġà¦ªà¦¥à¦ļ à¦²à¦¤
à¦ıà¦¸à¦ıà¦¸ à¦ı
Ġà§©à§® à§Ń
Ġà§©à§® à§ª
à¦ıà¦®à¦ĩ à¦Ĩà¦ĩ
ee l
ee n
Ġà¦īà¦ĩ à¦ķà¦²
Ġà¦īà¦ĩ à¦Łà¦¨
Ġà¦īà¦ĩ à¦ªà¦¨à¦¸
Ġà¦°à¦£ à¦¯
Ġà§ªà§¬ à§Ń
Ġà§ªà§¬ à§ª
!âĢĻ âĢĺ
Ġà¦¨à¦ķà¦² à¦¬
Ġà§¬à§ª à§®
Ġà¦¸à¦² à¦ħà¦¯
à¦¼à¦¿à¦Ĥ .
Ġà§«à§® à§«
à¦¯à¦ªà¦¦ à¦ĵ
Ġà¦²à¦¬à¦£ à¦¸à¦¹
et s
à¦¯à¦Łà¦ķ à¦ķ
en ti
en eral
or y
or ial
à¦Ĺà¦®à¦¨ à¦ķ
Ġà§¬à§¬ à§«
Ġà§¬à§¬ à§¬
à¦ıà¦®à¦ıà¦« à¦ıà¦¸
Ġà§¬à§® à§¦
Ġà§¬à§® à§«
Ġà§«à§¨ à§§
à§§à§¯ à§¦à§¦
Ġà§«à§© à§®
Ġà§«à§© à§ª
Ġà§¬à§Ń à§¬
Ġà¦¬à¦°à¦ķ à¦¨
à¦ıà¦¸à¦ıà¦« à¦ķ
Ġà§¯à§¬ à§Ń
Ġà§®à§Ń à§¨
à¦Ĺà¦łà¦ķ à¦ĵ
Ġà§¯à§Ń à§§
Ġà§¯à§Ń à§«
Ġà§Ńà§Ń à§¨
Ġà§Ńà§Ń à§«
Ġà§®à§¨ à§©
Ġà§®à§¨ à§®
Ġà§Ńà§® à§®
Ġà§Ńà§© à§§
muni c
Ġo ut
à¦ķà¦²à¦¨ à¦Ĺ
Ġà§¯à§¨ à§®
Ġà§®à§ª à§«
Ġà§§à§§à§¬ à§ª
Ġa g
à§¨à§§ à§¦à§¦
Ġà§¯à§© à§¦
Ġt han
Ġp eople
ĠS tar
ah i
ĠB ank
as molla
ol u
ĠT h
Ġà¦ıà¦ĩà¦¡ à¦¡
ĠA ss
Ġà§§à§®à§« à§®
ĠP ar
ĠP akistan
à§§à§¯à§ª à§¦
re at
Ġw ho
Ġb ut
à§§à§¯à§« à§Ń
Ġà¦ľà¦²à¦ķ à¦·
us a
Ġà§§à§®à§® à§¨
Ġà¦ıà¦ĩà¦ļà¦Ĩà¦ĩ à¦ĩà¦ıà¦¸
ec tion
ta in
Ġà§İ à¦ķ
id ent
ĠD em
ĠD aily
ĠR es
oc ra
à¦Ĩà¦ĩà¦ķ à¦¨
à¦¸à¦«à¦² à¦Ń
ov e
ow n
Ġà¦īà¦ĩà¦¥ à¦¡
Ġà¦®à¦¦à¦¨ à¦ª
Ġà¦¸à¦¬à¦° à¦®à¦¤
si tion
à¦ıà¦¨à¦ıà¦« à¦ķ
à§§à§¯à§¨ à§¦
mah b
Ġà¦¥à¦ķ à¦¥à¦ķ
à¦ıà¦¸à¦ĩ à¦ı
Ġà¦ıà¦®à¦ıà¦² à¦ıà¦°
Ġà¦®à¦ļ à¦®à¦ļ
ĠN o
ab in
ab le
à§§à§¯à§© à§¨
à¦ıà¦¨à¦ıà¦¸ à¦ĩà¦ī
à§ĭ... à¥¤âĢĻ
à¦Ĩà¦°à¦Ĩà¦° à¦ıà¦°
Ġà§¯à§§à§ ¯
at ed
ĠG overn
af zalhossain
à§§à§¯à§§à§ §
à§§à§¯à§§à§ ª
à§§à§¯à§§à§ Ń
Ġdr tazul
ĠO F
pr es
Ġha d
à¦¡à¦īà¦ĩ à¦ļ
Ġà¦ıà¦«à¦ıà¦¸ à¦ıà¦ķ
Ġà¦¤à§İà¦¸ à¦¤
à¦ıà¦¸à¦ıà¦®à¦ıà¦® à¦ĩà¦īà¦¤
Ġe x
ĠÂ §
ug ht
Ġà¦ĩà¦īà¦ıà¦®à¦ıà¦¨ à¦ĵ
........ ........
Ġà¦ıà¦ıà¦¸ à¦Ĩà¦ĩà¦ķ
Ġaf zalhossain
Ġhis tory
Ġà¦īà¦Ń à¦ļà¦°
olog y
wik ipedia
Ġsho uld
Ġà¦®à¦ĸ à¦®à¦²
ĠEconom ic
tudent s
hr karzon
Ġlik e
tim es
à¦ªà¦ıà¦ĩ à¦ľ
Ġà¦Ĩà¦²à¦¬à¦¦ à¦°à¦¦
owdu dur
priori ties
Ġà¦Ĺà¦Łà¦Ĺ à¦Ł
Ġà¦²à¦Łà¦¬ à¦¹à¦°
raos hanj
+ )
- âĢĻ
/ -)
0 2
3 0
4 7
6 0
6 5
7 4
; /
> -
> )à¥¤
? (
? âĢĿâĢĻ
A c
E P
E T
E l
I I
O N
O S
a v
a ss
b angla
b angladesh
b rac
c tion
c hak
c mahmed
d is
e as
e ac
f e
f am
f ac
g et
g ib
i ary
j ew
j ury
l o
l ar
l ut
m er
n ews
p s
p ul
r t
r ans
s elim
t al
u f
u j
u ma
w n
Â ¤
Ã Ĭ
Ġ gmail
Ġ bd
Ġ ni
Ġ mus
Ġ bi
Ġ ri
Ġ us
Ġ ï¿½
Ġ %).
Ġ robaet
Ġ ï¿½ï¿½
Ġ Åĵ
Ġ zaaf
Ġ mzamanbabu
à§ĩ ÂĿ
à¦° à¦īà¦ľ
à¦° à¦Ĩà¦ª
à¦° à¦īà¦«
à¦¿ *
à¦¨ à¦¸à¦¦
à¦¨ à¦ĩà¦¯
à¦¨ à§İà¦¸
à¦¨ à¦°à¦¸à¦¹
à¦¨ à¦ıà¦ĸà¦¨
à¦¨ à¦ıà¦®à¦¡
à¦¯ à§İà¦¸
à¦¤ à¦Ĺà¦°
à¦¤ à¦Ĺà¦£
à¦¤ à¦¤à¦ķ
à¦¤ à¦¢
à¦¤ à¦īà¦ĩ
à¦¤ à¦¹à¦¯
à¦ķ à¦ļà¦²
à¦ķ à¦ķà¦°à¦£
à¦ķ à¦ļà¦°
à¦ķ à¦ĩà¦¤
à¦ķ à¦ªà¦²
à¦ķ cmahmed
à¦² à¦®à¦¤
à¦² à¦ļà¦Ł
à¦² à¦°à¦¸à¦¹
à¦² à¦¸à¦¨à¦ķ
à¦® à¦¦à¦¨
à¦® à¦ļà¦ķ
à¦® à¦Ĩà¦®à¦°
Ġà¦ķ à¦Ńà¦¨
Ġà¦¬ à§İ
Ġà¦¬ à¦¹à¦¤
Ġà¦¬ à¦°à¦ķà¦²
Ġà¦¬ à§İà¦¸
Ġà¦¬ à¦¦à¦¦
Ġà¦¬ à¦ļà¦¨à¦Ł
Ġà¦¬ à¦¨à¦¤à¦²
à¦¦ à¦ı
à¦¦ à¦Ńà¦°
à¦¦ à¦¬à¦§
à¦¦ à¦ľà¦Ĺà¦¤
à¦¦ à¦¤à¦°à¦Ļ
Ġà¦ª à¦ĩ
à§ĭ âĢĭ
à¥¤ :
à¦¸ à¦¬à¦¸
à¦¸ à¦°à¦¬
à¦¸ à¦²à¦ķ
à¦¸ à¦ĸà¦¤
à¦Ł à¦®à¦¤
à¦Ł à¦¸à¦°
à¦Ł à¦ķà¦Ń
à¦Ł à¦®à¦¬
à¦Ł à¦¬à¦¯
à¦Ł à¦Ĩà¦¨
à¦Ł à¦¡à¦ķ
à¦Ł à¦ĺà¦£
Ġà¦¨ à¦ľà¦®
Ġà¦¨ à¦¸à¦Ń
Ġà¦¨ à¦°à¦¬à¦²
Ġà¦¨ à¦²à¦ļ
Ġà¦¨ à¦ĵà¦¦
Ġà¦¨ à¦²à¦ĩ
Ġà¦¨ à¦ķà¦²à¦¨
Ġà¦¨ à¦¬à¦²à¦¬
à§Ģ ]
à¦¶ à¦ĺ
à¦¶ à¦¶à¦ķ
à¦¶ à¦®à¦¬
Ġà¦Ĩ à¦ĩà¦ķà¦®
Ġà¦Ĩ à¦Łà¦¤à¦²
à¦ª à¦¤à¦°
à¦ª à¦¦à¦¨
à¦ª à¦¸à¦ķ
à¦ª à¦ľà¦¯
à¦ª à¦¶à¦¤
à¦ª à¦ªà¦²
Ġà¦ı à¦¨à¦¤
Ġà¦ı à¦ıà¦¨à¦ª
Ġà¦ı à¦¦à¦²
Ġà¦ı à¦ıà¦«à¦ıà¦²
Ġà¦ı à¦¨à¦¨à¦Ł
Ġà¦¹ à¦Ľ
à¦Ľ à¦¨à¦Ł
à¦Ľ à¦®à¦Ľà¦®
à¦ĩ à¦°à¦¬
à¦ĩ à¦®à¦ķ
à¦ĩ à¦ıà¦°
à¦ĩ à¦®à¦¦
à¦ĩ à¦¸à¦¤
à¦ĩ à¦¬à¦ĩ
à¦ĩ à¦ªà¦¥
à¦ĩ à¦ľà¦¤
à¦ĩ à¦¤à¦²
à¦ĩ à¦ªà¦¸
à¦ĩ à¦ıà¦¸à¦ª
à¦ĩ à¦ıà¦¸à¦Ĩà¦°
à¦· à¦Ńà¦°
Ġà¦¦ à¦ªà¦¤
Ġà¦¦ à¦¶à¦¦
Ġà¦¤ à¦ĩà¦¯
à¦Ĺ à¦Ĺà¦¤
à¦Ĺ à¦°à¦ĵ
Ġà¦® à¦°à¦¸
Ġà¦® à¦°à¦¤à¦¬
à¦ľ à¦¬à¦²
à¦ľ à¦°à¦¨
à¦ľ à¦²à¦¸
à¦ľ à¦¬à¦§
à¦ľ à¦īà¦ĩà¦ķ
à¦§ à¦ļà¦¨
à¦§ à¦¨à¦¨
à¦§ à¦¸à¦ķ
Ġà¦ħ à¦¥à¦¨
Ġà¦ħ à¦ľà¦°
Ġà¦ħ à¦Łà¦¬
Ġà¦ħ à¦¬à¦¨à¦¯
à¦ļ à¦ľ
à¦ļ à¦«
à¦ļ à¦ŀ
Ġà¦¯ à§İ
à¦¥ à¦°à¦ĩ
à¦¹ à¦°à¦ĵ
à¦¹ à¦ĩà¦¯
à¦£ à¦¬à¦°
à¦ĸ à¦¬à¦ĩ
à¦ĸ à¦Ńà¦Ļ
Ġà¦ľ à¦Ĺà¦®
à¦ĵ à¦¸à¦¬
à¦ĵ à¦¦à¦²
à¦ĵ à¦ıà¦°
à¦ĵ à¦ªà¦²
à¦ĵ à¦ĩà¦ī
à¦ĵ à¦īà¦«
à¦¡ à¦ĸ
à¦¡ à¦Łà¦ķ
à¦¡ à¦ķà¦®
à¦¡ à¦ªà¦Ĺ
à¦¡ à¦īà¦ĩà¦¨
à¦Ń à¦¶
à¦Ń à¦²à¦Ń
à§ĩà¥¤ à§į
Ġà¦° à¦®à¦²
Ġà¦° à¦ĩà¦¯
Ġà¦° à¦¸à¦ķ
Ġà¦° à¦£à¦¤
Ġà¦° à¦«à¦°
Ġà¦° à¦Ĩà¦¨
Ġà¦° à¦¸à¦Ļ
Ġà¦¶ à¦ľ
Ġà¦¶ à¦°à¦ĵ
Ġà¦Ĺ à¦ķ
Ġà¦Ĺ à¦¸
Ġà¦Ĺ à¦®à¦ĵ
Ġà¦ĵ à¦°à¦ĩ
Ġà¦ĵ à¦®à¦ª
Ġà¦ĵ à¦ıà¦ĩà¦ļà¦¸
Ġà¦ļ à¦¨à¦ķ
Ġà¦ļ à¦°à¦Ľ
Ġà¦ļ à¦®à¦ļ
Ġà¦Ń à¦ĩà¦°
Ġà¦ªà¦° à¦Ń
Ġà¦ªà¦° à¦§à¦°
Ġà¦ī à¦¨à¦¤
Ġà¦ī à¦ĩà¦¯
Ġà¦ī à¦«à¦¶
Ġà¦ıà¦ķ à¦°à¦ª
Ġà¦¸à¦® à¦®à¦ľ
Ġà¦¸à¦® à¦°à¦¸à¦ľ
à¦¾à¦ģ âĢĵ
à¦°à¦ķ à¦ª
à¦°à¦ķ à¦ĸà¦£
à¦°à¦ķ à¦®à¦Ł
à§ĥ à§ĥ
Ġà¦Ĩà¦® à¦ķ
à¦ł à¦ļ
à¦ł à¦ĸ
à¦ł à¦Ńà¦°
à¦Ļ à¦®
Ġà¦Ľ à¦ĩ
à¦ľà¦¨ à¦¶à¦ķ
à¦¾à¦Ĥ -
à¦¾à¥¤ à¥¤
à¦¾à¥¤ âĢĶ
Ġà¦ľà¦¨ à¦ľà¦Ł
Ġà¦¬à¦² à¦®
Ġà¦ĸ à¦Ĺ
Ġà¦ĸ à¦¨à¦ĩ
Ġà¦ĩ à¦ĵà¦¯
Ġà¦ĩ à¦ªà¦°
Ġà¦ĩ à¦°à¦®
Ġà¦ĩ à¦¬à¦²
Ġà¦ĩ à¦ĸà¦¤
Ġà¦ĩ à¦ıà¦¸
Ġà¦ĩ à¦¸à¦¤
Ġà¦ĩ à¦°à¦Ĺ
Ġà¦ĩ à¦Ĩà¦ĩ
Ġà¦ĩ à¦ķà¦¨
Ġà¦ĩ à¦²à¦¦
Ġà¦ĩ à¦ıà¦®à¦ıà¦¸
Ġà¦ĩ à¦Ĩà¦ĩà¦ĩà¦ī
Ġà¦ıà¦ĩ à¦¸
Ġà¦ıà¦ĩ à¦ļà¦¬
Ġà¦« à¦ķà¦«
Ġà¦« à¦¸à¦«à¦°
Ġà¦Ĩà¦° à¦ĵà¦¯
Ġà¦Ĩà¦° à¦¬à¦¬
Ġà¦Ĩà¦° à¦ıà¦¸à¦ª
Ġà¦Ĩà¦° à¦ıà¦¸à¦Ł
Ġà¦Ĩà¦° à¦ĩà¦īà¦ķ
Ġà¦Ĩà¦° à¦ıà¦®à¦ľ
Ġà¦§ à¦ª
à¦« à¦¹
à¦« à¦°à¦¸
à§Ī -
à§Ī .
à§Ī à¥¤
à¦ı à¦¸à¦°
à¦ı à¦®à¦¦
à¦ı à¦®à¦Ĺ
à¦ı à¦¡à¦¬
à¦ı à¦Ĩà¦°à¦Ĩà¦ĩ
à¦ı à¦ıà¦«à¦¡
Ġà¦ĺ à¦®
Ġà¦ĺ à¦·à¦¤
Ġà¦ĺ à¦¨à¦ĩ
Ġà¦ĺ à¦¨à¦¬à¦¦
à¦ī à¦ªà¦¤
à¦ī à¦Ĺà¦²
à¦ī à¦ľà¦®
à¦ī à¦¤à¦²
à¦ī à¦ĩà¦ľ
à¦ī à¦¬à¦¸à¦¹
à¦¤à¦° à¦Ĺà¦¡
à¦¬à¦¸ à¦¤à¦°
âĢĻ ...
âĢĺ ...
ĠâĢĺ [
Ġà¦Ł à¦Ń
à¦¼à¦¿ :
à¦¼à¦¿ âĢĻà¥¤
à¦¼à¦¿ âĢĻ.
à¦¬à¦° à¦ľ
à¦¬à¦° à¦¶à¦¨
à¦¬à¦° à¦Ĺà¦ŀ
à¦ŀ tofail
Ġà¦¸à¦¬ à¦¤
à¦¬à¦¨ à¦¨à¦Ĺà¦°
à§İ à¦¦
Ġà¦Ĩà¦² à¦¥
Ġà¦Ĩà¦² à¦®à¦¬
Ġà¦Ĩà¦² à¦¬à§İ
Ġà¦Ĩà¦² à¦Ĩà¦¹à¦°
à¦®à¦¤ à¦¸à¦®
à¦®à¦¤ à§İà¦ªà¦°
Ġà¦Ĩà¦¸ à¦°à¦ķ
Ġà¦ķà¦¥ à¦ķ
à¦°à¦® à¦¦à¦ķ
Ġà¦ķà¦® à¦²à¦ķ
à¦ķà¦° à¦¸à¦¹
Ġà¦¦à¦² à¦¶
à¦ĩà¦¨ à¦¤
à¦ĩà¦¨ à¦¸à¦ķ
à¦°à¦¬ à¦²à¦ķ
Ġà¦Ĩà¦Ĺ à¦ªà¦°
à¦¶à¦¨ à¦Ĺà¦¤
à¦¶à¦¨ à¦ļà¦°
à¦¿. /
à¦°à¦¸ à¦¸à¦¹
à¦°à¦¸ à¦¨à¦¸
à¦°à¦¸ à¦¨à¦ĵ
à¦ĺ à¦¨à¦ĵ
à¦·à¦£ à¦°à¦¤
à¦·à¦£ à¦¯à¦¨
à¦·à¦£ à¦²à¦¬
à¦Ĩ à¦ĺ
à¦Ĩ à¦ķà¦²
à¦Ĩ à¦¤à¦¤
à¦Ĩ à¦²à¦¸
à¦Ĩ à¦¹à¦ľ
Ġà¦Ĩà¦¨ à¦°
à¦²à¦¨ à¦¦
à¦¼à§ĭ !
à¦¯à¦ķ à¦¬à¦²
à¦¨à¦¤ à¦¸
à¦¥à¦® à¦¯
Ġà¦¬à¦° à¦ĩà¦Ĺ
à¦¿à¦Ĥ ?
Ġà¦Ĩà¦ĩà¦¨ à¦Ń
à¦¯à¦® à¦¶
à¦¯à¦® à¦ª
à¦¯à¦® à¦ľ
Ġà¦Ĺà¦£ à¦ªà¦¦à¦¤
Ġà¦Ĺà¦£ à¦¨à¦ľà¦°à¦¦
Ġà¦¸à¦¹ à¦®à¦°à¦£
à¦¦à¦¨ à¦ªà¦¦
à¦·à¦ķ à¦Ĺ
à¦·à¦ķ à¦ľ
à¦·à¦ķ à¦Ĺà¦£
Ġà¦ħà¦§ à¦®à¦ĵ
à¦¯à¦¬ à¦°à¦£
à¦ªà¦ķ à¦¹
Ġà¦ħà¦¸ à¦®à¦¸
Ġà¦°à¦ķ à¦«
à¦ķà¦Ł à¦¤à¦°
Ġà¦¬à¦¨ à¦ĵ
Ġà¦¬à¦¨ à¦¬à¦¨
Ġà¦ħà¦¬à¦¸ à¦°à¦¦
Ġà¦ħà¦¬à¦¸ à¦°à¦ľà¦¨
à¦®à¦² à¦ª
à¦²à¦¤ à¦¸
à¦²à¦¤ à¦¸à¦®
à¦ķà¦¤ à¦ľà¦¨
à¦¯à¦¨ à¦Ĺà¦°
à¦°à¦ĵ à¦¬
à¦°à¦ĵ à¦ľ
Ġà¦¸à¦¨ à¦¦à¦®
Ġà¦¶à¦¤ à¦¦
Ġà¦¶à¦¤ à¦§
à¦¤à¦® à¦ª
à¦¤à¦® à¦Ń
Ġà¦Ĩà¦¦ à¦¬à¦ķ
à¦¼à§Ģ !
à¦¥à¦¨ à¦¸à¦¹
Ġà¦«à¦² à¦²
Ġà¦«à¦² à¦ļ
Ġà¦«à¦² à¦¬à¦¤
à¦ıà¦¨ à¦ĵ
à¦ıà¦¨ à¦ıà¦ĩà¦ļ
à¦ıà¦¨ à¦Ĩà¦ĩà¦¸
âĢĶ /
à¦¨à¦¬ à¦Ļ
Ġà¦¤à¦ĸà¦¨ à¦ĵ
Ġà¦ħà¦¤ à¦Ĺ
à¦¶à¦ķ à¦®
à¦¶à¦ķ afzalhossain
Ġà¦ıà¦¸ à¦®
Ġà¦ıà¦¸ à¦ıà¦²
Ġà¦ıà¦¸ à¦Ĩà¦ĩà¦ª
Ġà¦ıà¦¸ à¦ıà¦®à¦ª
Ġà¦ıà¦¸ à¦ĵà¦ª
Ġà¦ıà¦¸ à¦ıà¦¨à¦ı
Ġà¦ıà¦¸ à¦ĩà¦īà¦¸
à¦¨à¦¨ à¦¦
à¦¨à¦¨ à¦¶
à¦¨à¦¨ à¦ĵ
à¦ļà¦² à¦Ľ
à¦¯à¦¤ à¦¤
à¦¸à¦¹ à¦®à¦°
à§ĩ? âĢĻà¥¤
à§ĩ? ...
à§ĩ? âĢĿ
Ġà¦ħà¦ª à¦Ń
Ġà¦ħà¦ª à¦¶à¦¬
à¦Ĺà¦£ à¦«
à¦Ĺà¦£ à¦§à¦°
à¦®à¦ķ à¦Ĺ
à¦®à¦ķ à¦°à¦£à¦ĵ
Ġà¦ıà¦² à¦®
Ġà§© à§¯à§®
Ġà§© à§¯à§¯
Ġà§© à§¯à§ª
Ġà¦īà¦ł à¦¬à¦¸
à¦¨à¦ķ à¦¯
Ġà¦ħà¦ªà¦° à¦ľà¦¨à¦ķ
Ġà¦¾ âĢĶ
à¦ħ à¦Ľ
à¦ħ à¦°à¦ķ
à¦ħ à¦Ńà¦¯
à¦ħ à¦¸à¦®à¦°
à§ĭà¥¤ âĢĿ
à§¨ à§«à§¦
à¦°à¦² à¦¹à¦°
Ġà¦ķà¦² à¦®à¦¯
Ġà¦ķà¦² à¦®à¦Ł
Ġà¦ķà¦² à¦¹à¦ª
à¦Łà¦¨ à¦ª
Ġà¦Ĩà¦ľ à¦Ĺà¦°
Ġà¦Ĩà¦ľ à¦®à¦ķ
Ġà¦²à¦ķ à¦¹
à¦²à¦¬ à¦¹
à¦²à¦¬ à¦£
Ġà§« à§§à§¯
Ġà§« à§¯à§ª
à¦°à¦ª à¦Ļ
à¦¸à¦ķ à¦¸à¦¹
à¦¸à¦ķ à¦¨à¦Ł
à¦¦à¦² à¦ª
Ġà¦ķà¦¤ à¦¦
Ġà¦ıà¦ķà¦ĩ à¦¸à¦Ļ
à¦§à¦¨ à¦ķà¦°
Ġà§ĩ à¦ģ
à¦ıà¦¸ à¦ĩà¦ľ
Ġà¦ĩà¦¨ à¦ķà¦°à¦ª
Ġà§ª à§¯à§ª
Ġà§ª à§¯à§«
Ġà¦Ĩà¦¤ à¦¹
à¦ĩà¦ķ à¦ļ
à¦¨à¦Ł à¦°
à¦Ľà¦¨ à¦®
à¦¨à¦® à¦£
à¦¬à¦¹ à¦¦
à¦¬à¦¹ à¦°à¦ķ
à¦¯à¦° à¦ľà¦¨
à¦¯à¦° à¦ŀ
à¦¬à¦¤ à¦ļ
Ġà¦¬à¦ķ à¦¸
Ġà§¬ à§§à§«
Ġà§Ń à§§à§¨
Ġà§Ń à§§à§¯
Ġà§Ń à§¯à§¨
à¦ļà¦ķ à¦¸à¦®
à¥¤âĢĻ (
à§ª à§«à§¦
à§ª à§ªà§¦
Ġà¦Ĩà¦ĩ à¦Ĩà¦°
Ġà¦Ĩà¦ĩ à¦ªà¦¡
Ġà¦Ĩà¦ĩ à¦Ĩà¦°à¦ıà¦°
Ġà¦ķà¦¬ à¦°à¦ķ
Ġà¦ªà¦¶ à¦®à¦ĵ
à¦·à¦¦ à¦Ł
à¦·à¦¦ à¦¬à¦°
à¦®à¦¬ à¦¡
à¦¶à¦² à¦ľ
à¦ľà¦° à¦Ļ
à¦¼à§ģ à¦Ĥ-
à¦ĩà¦Ł à¦°
à¦ıà¦ĩ à¦Ĺ
à¦°à¦Ĺ à¦Ńà¦°
Ġà¦Ĺà¦° à¦ľà¦Ł
Ġà¦¨à¦¬ à¦§
Ġà¦¨à¦¬ à¦ľà¦¨
Ġà¦¨à¦¬ à¦ªà¦°
Ġà¦¨à¦¬ à¦¤à¦®
Ġà¦¸à¦¹à¦ľ à¦¤à¦®
Ġà¦¦à¦¶à¦ķ à¦ķ
à¦łà¦ķ à¦¸à¦®
à¦¼à¦¾à¥¤ *
à¦°à¦ªà¦° à¦®
Ġà¦ıà¦¨ à¦¹
Ġà¦ıà¦¨ à¦ıà¦«à¦¸
Ġà¦ıà¦¨ à¦ıà¦¸à¦ľ
Ġà¦ıà¦¨ à¦ıà¦«à¦ıà¦¸à¦ª
à¦¥à¦ķ à¦°à¦£
Ġà¦ĭà¦£ à¦ĩ
Ġà¦ĭà¦£ à¦Ń
à¦²à¦® à¦¸à¦²
à¦Ĺà¦² à¦¸à¦®
à¦Ĩà¦ĩ à¦Ĺ
à¦Ĩà¦ĩ à¦ıà¦®à¦ıà¦¸
à¦Ĩà¦ĩ à¦ıà¦«à¦¸
à¦¨à¦Ĺ à¦Ļ
à¦¯à¦¥ à¦ĩ
à¦ªà¦¥ à¦¶
à¦°à¦ľ à¦¦
Ġà¦®à¦ľ à¦®
Ġà¦¬à¦ĩ à¦¸à¦¹
Ġà¦Ĺà¦² à¦Ĺ
à¦ªà¦Ł à¦Ń
Ġà¦Ĩà¦¹ à¦°à¦£à¦ķ
à¦²à¦¸ à¦«
à¦²à¦¸ à¦Łà¦¨
ma l
à¦īà¦¦ à¦¯
Ġà¦· à¦°
Ġà¦· à¦¦
Ġà¦· à¦ľ
à¦°à¦ĸ à¦ļ
Ġà¦Ĩà¦°à¦¬ à¦ľ
Ġà¦Ī à¦®
Ġà¦ıà¦® à¦ĩà¦ª
Ġà¦ıà¦® à¦ıà¦ĩà¦ļ
Ġà¦ıà¦® à¦ĵà¦ĩà¦ī
à¦°à¦®à¦£ à¦¨
à¦°à¦®à¦£ à¦ª
à¦°à¦®à¦£ à¦¸à¦Ļ
à¦Ĩà¦² à¦ľ
à¦Ĩà¦² à¦¹
Ġà¦¨à¦¨ à¦ĩ
à¦ľà¦¤ à¦ª
à¦ıà¦® à¦«
à¦ıà¦® à¦Ĩà¦ĩ
à¦ıà¦® à¦ıà¦¸à¦ıà¦¸
à¦ıà¦® à¦Ĩà¦°à¦ª
âĢĮ à§ĩ
Ġà¦ľà¦² à¦Ńà¦°
Ġà¦ľà¦² à¦¤à¦°à¦Ļ
à¦ķà¦¨ à¦¶
à¦¼? âĢĺ
à¦²à¦Ĺ à¦Ł
à¦°à¦ľà¦¨ à¦¤
à¦¹à¦¨ à¦¸à¦¹
Ġà§§à§® à§©à§¦
Ġà§§à§® à§©à§«
Ġà§§à§® à§Ńà§ª
Ġà¦ıà¦ķà¦¦ à¦£
Ġà¦Īà¦¦ à¦¬
il a
il e
Ġà§¨à§« à§ª
Ġà§¨à§« à§¦à§¦
Ġà§¨à§« à§¬à§§
à¦§à¦ķ à¦®
Ġà¦¦à¦®à¦¨ à¦¬
Ġà¦¦à¦®à¦¨ à¦¸à¦¹
à§Ģ? âĢĿ
Ġà¦ıà¦¡ à¦īà¦ĩà¦¨
à¦¶à¦¤ à¦ĵ
à§ĩâĢĻ )
à§ĩâĢĻ ...
à¦¨à¦ĵ à¦°
à¦ĩà¦¡ à¦¸à¦¹
à¦ķà¦® à¦«
à¦īà¦² à¦¸à¦®
à¦īà¦² à¦§à¦°
Ġà¦Ĩà¦Ł à¦ļ
Ġà¦Ĩà¦Ł à¦·à¦Ł
Ġà¦Ĩà¦Ł à¦ľà¦¨à¦ĩ
à¦¼- âĢĺ
Ġà§«à§¦ à§§
à¦²à¦Ń à¦¬à¦¨
Ġà¦ĺà¦¨ à¦ĺà¦¨
à¦¦à¦¶ à¦¹à¦°
à¦ªà¦¸ à¦ļ
Ġà§ªà§¦ à§§
à¦¯à§İ à¦¦
à§¨à§¦ à§¨à§«
à¦¥à¦² à¦ĵ
Ġà¦ĩà¦² à¦²
Ġà¦®à¦¹à¦² à¦¸à¦¹
Ġà§§à§Ń à§¦à§¦
Ġà§§à§Ń à§Ńà§¨
Ġà§§à§Ń à§¯à§§
Ġà§§à§Ń à§®à§Ń
Ġà§§à§Ń à§®à§«
Ġà§§à§Ń à§®à§¨
à¦¼à¦Ĥ -
à¦¡à¦¨ à¦¸à¦¹
à§§à§¦ à§«
à§§à§¦ à§Ń
à¦¨à¦¶ à¦°
à¦¦à¦°à¦¬à¦¨ à¦ĩ
à¦°à¦¸à¦¨ à¦¸à¦¹
à¦ľà¦² à¦°
à¦ıà¦ķ à¦¯
à¦ıà¦ķ à¦ľ
à¦ıà¦ķ à¦§à¦°à¦¨
Ġà¦¨à¦° à¦¡
à¦¹à¦ķ à¦ª
à¦¹à¦ķ à¦ĵ
Ġà§¨à§¨ à§©
à¦²à¦ª à¦ŀ
à¦ĺà¦Ł à¦ķà¦¦
an jeebdrong
à¦ĩà¦® à¦ĵ
à¦ıà¦®à¦¨ à¦ĵ
à¦Łà¦¸ à¦Ĺ
à¦Łà¦¸ à¦Ĩà¦ª
à¦īà¦¸ à¦¸à¦¹
Ġà¦¸à¦« à¦¦
Ġà¦¸à¦« à¦°à¦Ĺ
à¦ķà¦¡ à¦ĩà¦¨
à¦īà¦ľ à¦Ĺ
Ġà§¨à§Ń à§¯
à¦ĸà¦° à¦ŀ
à¦¨à¦¶à¦¨ à¦¸
à¦¨à¦¶à¦¨ à¦Ĺ
Ġà¦ľà¦²à¦¬ à§İ
Ġà¦¸à¦¨à¦¦ à¦ĩ
Ġà¦Ĩà¦ĸ à¦ĸ
à¦ıà¦² à¦ıà¦¨
à¦ıà¦² à¦ıà¦¸
Ġà§¨à§¬ à§¦à§¦
à¦¶à¦ª à¦¥à¦ķ
Ġà§®à§¦ à§«
Ġà§®à§¦ à§®
Ġà§®à§¦ à§¬
Ġà¦īà¦ªà¦° à¦¸
à¦¨à¦ľà¦Ł à¦ª
à¦ķà¦¶à¦¨ à¦ĩ
à¦Ĩà¦ĩà¦¨ à¦¸
à§ĢâĢĻ ;
à§ĢâĢĻ ?
à¦ĩà¦ī à¦ıà¦¸à¦¡
à¦Ĺà¦¸ à¦ľ
à¦®à¦® à¦£
à¦īà¦ĩ à¦¦
à¦īà¦ĩ à¦ĺ
à¦¿: âĢĺ
à¦°à¦« à¦Ł
Ġà§©à§« à§¯
à¦¾) à¥¤âĢĻ
à¦Łà¦¬à¦² à¦ĩ
Ġà¦¶à¦¤à¦ķ à¦ľ
à¦Ĺà¦ł à¦¨à¦¬
in al
in is
Ġà¦ħà¦ªà¦¹à¦°à¦£ à¦ĵ
Ġà¦ħà¦ªà¦¹à¦°à¦£ à¦¸à¦¹
Ġà¦¸à§İ à¦¬
Ġà¦¸à§İ à¦ª
Ġà¦¸à§İ à¦ªà¦¥
à¦¨à¦®à¦¤ à¦¸à¦¹
à¦¼âĢĻ !
ha san
Ġà¦¬à¦¦ à¦ĸ
Ġà¦¶à¦ªà¦¥ à¦ª
Ġà¦ıà¦ĩà¦ļ à¦ıà¦¸
à¦²à¦« à¦Ĺ
à¦¿! )
à¦¸à¦« à¦¡
Ġà¦°à¦¸ à¦Ĺà¦²
âĢĿ ...
ra j
ra gib
à¦¼! !
à¦°à¦¦à¦² à¦ĵ
Ġà¦§à¦¸ à¦ĵ
à¦¯à¦ľà¦¨à¦ķ à¦ĵ
à¦Ĩà¦¸ à¦ľ
Ġà§©à§¨ à§§
Ġà¦¨à¦Ĺ à¦°à¦®
Ġà¦¨à¦Ĺ à¦°à¦¦
Ġà¦¨à¦Ĺ à¦¦à¦ª
Ġà¦ħà¦¬à¦¨ à¦®
Ġà¦¹à¦¨à¦¨ à¦ķ
on al
Ġà¦®à¦¦ à¦®à¦¤
à¦¡à¦¸ à¦ĵà¦¯
à¦®à¦ĵ à¦ķ
Ġà¦£ à¦ĵ
Ġà¦£ à¦¹à¦¤
Ġà§«à§Ń à§ª
Ġà§ªà§¨ à§®à§¯
er ro
Ġà¦ĩà¦īà¦ıà¦¨ à¦¸
Ġà¦ĩà¦īà¦ıà¦¨ à¦¡à¦¬
Ġà¦ļà¦®à¦ķ à¦ĩ
à¦¯à¦Łà¦¨ à¦¸à¦¹
Ġs zaman
Ġs ocial
Ġs anjeebdrong
à¦®à¦ĺà¦Ł à¦¸à¦¹
Ġà§Ńà§« à§©
Ġl à¦ħà¦Ń
à§§à§« à§©
à§§à§« à§Ń
à¦¼à¦¾âĢĻ âĢĶ
à§Ģà¦Ĥ .
Ġà§ªà§® à§ª
Ġà§ªà§® à§¬
Ġà§ªà§® à§¯
Ġà§©à§ª à§§
Ġà§©à§ª à§ª
à¦ıà¦ĩà¦ļ à¦ı
à¦ıà¦ĩà¦ļ à¦ıà¦²
à¦ıà¦ĩà¦ļ à¦Ĩà¦ĩà¦ĩ
Ġà¦¸à¦ĩ à¦ĵ
Ġà§¬à§« à§«
à§ĩ?âĢĻ âĢĶ
ro p
Ġà§ªà§© à§¨
Ġà§ªà§© à§©
à§ĭâĢĻ ;
Ġà§«à§« à§¬
Ġà¦¬à¦¦à¦° à¦ª
Ġà§ªà§Ń à§®
Ġà§ªà§Ń à§¬
à§§à§¨ à§¯
à§§à§¬ à§¦
à§§à§¬ à§¯
à§§à§® à§¬à§¦
à¦Ĩà¦ľ à¦¹
Ġà¦Ĩà¦Ĺà¦®à¦¨ à¦¬
à§ĭà¥¤âĢĻ âĢĺ
Ġà¦®à¦¦à¦¦ à¦ĵ
Ġà¦°à¦¹à¦®à¦¤ à¦¸
Ġà¦īà¦ªà¦ķà¦°à¦£ à¦ĵ
Ġà¦°à¦ĵ à¦¶à¦¨à¦ķ
Ġà¦īà¦ĩ à¦¶
Ġà¦īà¦ĩ à¦ļ
Ġà¦°à¦£ à¦§
à¦¨à¦Łà¦¨ à¦ĩ
à¦¨à¦Łà¦¨ à¦ĵ
Ġà¦ĭ à¦Ĺ
à§ĢâĢĶ âĢĺ
Ġà¦Ĩà¦ķà¦¬à¦° à¦īà¦¦
Ġà§¬à§ª à§«
Ġà¦°à¦ļ à¦£
ni c
Ġà¦ħà¦ĺà¦Łà¦¨ à¦Ł
Ġà§«à§¬ à§¬
à§İà¦¸à¦¬ à¦ķ
Ġà§®à§« à§©
Ġà¦ľà¦Ĺà§İ à¦¬
Ġà§¦ à§§à§«
Ġà¦²à¦¬à¦£ à¦ª
ak ash
ak chak
et y
or t
Ġà§¬à§¨ à§§
Ġà§¬à§¨ à§«
à¦Ĺà¦®à¦¨ à¦¬
Ġà¦ģ à¦¾
Ġà§¬à§¬ à§©
Ġà§¬à§¬ à§ª
Ġà§¬à§¬ à§¯
Ġà§¬à§¦à§¦ à§¦
Ġà§¬à§® à§§
Ġà§¬à§® à§ª
Ġà§«à§¨ à§¬
am ent
Ġà¦ķà¦ĩ à¦°à¦¬
à¦Ĩà¦ĩà¦ıà¦¸ à¦Ĩà¦ĩà¦ıà¦²
Ġà¦ħà¦¨à¦¶à¦¨ à¦ĵ
Ġà§¯à§« à§«
Ġà§¯à§« à§Ń
Ġà§¯à§« à§¬
Ġà§«à§© à§§
Ġà§«à§© à§«
Ġà§«à§© à§©
hin a
Ġà§¬à§© à§Ń
Ġà§¯à§¬ à§¬
Ġà¦¸à¦¯ à¦¤à¦¨
à¦¯à¦¬à¦ĩ à¦ĵ
Ġà§®à§Ń à§©
à¦Ĺà¦łà¦ķ à¦ķ
Ġà¦®à¦°à¦£ à¦¨
Ġà¦®à¦°à¦£ à¦¦à¦¶
à¦ľà¦¨à¦Ĺà¦£ à¦ĩ
Ġà§¯à§Ń à§¨
Ġà§¯à§Ń à§®
Ġà¦Ĩà¦¯à¦® à¦¦
Ġà¦®à¦ĩà¦¨ à¦īà¦¦
Ġà§Ńà§ª à§¦
Ġà§Ńà§ª à§Ń
Ġà§Ńà§ª à§¬
Ġà§®à§© à§§
Ġà§®à§© à§«
Ġà§®à§© à§¯
Ġf o
Ġf rom
Ġo ver
is ion
à§ĩà¦Ĥ à¥¤
à¦Ĺà¦¸à¦¹ à¦ķ
Ġà§Ńà§¬ à§©
Ġà§Ńà§¬ à§®
Ġà§¯à§¨ à§«
Ġà§¯à§¨ à§©
Ġà§¯à§¨ à§ª
shi p
à§ĭ) à¥¤âĢĻ
Ġà§®à§® à§¨
Ġà§®à§® à§ª
à¦°à¦¤à¦ķà¦° à¦Ń
Ġà§¯à§® à§©
Ġà§¯à§® à§Ń
Ġa il
Ġa pnar
à¦Łà¦ķà¦² à¦¸à¦¹
à¦ķà¦¬à¦° à¦¸
à¦ĩà¦īà¦ıà¦¨ à¦ıà¦«à¦¸
fo uzul
Ġà§¯à§ª à§¦
Ġà§¯à§ª à§Ń
Ġan y
à§¨à§© à§¬
à§¨à§® à§®
Ġà¦ķà¦¦à¦® à¦Ĺ
à§ĩ!âĢĻ âĢĺ
à¦¤à¦¸à¦¹ à¦ķ
à¦ħà¦ľ à¦Ĺà¦°
Ġà¦īà¦ªà¦¦à¦² à¦Ĺ
Ġp ublic
Ġà§§à§®à§¦ à§§
ĠS ec
ĠS ta
ĠS und
ĠS oci
ĠS ep
it e
ah man
ĠB as
el ahi
ol y
ol ic
ĠT ag
Ġà¦¨à¦°à¦ķ à¦¬
ĠA pr
Ġà§§à§®à§« à§ª
Ġà§§à§®à§« à§¬
Ġà¦¹à¦°à¦« à¦Ĺ
ĠP olitical
à§§à§¯à§ª à§ª
à§§à§¯à§ª à§¬
Ġw hat
Ġw hen
Ġw ell
Ġb et
à§§à§¯à§« à§§
à¦¸à¦ķà¦² à¦ĩ
ĠI EE
Ġà§§à§®à§® à§©
ec tive
Ġn ah
Ġn ation
ĠR ight
tr ic
ĠE x
ĠE th
à¦¼... âĢĻ
à¦¼... âĢĻà¥¤
li sh
Ġm y
Ġà§§à§Ńà§¦ à§§
à¦Ĩà¦ĩà¦Ĩà¦° à¦ı
Ġà§¯à§¯à§ ®
ree d
Ġg et
op e
à¦¿âĢĿ à¥¤
à§§à§¯à§¨ à§®
à§§à§¯à§¨ à§¯
ter s
ĠF a
ĠH E
ĠIn dex
Ġà§§à§©à§© à§Ń
ĠW orld
à¦ıà¦ĩà¦ļà¦Ĩà¦° à¦¡à¦¬
Ġà¦¸à¦¹à¦ļà¦° à¦Ĺà¦£
Ġma ssum
Ġà§¯à§§à§ «
Ġr hinoceros
à¦Ńà¦Ĺ à¦¬à¦¦
ain st
em ber
Ġ201 3
Ġ201 5
à§§à§¯à§§à§ ¬
Ġà¦Łà¦¸ à¦Łà¦¸
Ġà¦Ĩà¦°à¦ıà¦¸ à¦ĵà¦°
Ġha s
à¦ıà¦¨à¦ĩà¦ī à¦¯
eb ook
Ġk now
Ġv ote
Ġen d
à§§à§¯à§¦ à§®
Ġà¦Ĩà¦ĩà¦ıà¦® à¦ĵà¦¤
di an
Ġà¦ıà¦«à¦ıà¦¸ à¦ıà¦°
Ġà¦łà¦¨ à¦łà¦¨
for ma
ĠAc tion
ĠRe port
ne y
ms o
tud y
Ġà¦Ĩà¦īà¦¸ à¦¸
à§ĥâĢĮ à§ĩ
wik i
rus had
ton abi
wat ch
tab ragib
eal th
ric ul
à¦ķmahfuz sarker
Ġà¦¬à¦°à¦® à¦ļ
à¦Ĺà¦²à¦® à¦¹à¦²
Ġà¦Ĩà¦ĩà¦ĩà¦ĩ à¦ĩà¦°
à¦¶à¦°à§İ à¦ļà¦¨
Ġà§§à§§à§§à§ §
ech n
tem ber
ĠEn g
Ġever y
edit orial
stitu tion
à¦¡à¦ı à¦ıà¦¸à¦ľ
à¦Ĩà¦²à¦¬à¦¦ à¦°à¦¦
Ġà¦¡à¦Ĺà¦® à¦Ĺ
à¦¦à¦ķsha wkat
pres ent
fam ily
pul akchak
Ġri ght
Ġà¦¬à§İ à¦¸à¦°à¦ķ
Ġà¦¨à¦ķà¦²à¦¨ à¦¬
Ġà¦°à¦«à¦° à¦«
Ġà¦«à¦ķà¦« à¦ķ
Ġà¦ıà¦¸à¦ıà¦² à¦ıà¦«à¦ª
erro r
à¦ıà¦ĩà¦ļà¦Ĩà¦ĩà¦ĩ à¦ıà¦¸
ĠSund ar
ĠSep tember
ĠTag ore
ĠIEE E
pulakchak ma
! ).
( âĢĺ
( !)
. âĢĶ
3 6
4 0
6 7
7 5
? âĢĻà¥¤
? âĢĻ.
? ...
A I
A O
A n
A CE
B D
C on
D ec
E M
I A
I P
L a
N A
R Y
R es
S ol
T M
U N
U R
a j
a x
a bd
a th
a ul
a ti
b o
b an
b ul
b ri
b ook
c u
c es
c ol
c he
c pb
d g
d k
d ra
d ay
d es
d oc
e a
e u
e th
e ign
g ra
g ing
h im
h eed
i o
i ture
k e
k ing
l ay
l oc
l ow
m ost
n a
n u
n ess
o f
p i
r up
r and
r anc
r jew
u v
v ic
v ir
v elopment
w t
y ur
y ou
y ond
z ed
Â §
Â ı
Ġ Q
Ġ à§ģ.
Ġ à§ĩ?âĢĻ
Ġ wa
Ġ edu
Ġ din
Ġ ev
Ġ %)
Ġ ilira
Ġ ÂŃÂŃ
à¦¾ ]à¥¤
à¦¾ âĢ¢
à¦° à¦°à¦¤
à¦° à¦ıà¦°
à¦° à¦Ĩà¦²
à¦° à¦Ĩà¦®à¦°
à¦° à¦ıà¦¬
à¦° à¦īà¦¤
à¦° à¦Ĩà¦Ĺ
à¦° à¦Ĩà¦¶
à¦° ÃĬ
à§į à§ĩ
à¦¿ âĸł
à¦¨ à¦ı
à¦¨ à¦ĩà¦²
à¦¨ à¦Ĩà¦²
à¦¨ à¦¡à¦¨
à¦¨ à¦ļà¦¡
à¦¨ à¦¸à¦¨à¦ķ
à¦¨ à¦¡à¦°
à¦¯ à¦Ńà¦Ļ
à¦¯ Ã¿
à¦¯ à¦ĺà¦¡
à¦¤ à¦ľà¦¯
à¦¤ à¦ĺà¦°
à¦¤ à¦¹à¦¬
à¦¤ à¦¸à¦®à¦¸
à¦¤ à§İà¦¸à¦®
à¦ķ à¦ķà¦²
à¦ķ à¦ľà¦¦
à¦ķ à¦®à¦¨à¦¸
à¦ķ ar
à¦ķ à¦Ĩà¦®à¦²
à¦¼ +
à¦¼ à¦ģà¦¾
à¦¼ âĢĭà¦¾
à¦¬ à¦«
à¦¬ à¦¤à¦°
à¦¬ à¦ıà¦¨à¦ª
à¦¬ à¦īà¦ķ
à¦¬ à¦Ńà¦ķ
à¦¬ à¦Łà¦¬
à¦¬ à¦£à¦ķ
à¦¬ à¦īà¦¯
à¦² à¦°à¦¤
à¦² à¦¤à¦¨
à¦² à¦¸à¦°
à¦² à¦®à¦¸
à¦² à¦¸à¦ķ
à¦² à¦Łà¦ķ
à¦² à¦®à¦¯
à¦² à¦«à¦¤
à¦² à¦ĩà¦ª
à¦² à¦ħà¦²
à¦® à¦ķà¦Ł
à¦® à¦ķà¦¤
à¦® à¦¹à¦®
à¦® à¦®à¦Ĺ
à¦® à¦īà¦²
à¦® à¦Ńà¦Ļ
à¦® à¦ıà¦²
à¦® à¦°à¦¸à¦®
à¦® à¦Ĩà¦ª
à¦® à¦Ĩà¦ľà¦ķ
à¦® à¦°à¦¹à¦¸
à¦® ÃĦ
Ġà¦ķ à¦²à¦¤
Ġà¦ķ à¦¦à¦²
Ġà¦ķ à¦ľà¦²
Ġà¦ķ à¦¸à¦®à¦¸
à§ģ âĢĿ
Ġà¦¸ à¦Ľ
Ġà¦¸ à¦¸à¦¬
Ġà¦¸ à¦¦à¦¨
Ġà¦¸ à¦ĺà¦¨
Ġà¦¸ à¦ĩà¦«
Ġà¦¸ à¦¬à¦¸à¦®à¦¯
Ġà¦¬ à¦¤à¦¨
Ġà¦¬ à¦°à¦¸
Ġà¦¬ à¦ķà¦¦
à¦¦ à¦ļà¦¨
à¦¦ à¦¬à¦°
à¦¦ à¦¨à¦¤
à¦¦ à¦ķà¦Ł
à¦¦ à¦²à¦¬
à¦¦ à¦¸à¦°à¦ķ
à¦¦ à¦¹à¦¨
à¦¦ à¦¤à¦²
Ġà¦ª à¦¥à¦®
Ġà¦ª à¦¨à¦°
à¦¸ à¦°à¦ĩ
à¦¸ à¦Ľà¦²
à¦¸ à§İà¦ķà¦°
à¦Ł à¦¥
à¦Ł à¦°à¦®
à¦Ł à¦Ĺà¦£
à¦Ł à¦ħ
à¦Ł à¦¬à¦¹
à¦Ł à¦°à¦Ł
à¦Ł à¦²à¦Ł
à¦Ł à¦ħà¦¨
à¦Ł à¦®à¦¹
à¦Ł à¦ıà¦Ń
Ġà¦¨ à¦®à¦¤
Ġà¦¨ à¦®à¦²
Ġà¦¨ à¦¬à¦¤
Ġà¦¨ à¦²à¦Ł
Ġà¦¨ à¦Ī
à¦¶ à¦®à¦°
à¦¶ à¦ªà¦¦
à¦¶ à¦¤à¦ķ
à¦¶ à¦¸à¦Ń
Ġà¦Ĩ à¦īà¦°
Ġà¦Ĩ à¦ĵà¦®
à¦ª à¦ł
à¦ª à¦¥à¦¨
à¦ª à¦ªà¦¦
à¦ª à¦¸à¦°
à¦ª à¦¸à¦¤
à¦ª à¦ĺà¦¨
à¦ª à¦²à¦¦
à¦ª à¦¶à¦¨à¦Ĺ
Ġà¦ı à¦§
Ġà¦ı à¦²à¦ķ
Ġà¦ı à¦¹à¦¤
Ġà¦ı à¦Ľà¦²
Ġà¦ı à¦Ĩà¦ĩà¦¡
Ġà¦ı à¦ıà¦²à¦¡
Ġà¦ı à¦ıà¦²à¦ıà¦°
Ġà¦¹ à¦īà¦¨
Ġà¦¹ à¦ľà¦°
Ġà¦¹ à¦ĵà¦¨
à¦Ľ à¦²à¦¨
à¦Ľ à¦ªà¦¦
à¦ĩ à¦ł
à¦ĩ à¦¬à¦°
à¦ĩ à§İ
à¦ĩ à¦°à¦¯
à¦ĩ à¦¸à¦¨
à¦ĩ à¦Ĺà¦¤
à¦ĩ à¦Łà¦¨
à¦ĩ à¦°à¦ª
à¦ĩ à¦ıà¦ĩ
à¦ĩ à¦ªà¦Ł
à¦ĩ à¦īà¦²
à¦ĩ à¦ĵà¦ķ
à¦ĩ à¦ıà¦¨à¦Ń
à¦ĩ à¦ıà¦®à¦Ń
à¦· à¦²à¦¤
à¦· à¦°à¦ĩ
à¦· à¦°à¦¸à¦¹
Ġà¦¦ à¦¦
Ġà¦¦ à¦ĵ
Ġà¦¦ à¦®à¦²
Ġà¦¦ à¦®à¦¬
Ġà¦¤ à¦Ń
Ġà¦¤ à¦ªà¦¤
à¦Ĺ à¦¨à¦¬
à¦Ĺ à¦¹à¦°
à¦Ĺ à¦¨à¦Ń
à¦Ĺ à¦°à¦¤à¦²
à¦Ĺ à¦¬à¦¶à¦¤
à¦Ĺ à¦ľà¦¨à¦¨
Ġà¦® à¦ĵ
Ġà¦® à¦ī
Ġà¦® à¦¸à¦®
Ġà¦® à¦¦à¦ª
Ġà¦® à¦²à¦¦
Ġà¦® à¦Ĺà¦Ł
Ġà¦® à¦°à¦£à¦ķ
à¦¼à§ĩ âĢĻ-
à¦¼à§ĩ âĢĶâĢĺ
à¦ľ à¦¬à¦°
à¦ľ à¦®à¦¯
à¦ľ à¦®à¦¬
à¦ľ à¦Ĺà¦²
à¦ľ à¦§à¦°
à¦ľ à¦Ĺà¦¬
à¦ľ à¦ĺà¦¨
à¦ľ à¦°à¦®à¦ľ
à¦ľ à¦Ĩà¦ª
à¦ľ à¦łà¦°
Ġà¦ķà¦° à¦Ł
Ġà¦ķà¦° à¦ĩ
Ġà¦ķà¦° à¦®à¦ľà¦²
à¦§ à¦°à¦£
à¦§ à¦ªà¦¨
à¦§ à¦Ĺà¦¤
à¦§ à¦¸à¦ª
à¦§ à¦Ńà¦ķ
à¦§ à¦ľà¦Ĺà§İ
Ġà¦ħ à¦¶à¦ķ
Ġà¦ħ à¦īà¦¨
Ġà¦ħ à¦®à¦¨à¦Ł
à¦ļ à¦°à¦ĩ
à¦ļ à¦¶à¦®
Ġà¦¯ à¦Ł
Ġà¦¯ à¦®à¦¨
Ġà¦¯ à¦¶à¦°
à¦¥ à¦°à¦¤
à¦¥ à¦ľà¦¨
à¦¥ à¦ªà¦¨
à¦¥ à¦Ńà¦°
à¦¹ à¦¬à¦°
à¦¹ à¦¯à¦¨
à¦¹ à¦¦à¦°
à¦¹ à¦ļà¦ķ
à¦¹ à¦ľà¦¯
à¦¹ à¦łà¦ķ
à¦Ĥ ...
à¦£ à¦²
à¦£ à¦ªà¦°
à¦£ à¦¹à¦¤
à¦£ à¦¸à¦ļ
à¦ĸ à¦°à¦¤
à¦ĸ à¦ĵà¦¯
à¦ĸ à¦®à¦¨
à¦ĸ à¦¸à¦°
Ġà¦ľ à¦§
Ġà¦ľ à¦°à¦¤
Ġà¦ľ à¦²à¦¨
Ġà¦ľ à¦īà¦¦
Ġà¦ľ à¦ľà¦¬
à¦ĵ à¦ıà¦®
à¦ĵ à¦°à¦¥
à¦ĵ à¦ıà¦«
à¦ĵ à¦ıà¦¸à¦¡
à¦ĵ à¦ıà¦ıà¦¸
à¦¡ à¦°à¦Ł
à¦¡ à¦ĵà¦¤
à¦¡ à¦¨à¦ĵ
à¦¼à¦¾ !âĢĻ
à¦Ń à¦°à¦ķ
à¦Ń à¦¨à¦¤
à¦Ń à¦²à¦¤
à¦Ń à¦°à¦ĩ
à¦Ń à¦¨à¦ĵ
à§ĩà¥¤ à¥¤âĢĻ
Ġà¦° à¦¸à¦®
Ġà¦° à¦Ĺà¦ķ
Ġà¦° à¦Łà¦²
Ġà¦° à¦Łà¦¬
Ġà¦° à¦¸à¦¸
Ġà¦¶ à¦ł
Ġà¦Ĺ à¦Ł
Ġà¦Ĺ à¦ĵ
Ġà¦Ĺ à¦®à¦¬
Ġà¦Ĺ à¦ľà¦¨à¦¬
Ġà¦ĵ à¦®à¦°à¦ķ
Ġà¦ĵ à¦ıà¦®à¦Ĩà¦°
Ġà¦ļ à¦°à¦¦
Ġà¦ļ à¦ªà¦²
à¦ģ à§į
Ġà¦Ń à¦°à¦¶
Ġà¦Ń à¦°à¦²
Ġà¦Ń à¦°à¦¤à¦¨
Ġà¦Ń à¦²à¦«à¦Ĺ
Ġà¦ī à¦®à¦¬
Ġà¦ī à¦ĩà¦Ń
Ġà¦ıà¦ķ à¦«
Ġà¦ıà¦ķ à¦§à¦°
Ġà¦¸à¦® à¦°à¦¶
Ġà¦¸à¦® à¦°à¦¬à¦²
Ġà¦¸à¦® à¦°à¦¯à¦¨
Ġà¦¸à¦® à¦°à¦ķà¦¨
à¦°à¦¤ à¦ļ
à¦°à¦¤ à¦ĺ
à¦°à¦¤ à¦°à¦Ń
à¦¾à¦ģ âĢĻ.
Ġà¦¥ à¦Ń
Ġà¦¥ à¦®à¦¤
Ġà¦¥ à¦°à¦¹à¦°
à¦°à¦ķ à¦ł
à¦°à¦ķ à¦«
à¦°à¦ķ à¦¯à¦¨
à¦°à¦ķ à¦¦à¦®
à¦°à¦ķ à¦Łà¦¤
à¦°à¦ķ à¦®à¦£
Ġà¦Ĩà¦® à¦®
Ġà¦Ĩà¦® à¦¸à¦¹
Ġà¦Ĩà¦® à¦¬à¦¯
Ġà¦ħà¦¨ à¦®
Ġà¦ħà¦¨ à¦¶à¦¨à¦ķ
à¦Ļ à¦Ł
à¦Ļ à¦¨à¦°
à¦Ļ à¦¨à¦ĵ
Ġà¦² à¦ª
Ġà¦² à¦Ĺà¦¨
Ġà¦Ľ à¦ĵà¦¯
Ġà¦Ľ à¦¬à¦ķ
à¦°à¦£ à¦¬à¦¹
à¦ľà¦¨ à¦ķà¦°
à¦ľà¦¨ à¦¬à¦¹
à¦¾à¥¤ ]
Ġà¦¬à¦² à¦¸
Ġà¦¬à¦² à¦¹
Ġà¦ĸ à¦ĩà¦¯
Ġà¦ĸ à¦²à¦¶
Ġà¦ĩ à¦ĩ
Ġà¦ĩ à¦°à¦ķ
Ġà¦ĩ à¦ı
Ġà¦ĩ à¦ªà¦¸
Ġà¦ĩ à¦ıà¦«à¦Ł
Ġà¦ĩ à¦ĩà¦īà¦¬
Ġà¦ıà¦ĩ à¦ĩà¦ĩ
Ġà¦« à¦°à¦ļ
Ġà¦« à¦¸à¦«
Ġà¦Ĩà¦° à¦Ĺ
Ġà¦Ĩà¦° à¦¡à¦¬
Ġà¦Ĩà¦° à¦ıà¦®à¦¬
Ġà¦Ĩà¦° à¦ıà¦¨à¦¬
Ġà¦Ĩà¦° à¦ĩà¦īà¦ıà¦¸
à¦®à¦¨ à¦¸à¦¹
à¦®à¦¨ à¦¬à¦®
à¦¼à¥¤ /
à¦« à¦Łà¦Ĺ
à¦« à¦ĵà¦ľ
à¦ļà¦¨ à¦¨
à¦ļà¦¨ à¦¯
à¦ļà¦¨ à¦¦
à¦ļà¦¨ à¦ªà¦°
à¦ļà¦¨ à¦Ĺà¦¤
à¦ı à¦ķà¦¤
à¦ı à¦ĩà¦°
à¦ı à¦¤à¦¦
à¦ı à¦ıà¦²
à¦ī à¦£
à¦ī à¦²à¦¬
à¦ī à¦ľà¦°
à¦ī à¦ľà¦¬
à¦ī à¦°à¦¸à¦¹
à¦ī à¦ıà¦ľ
à¦ī à¦ıà¦®à¦¡
à¦¿à¥¤ à¥¤
à¦¿à¥¤ ïģ¬
à¦¬à¦¸ à¦ĩ
à¦¬à¦¸ à¦¸à¦®
âĢĻ :
âĢĻ ]
ĠâĢĺ #
Ġà¦Ł à¦Ľ
Ġà¦Ł à¦¬à¦²
Ġà¦Ł à¦ķà¦Ń
Ġà¦Ł à¦ķà¦¶
Ġà¦Ł à¦¨à¦ĩ
Ġà¦¹à¦² à¦ĵ
à¦ŀ à¦Ł
Ġà¦®à¦¨ à¦¤
Ġà¦®à¦¨ à¦ĩ
Ġà¦®à¦¨ à¦¨à¦ķ
à¦¬à¦¨ à¦¤à¦°
à¦¬à¦¨ à¦ĺ
à¦¬à¦¨ à¦ªà¦¦
à§İ à¦Ł
à§İ à¦Ń
à§İ à¦ªà¦Ł
à§İ à¦ķà¦²à¦®
à¦¼. /
Ġà¦Ĩà¦² à¦Ŀ
Ġà¦Ĩà¦² à¦®à¦¦
à¦ªà¦¨ à¦¨
à¦ªà¦¨ à¦¶
à¦®à¦¤ à¦ķà¦°
à¦°à¦® à¦ĵà¦¯
à¦°à¦® à¦²à¦¬
Ġà¦ķà¦® à¦²à¦¨
Ġà¦¹à¦¤ à¦ļà¦ķ
Ġà¦¦à¦² à¦¦
Ġà¦¦à¦² à¦ľ
Ġà¦¦à¦² à¦ªà¦¨
à¦ĩà¦¨ à¦ħ
à¦°à¦¬ à¦ļà¦¨à¦Ĺ
à¦¶à¦¨ à¦¡
à¦¤à¦¨ à¦¸à¦®
à¦¸à¦¬ à¦®
à¦¿. )
à¦¿. .
à¦°à¦¸ à¦¨à¦¦
à¦ĺ à¦°à¦ĩ
à¦ĺ à¦¸à¦®à¦¯
à¦·à¦£ à¦ªà¦¦
à¦Ĩ à¦¸à¦°
à¦Ĩ à¦ľà¦®
à¦Ĩ à¦§à¦¬
à¦Ĩ à¦Ĺà¦¨
à¦Ĩ à¦¹à¦Ń
à¦Ĩ à¦ĵà¦¸
Ġà¦Ĩà¦¨ à¦¹
Ġà¦Ĩà¦¨ à¦¡
Ġà¦ĺà¦Ł à¦°
à¦¼à§ĭ ?
à¦¼à§ĭ âĢĻà¥¤
Ġà¦¡ à¦¸
Ġà¦¡ à¦²à¦¤
à¦°à¦¶ à¦°
Ġ( !)à¥¤
Ġà¦īà¦¦ à¦°à¦¸
à¦¯à¦ķ à¦¥
à¦¯à¦ķ à¦£
Ġà¦ļà¦² à¦ķà¦Ĺ
Ġà¦ļà¦² à§İà¦¶à¦ķ
Ġà¦¬à¦° à¦ĩ
à¦¿à¦Ĥ !
à¦¿à¦Ĥ /
à¦¿à¦Ĥ ;
à¦¿à¦Ĥ à¥¤âĢĻ
à¦¯à¦® à¦¹
Ġà§¨à§¦ à§Ńà§¦
Ġà¦Ĩà¦¬ à¦ĸ
à¦¸à¦¨ à¦¹
à¦¸à¦¨ à¦ľà¦¨
à¦¸à¦¨ à¦ªà¦¨
à¦¸à¦¨ à¦Ĺà¦°
Ġà¦Ĺà¦£ à¦Ľ
Ġà¦Ĺà¦£ à¦ķà¦²
Ġà¦Ĺà¦£ à¦ıà¦²
Ġà¦¸à¦¹ à¦²
Ġà¦¸à¦¹ à¦ĸ
à¦°à¦¦ à¦Ł
à¦°à¦¦ à¦ĵ
à¦¦à¦¨ à¦¯à¦¨
à¦°à¦¹ à¦²
à¦°à¦¹ à¦Ĺ
à¦¤à¦¬ à¦ĵ
à¦¤à¦¬ à¦°à¦ķ
à¦Ĺà¦¤ à¦¸
à¦Ĺà¦¤ à¦ķà¦°à¦£
Ġà¦°à¦ķ à¦¸
à¦¬à¦² à¦¡
à¦ķà¦Ł à¦¬
à¦¬à¦¬ à§İ
à¦¬à¦¬ à¦¶à¦¤
Ġà¦ħà¦¬à¦¸ à¦°à¦ĵ
Ġà¦¸à¦° à¦Ĺ
Ġà¦¸à¦° à¦«à¦°
Ġà¦¸à¦° à¦²à¦ª
à¦ķà¦¤ à¦¤
Ġà¦Ĩà¦°à¦ĵ à¦ª
à¦¸à¦² à¦Ł
à¦Ĺà¦° à¦ĩ
à¦Ĺà¦° à¦Ń
à¦Ĺà¦° à¦ĺ
Ġà¦¶à¦¤ à¦ķà¦ķ
à¦¤à¦® à¦Ł
à¦¤à¦® à¦§
à¦¼à§Ģ âĢĵ
Ġà¦ªà¦¦ à¦¸à¦®
Ġà¦ªà¦¦ à¦ķà¦¬
à¦¥à¦¨ à¦¦
Ġà¦«à¦² à¦Ľ
Ġà¦«à¦² à¦Ń
à¦ıà¦¨ à¦¥
à¦ıà¦¨ à¦ıà¦¨à¦ª
à¦ıà¦¨ à¦ıà¦®
à¦ıà¦¨ à¦Ĩà¦ĩà¦¡
à¦ıà¦¨ à¦ĩà¦īà¦¤
à¦ıà¦¨ à¦ıà¦¸à¦ľ
à¦¹à¦² à¦¬
âĢĶ âĢľ
à¦¨à¦¬ à¦ļ
à¦¨à¦¬ à¦£
à¦¨à¦¬ à¦¡
à¦¨à¦¬ à¦ľà¦¨
à¦°à¦ļ à¦ķ
à¦°à¦ļ à¦²à¦¨à¦ķ
Ġà¦ħà¦¤ à¦²à¦¸
Ġà¦ħà¦¤ à§İà¦¸à¦®
Ġà¦ıà¦¤ à§İà¦¸à¦®
Ġà¦ıà¦¸ à¦ĩ
Ġà¦ıà¦¸ à¦ıà¦¸à¦¬
Ġà¦ıà¦¸ à¦ıà¦¸à¦ı
Ġà¦ĩà¦ī à¦ıà¦¨à¦ª
à¦¸à¦® à¦¶
à¦¸à¦® à¦ŀ
à¦¹à¦¤ à¦¤
à¦¹à¦¤ à¦¦à¦°
à¦Ńà¦¬ à¦¦à¦¹
à¦°à¦¹à¦£ à¦¸
à¦°à¦¹à¦£ à¦ª
à§ĭ. âĢĻ
Ġà¦ł à¦Ľ
Ġà¦ł à¦ķà¦²
Ġà¦ł à¦ķà¦¤
Ġà¦ł à¦¨à¦Ĺ
à¦ļà¦² à¦ª
à¦¸à¦¹ à¦ľà¦Ń
Ġà¦ħà¦ª à¦ł
à¦Ĺà¦£ à¦°
à¦Ĺà¦£ à¦§
Ġà¦ıà¦² à¦Ĺ
Ġà¦ıà¦² à¦Ĺà¦°
Ġà¦ıà¦² à¦Ĩà¦°
Ġà¦ıà¦² à¦ıà¦®à¦ıà¦«
Ġà¦ıà¦² à¦ıà¦ĵ
Ġà§© à§¯à§§
Ġà§© à§¯à§¨
à¦ªà¦¦ à¦§
à¦·à¦¤ à¦ĩ
à¦ķà¦¦ à¦¹
à¦¨à¦ķ à¦£
Ġà¦¯à¦ĸà¦¨ à¦ķ
Ġà¦¾ !
Ġà¦¾ âĢĻ
à¦°à¦Ń à¦¦
Ġà¦¬à¦¹ à¦°à¦ĵ
à¦°à¦ĩ à¦°à¦ĩ
à¦ħ à¦£
à¦ħ à¦°à¦¬
à¦ħ à¦ķà¦Ł
à¦ħ à¦¯à¦¤
à¦ħ à¦ªà¦¦
à¦ħ à¦«à¦²
à¦ħ à¦¹à¦¨
à¦ħ à¦¬à¦ļ
à¦ħ à¦ªà¦ľ
à¦ħ à¦Ĺà¦ª
à¦ħ à¦Ĺà¦Ń
à¦ħ à¦¬à¦¸à¦Ł
à¦¦à¦ķ à¦¨à¦Ĺà¦°
Ġà¦¸à¦®à¦¸ à¦¤
à¦Łà¦¨ à¦°
à¦Łà¦¨ à¦ĩ
à¦¸à¦° à¦ľ
à¦®à¦¸ à¦ķ
à¦®à¦¸ à¦ĵ
à¦®à¦¸ à¦Ń
Ġà¦¬à¦¸ à¦ķ
Ġà¦¸à¦¦ à¦Ĺ
à¦²à¦¬ à¦¤
à¦ĩà¦² à¦¦
à¦ĩà¦² à¦ĸ
à¦ĩà¦² à¦Łà¦°
Ġà¦Ĩà¦ķ à¦ļ
Ġà§« à§§à§¨
Ġà§« à§§à§®
Ġà§« à§§à§©
Ġà§« à§¯à§§
Ġà§« à§¯à§¨
à¦¸à¦ķ à¦®à¦¹à¦²
Ġà¦Ŀ à¦ķà¦®
à¦¦à¦² à¦Ń
Ġà¦ķà¦¤ à¦ķà¦Ł
Ġà¦ıà¦ķà¦ĩ à¦°
à¦¤à¦ķ à¦¨
à¦§à¦¨ à¦ļ
à¦§à¦¨ à¦ªà¦¤
Ġà§ĩ )
Ġà§ĩ ;
Ġà§ĩ âĢĻ
à¦ıà¦¸ à¦ĩà¦°
à¦ıà¦¸ à¦ıà¦²à¦Ĩà¦°
Ġà¦ĩà¦¨ à¦«à¦°
Ġà§ª à§§à§«
Ġà§ª à§¯à§©
Ġà§ª à§¯à§Ń
à§« à§Ńà§¦
à¦Łà¦ķ à¦¸à¦¹
à¦ĥ à¥¤
Ġà¦¤à¦° à¦ľ
à¦Ľà¦¨ à¦ªà¦¨
à¦¬à¦¦ à¦²à¦ķ
à¦¨à¦® à¦¹
à¦£à¦¤ à¦ĩ
à¦·à¦® à¦ĵ
Ġà§į âĢĮ
à¦¨à¦° à¦°
à¦¼à§ĩà¥¤ âĢĺ
Ġà¦¸à¦®à¦° à¦ĸà¦¨
à¦ľà¦¨à¦ķ à¦£
à¦¬à¦ķ à¦°à¦£
Ġà¦¬à¦ķ à¦Ľ
Ġà§¬ à§§à§®
Ġà§¬ à§§à§§
Ġà§¬ à§¯à§®
Ġà§¬ à§¯à§¨
à§Ń à§Ńà§®
Ġà§Ń à§§à§«
Ġà§Ń à§¯à§®
à¦ļà¦ķ à¦°à¦£
à¦¯à¦¸ à¦¤
Ġà¦Ĩà¦ĩ à¦ī
Ġà¦Ĩà¦ĩ à¦ıà¦ĩ
Ġà¦Ĩà¦ĩ à¦ľà¦²
Ġà¦Ĩà¦ĩ à¦Ĩà¦°à¦Ĩà¦ĩ
Ġà¦Ĩà¦ĩ à¦ıà¦¨à¦Ł
Ġà¦Ĩà¦ĩ à¦ıà¦ĩà¦ļà¦Ł
Ġà¦Ĩà¦ĩ à¦Ĩà¦°à¦ı
Ġà¦Ĩà¦ĩ à¦ıà¦®à¦ĩà¦Ĩà¦ĩ
Ġà¦¸à¦Ń à¦°
à¦ķà¦¸ à¦°à¦ķ
Ġà¦¤à¦¤ à¦Ĺ
Ġà¦¤à¦¤ à¦§
à¦Ĩà¦® à¦°à¦£
à¦®à¦¬ à¦¦à¦²
à§İà¦¸ à¦ļ
à¦¶à¦² à¦¸
à¦¶à¦² à¦¶
à¦ľà¦° à¦ľà¦¬
Ġà¦ħà¦ķ à¦¹à¦¤à¦¬
à¦¼à§ģ à¦Ĥ
Ġà¦Ĩà¦®à¦² à¦¸
Ġà¦Ĩà¦®à¦² à¦ĵ
à¦ĩà¦Ł à¦²
à¦ıà¦ĩ à¦Ń
à¦ıà¦ĩ à¦¸à¦¬
Ġà¦Ĺà¦łà¦¨ à¦ķà¦²
à¦¾âĢĻ )
Ġà§® à§§à§ª
Ġà§® à§¯à§¦
Ġà§® à§¯à§©
Ġà¦Ĺà¦° à¦Ĺà¦°
Ġà¦¨à¦¬ à¦°à¦¤
Ġà¦¨à¦¬ à¦ªà¦¤
Ġà¦¸à¦¹à¦ľ à¦ĵ
à¦¹à¦¸ à¦Ńà¦°
à§¯ à§¦à§¦
à¦¾? âĢĺ
Ġà¦ªà¦¦à¦ķ à¦¸à¦¹
Ġà¦ıà¦¨ à¦ĵà¦¯
Ġà¦ıà¦¨ à¦ıà¦¸à¦¸
Ġà¦ıà¦¨ à¦Ĩà¦ĩà¦¯
Ġà¦ıà¦¨ à¦Ĩà¦ĩà¦ıà¦°
Ġà¦Ĩà¦ļ à¦®
Ġà¦ľà¦¬ à¦ľà¦¬
Ġà¦¬à¦¦à¦² à¦ĵ
à¦®à¦ª à¦°à¦¤
à¦Ĺà¦² à¦¸à¦¹
à¦Ĺà¦² à¦¡à¦Łà¦ķ
Ġà¦Ĩà¦¹à¦® à¦¦à¦°
Ġà¦ĺà¦° à¦«
Ġà¦ĺà¦° à¦¬à¦¸à¦¤
à¦Ĩà¦ĩ à¦īà¦¬
à¦Ĩà¦ĩ à¦ıà¦«à¦ª
à¦Ĩà¦ĩ à¦ıà¦²à¦ĵà¦°
Ġà¦Ĩà¦ª à¦¸à¦ĵ
à¦°à¦ľ à¦Ĺà¦¨
à¦°à¦ľ à¦Ĺà§İ
om an
Ġà¦¦à¦ĸà¦² à¦ª
à§ĩà¥¤âĢĻ âĢĶ
Ġà¦Ĺà¦² à¦¦à¦ª
à¦ĺà¦Łà¦¨ à¦ªà¦Ł
Ġà¦¹à¦ķ à¦ª
à¦ªà¦Ł à¦ªà¦Ł
Ġà¦Ĩà¦¹ à¦ĵà¦¯
Ġà¦Ĩà¦¹ à¦¤à¦°
com à¦®
Ġà¦· à¦Ł
Ġà¦· à¦Ń
à¦°à¦ĸ à¦ª
Ġà¦Ĩà¦§ à¦¶
Ġà¦§à¦¨ à¦¶
à§ĩâĢĶ (
à¦īà¦Ł à¦¦
à¦īà¦Ł à¦¸
à¦īà¦Ł à¦Ł
à¦īà¦Ł à¦°à¦ķ
à¦īà¦Ł à¦¸à¦¹
Ġà¦ĩà¦¸ à¦«
Ġà¦ıà¦® à¦Ĩà¦ĩà¦¸
à¦¢ à¦²
Ġà¦ĸà¦°à¦ļ à¦ª
à¦¹à¦°à¦£ à¦¸à¦¹
à¦®à¦ľ à¦®
à¦°à¦®à¦£ à¦ľà¦¨
à¦Ĩà¦² à¦¶
à¦Ĩà¦² à¦Ĺ
Ġà¦Ńà¦¬à¦¨ à¦¸
Ġà¦Ńà¦¬à¦¨ à¦¸à¦®
à¦¬à¦Ľà¦° à¦Ł
à¦¿âĢĻ âĢĻ
à¦ľà¦¤ à¦ĵ
à¦ľà¦¤ à¦ªà¦¨
à¦ıà¦® à¦¸à¦¹
à¦ıà¦® à¦ĩà¦ī
à¦ıà¦® à¦Ĩà¦ĩà¦Ł
à¦ªà¦£ à¦ķà¦°
à¦²à¦Ł à¦¬
à¦²à¦Ł à¦®
à¦²à¦Ł à¦Ł
Ġà¦ľà¦² à¦ļà¦°
Ġà¦ľà¦² à¦¬à¦¸à¦¨
à¦¼? ??
à¦°à¦ľà¦¨ à¦¸à¦¹
Ġà¦¹à¦ľ à¦ĩ
Ġà§§à§® à§ªà§¦
Ġà§§à§® à§¨à§¬
Ġà§§à§® à§¯à§§
Ġà§§à§® à§¯à§¯
à¦Ĩà¦¨ à¦¹
à¦¹à¦¬ à¦ŀ
à¦Ĩà¦° à¦Ĩà¦ĩà¦ķ
à¦Ĩà¦° à¦ıà¦«à¦ıà¦²
Ġà¦Īà¦¦ à¦ĩ
Ġà¦Īà¦¦ à¦ĵ
Ġà¦¨à¦Ĺà¦° à¦¨
Ġà¦¨à¦Ĺà¦° à¦ĩ
à¦ľà¦ķ à¦ĩ
il d
Ġà§§à§ª à§¯à§¨
Ġà¦ħà¦² à¦¡
à¦§à¦ķ à¦Ĺ
à¦§à¦ķ à¦ĵ
Ġà¦¦à¦®à¦¨ à¦¸
Ġà¦ıà¦¡ à¦®
Ġà¦ıà¦ķà¦¬ à¦Ĺ
Ġà¦Ĩà¦ĩà¦ıà¦¸ à¦ªà¦¨
à¦Ĺà¦¨ à¦¸à¦¹
à¦ĩà¦¡ à¦Ł
Ġà¦Ĩà¦Ł à¦°à¦¶
Ġà¦Ĩà¦Ł à¦ķà¦¦
à¦¾à¥¤âĢĻ âĢĶ
Ġà§§à§© à§¨à§§
à¦¬à¦ľà¦¨ à¦®à¦¤à¦ķ
à¦ľà¦¬ à¦Ł
à¦ľà¦¬ à¦Ĺ
Ġà§«à§¦ à§¯
Ġà¦¸à¦«à¦² à¦ĩ
Ġà¦¹à¦¸ à¦°à¦¤
Ġà¦ħà¦¸à¦® à¦Ń
à¦²à¦ĺ à¦¡
à¦¸à¦°à¦£ à¦ª
à¦¦à¦¶ à¦¤à¦²
à¦ĩà¦ľ à¦Ń
à¦Ĺà¦ľ à¦¹
à§¨à§¦ à§®
à§¨à§¦ à§¨à§¨
à¦¥à¦² à¦ªà¦¦
Ġà¦ĩà¦² à¦®à¦ķ
Ġà§§à§Ń à§§à§«
Ġà§§à§Ń à§«à§¦
Ġà§§à§Ń à§¯à§¯
Ġà§§à§Ń à§®à§¦
à¦ıà¦« à¦Ń
à¦ıà¦« à¦ıà¦®
à¦ıà¦« à¦Ĩà¦ĩà¦ķ
Ġà¦®à¦¯ à¦¹
Ġà§¨à§ª à§©à§©
à§įâĢĮ âĢĻ
à§§à§¦ à§¨
à§§à§¦ à§§
à§§à§¦ à§ª
à§§à§¦ à§¯
à¦¨à¦¶ à¦¹à¦°
à¦¤à¦°à¦£ à¦ĵ
à¦°à¦¸à¦¨ à¦ķà¦²
Ġà¦Ĩà¦ķà¦° à¦Ĺ
à¦ľà¦² à¦¢
à¦ĩà¦Ń à¦ĵà¦¯
Ġà¦Ĩà¦¹à¦®à¦¦ à¦ĩ
Ġà¦īà¦¡ à¦¬
Ġà¦īà¦¡ à¦«
à¦°à¦Ĩà¦¨ à¦ĩ
Ġà¦¹à¦ł à¦¤
an t
an im
à¦Łà¦¬ à¦¡
à¦Łà¦¸ à¦¶
à¦īà¦¸ à¦ĵ
Ġà¦«à¦¸à¦² à¦¡
Ġà§¬à§¦ à§§
Ġà§¬à§¦ à§Ń
Ġà§¬à§¦ à§ª
à¦īà¦ľ à¦¡
Ġà§¨à§© à§¦à§®
Ġà§¨à§© à§©à§ª
... )
... ?âĢĻ
Ġà§Ńà§¦ à§«
Ġà§Ńà§¦ à§©
à¦¨à¦¹ à¦ľ
à¦ĩà¦« à¦ĩ
à¦ĩà¦« à¦Ĺ
à¦¦à¦¤ à¦Ĺ
à¦¦à¦¤ à¦°à¦¤
à¦²à¦° à¦Ļ
Ġà§®à§¦ à§§
Ġà§®à§¦ à§Ń
Ġà¦ªà¦¤à¦¨ à¦ĩ
à¦Ĩà¦ĩà¦¨ à¦¸à¦®
à¦Ĩà¦ĩà¦¨ à¦¸à¦Ń
à§ĭ? âĢĺ
à¦ĩà¦ī à¦¯
à¦ĩà¦ī à¦ıà¦¨à¦ª
à¦ĩà¦ī à¦ıà¦ĩ
à¦ĩà¦ī à¦ıà¦¸à¦Ł
à¦¬à¦¤à¦¨ à¦°
à¦īà¦ĩ à¦¥
Ġà§©à§« à§¬
à¦¦à¦¬ à¦°à¦ķ
Ġà§¯à§¦ à§§
Ġà§¯à§¦ à§Ń
à¦®à¦¶ à¦¹à¦°
à¦¶à¦¦ à¦°à¦¦
ho d
ho k
ho ught
Ġà¦Ķ à¦°à¦¸
à¦®à¦¡ à¦Łà¦¬
à¦ľà¦īà¦¦ à¦¦
in d
in ation
in ess
in dia
Ġà¦ıà¦« à¦Ĩà¦ĩà¦ı
à¦ĩà¦®à¦¸ à¦¸à¦¹
à¦®à¦£ à¦ĸ
Ġà¦¸à§İ à¦Ĺ
à¦¼âĢĻ ?
à¦Ĩà¦¬ à¦Ľ
à¦Ĩà¦¬ à¦¹à¦®
ha wat
Ġà¦¬à¦¦ à¦²à¦ķ
Ġà¦°à¦¹ à¦£à¦ķ
Ġà¦¶à¦ªà¦¥ à¦Ńà¦Ļ
Ġà¦ıà¦ĩà¦ļ à¦ıà¦¸à¦Ł
à¦®à¦°à¦¤ à¦°
Ġà§ªà§« à§§
Ġà§ªà§« à§ª
âĢĿ âĢĶ
ra t
ra me
à¦Ĺà¦°à¦£ à¦ĩ
à¦ķà¦ĵ à¦¸
à¦¯à¦ľà¦¨à¦ķ à¦ĩ
à¦Ĩà¦¸ à¦ĵà¦¯
Ġà§©à§¨ à§¨
à¦ļà¦°à¦£ à¦¶
Ġà¦¨à¦Ĺ à¦°à¦¸à¦®
âĢį -
à¦īà¦ª à¦¸à¦®
à¦īà¦ª à¦¸à¦°
à¦īà¦ª à¦¢
à¦ĸà¦¬à¦° à¦ĩ
à¦ĸà¦¬à¦° à¦ĵ
à¦¡à¦¸ à¦ĩ
à¦¡à¦¸ à¦¸à¦¹
Ġà¦£ à¦Ń
Ġà¦ħà¦ļ à¦²à¦¤
Ġà§«à§Ń à§§
Ġà§«à§Ń à§Ń
Ġà§«à§Ń à§¯
Ġà¦ķà¦¦à¦° à¦ĩ
à¦ķà¦®à¦¤ à¦ĵà¦¯
à¦²à¦¥ à¦¸à¦¹
er ity
th ys
Ġà§©à§© à§Ń
Ġà¦ĩà¦Ł à¦ĵ
à¦¤à¦ķà¦°à¦£ à¦ķ
Ġà¦¬à¦ĩà¦Ł à¦ĩ
Ġà§©à§¬ à§¯
Ġà¦¬à¦¸à¦¨ à¦§
à¦¯à¦Łà¦¨ à¦¬à¦°
à¦¸à¦ĵ à¦®
Ġs p
Ġs ur
Ġs tudents
Ġs tudy
à¦®à¦ĺà¦Ł à¦ĵ
Ġà§Ńà§« à§«
Ġà§Ńà§« à§¬
Ġl o
Ġl à¦ķ
Ġl à¦®
Ġl à¦ª
Ġl ost
Ġl aw
à§§à§« à§§
à§§à§« à§¦à§¦
à¦ĭà¦£ à¦Ĺ
Ġà§ªà§® à§¨
Ġà§¨à§¦à§¨ à§¬
Ġà§©à§ª à§©
à¦²à¦§ à¦¨à¦ķ
à¦ıà¦ĩà¦ļ à¦ıà¦¨
à¦ıà¦ĩà¦ļ à¦ıà¦¸à¦Ł
à¦ıà¦ĩà¦ļ à¦ıà¦¨à¦¡à¦¬
à¦ħà¦¸ à¦¤à¦¤
ro y
Ġà¦ªà¦Ļ à¦ķ
à§ĭâĢĻ !
Ġà§«à§« à§¨
Ġà§©à§Ń à§¬
à¦®à¦Ľ à¦ķ
Ġà§ªà§Ń à§ª
à§§à§¨ à§«
à§§à§¨ à§©
à§§à§¨ à§Ń
à¦ķà¦¬à¦² à¦¸à¦¹
à§§à§® à§¯
à§§à§® à§§à§®
à§§à§® à§¯à§Ń
Ġà¦ľà¦Ĺ à¦¨à¦®
Ġà¦ľà¦Ĺ à§İà¦¸
Ġà¦ľà¦¨à¦ªà¦¦ à¦Ł
Ġà§©à§® à§¯
Ġà¦°à¦¹à¦®à¦¤ à¦Ĺà¦ŀ
à¦ıà¦®à¦ĩ à¦ıà¦¸
Ġà¦īà¦ĩ à¦Ĺ
Ġà¦īà¦ĩ à¦²à¦¬
Ġà¦īà¦® à¦°à¦ķ
à¦Ĩà¦¶ à¦«
Ġà§ªà§¬ à§§
Ġà§ªà§¬ à§®
Ġà§ªà§¬ à§¯
à¦¼) ;
!âĢĻ âĢĶ
à¦·à¦¸ à¦ľ
à§ģà¦Ĥ .
âĢĭ à§Ģ
Ġà¦¨à¦ķà¦² à¦®
à§§à§© à§¨
à§§à§© à§Ń
Ġà§¬à§ª à§§
Ġà§¬à§ª à§©
Ġà§¬à§ª à§ª
Ġà§¬à§ª à§¯
Ġà§¬à§ª à§¦à§¦
Ġà§¬à§ª à§¦à§¬
Ġà¦ħà¦ĺà¦Łà¦¨ à¦ĩ
ed a
Ġà§«à§¬ à§¨
Ġà§«à§¬ à§©
Ġà§«à§¬ à§Ń
à¦¼à¦¿à¦Ĥ -
à§İà¦¸à¦¬ à¦Ł
Ġà§Ńà§¨ à§©
Ġà§Ńà§¨ à§®
Ġà§Ńà§¨ à§ª
Ġà§«à§® à§§
Ġà§«à§® à§ª
à¦ľà¦ĸà¦¬à¦° à¦ĵ
Ġà§¦ à§§à§©
Ġà§¦ à§¦à§Ń
à¦²à¦ªà¦¥ à¦Ł
à¦¸à¦Ńà¦¬à¦¨ à¦Ł
et er
en c
or rup
âĢĻâĢĶ âĢĺ
Ġà§¬à§¨ à§¨
à¦Ĺà¦®à¦¨ à¦ªà¦¥
Ġà§¬à§® à§¬
Ġà§«à§¨ à§©
Ġà§«à§¨ à§®
Ġà§«à§¨ à§ª
am roy
à¦Ĩà¦ĩà¦ıà¦¸ à¦Ł
Ġà¦Ĺà¦ľ à¦¦à¦¨
Ġà§¯à§« à§§
Ġà§«à§© à§¯
Ġà¦¹à¦ĩà¦ļ à¦ĩà¦Ł
Ġà§¬à§© à§ª
Ġà§¯à§¬ à§®
Ġà¦«à¦Ł à¦ķà¦Ł
Ġà¦ħà¦¸à§İ à¦ķà¦°
à¦īà¦¥ à¦ĵà¦¯
à¦Łà¦ķà¦° à¦ĩ
à¦Ńà¦¸ à¦ŀ
à¦ıà¦°à¦ªà¦° à¦ĩ
Ġà¦²à¦Ĺ à¦ĩà¦¨
if ul
Ġà§®à§Ń à§Ń
Ġà¦°à¦ĵà¦¶à¦¨ à¦ªà¦¨
Ġà¦Ĩà¦ĩà¦ıà¦®à¦ıà¦« à¦ķ
à¦ķà¦¬à¦ļ à¦Ĺ
Ġà§¯à§Ń à§ª
Ġà§¯à§Ń à§¯
à¦°à¦ľà¦¨à¦¨ à¦¤à¦¨
Ġà§Ńà§Ń à§§
Ġà§Ńà§Ń à§©
Ġà§Ńà§Ń à§ª
Ġà§®à§¨ à§Ń
Ġà§®à§¨ à§¬
Ġà§Ńà§® à§¦
Ġà§Ńà§® à§«
Ġà§Ńà§© à§©
Ġà§Ńà§© à§Ń
Ġà¦ıà¦ķà¦ª à¦¶à¦²
Ġà¦Ĩà¦ĩà¦ı à¦¸à¦®
Ġà¦Ĩà¦ĩà¦ı à¦®à¦¸
Ġf ac
Ġf und
tu s
tu ral
Ġo b
Ġo wn
is tory
à¦Ľà¦¦ à¦ªà¦Ł
Ġà§Ńà§¬ à§¬
200 0
Ġà§®à§ª à§¨
Ġà§®à§ª à§¬
Ġà§®à§® à§«
Ġà§®à§® à§®
Ġà¦¬à¦Ľ à¦°à¦¸à¦¹
Ġà¦īà¦ªà¦¤ à¦¤
Ġà§®à§¬ à§¬
Ġà§®à§¬ à§¯
à¦ªà¦ķà¦¥à¦¨ à¦ĵ
ay reen
Ġcom p
à¦¬à¦°à¦ķ à¦¨
Ġà§¯à§® à§¨
Ġà§¯à§® à§ª
Ġa d
Ġ... âĢĻ
à¦ıà¦¨à¦ıà¦¨ à¦¸à¦¹
Ġà¦ĩà¦¨à¦Ń à¦²
Ġthe y
Ġof f
à¦·à¦°à¦£ à¦ľà¦¨
à¦Ĩà¦« à¦Ľ
à§Ńà§¦ à§Ń
à¦·à¦ľà¦¨ à¦ĵ
Ġà§¯à§ª à§®
Ġà¦ĩà¦īà¦ıà¦¨à¦ĵ à¦¸à¦¹
à¥¤... âĢĻ
bi t
Ġà¦Łà¦¹à¦² à¦ļ
Ġt r
Ġt ri
Ġà¦Ńà¦Ĺ à§İ
à¦ħà¦¬à¦¸ à¦¨
ju stice
Ġà§¨à§¯à§ ¬
Ġà¦Ĩà¦²à¦Ł à¦ªà¦ķ
Ġp o
Ġp ower
Ġp olitics
ĠS C
Ġà§¨à§¦à§ª à§¯
ing s
el p
el y
el ue
ĠC h
ĠC our
ĠC hina
à¦¸à¦°à¦² à¦Ń
ol d
à¦łà¦¤à¦® à¦ķ
ĠT hought
Ġà¦ıà¦ĩà¦¡ à¦¸à¦¬
:// /
Ġà¦¹à¦°à¦« à¦ķ
ĠP ol
Ġà¦°à¦ľ à¦¤à¦°
à§§à§¯à§ª à§¨
Ġà§§à§¨à§© à§ªà§«
Ġw hic
!! !!
à¦¸à¦ªà¦¨ à¦¡
us t
à¦ķà¦¸à¦® à¦ķ
Ġà§§à§®à§® à§ª
Ġc ri
Ġc hange
Ġin jury
Ġà§İ à¦ªà¦°
ir du
Ġn on
Ġà¦°à¦¤à¦¨ à¦¦
Ġà¦°à¦¤à¦¨ à¦ª
Ġà§§à§¦à§¦à§¦ à§¯
ĠD ay
ĠD ev
ĠR ahman
tr ans
un e
Ġà§§à§®à§¬ à§ª
Ġà§§à§®à§¬ à§¯
ac h
Ġà¦°à¦Ĺ à¦ļà¦Ł
à¦Ĩà¦ĩà¦ıà¦¨ à¦§
Ġà§§à§§à§® à§Ń
à¦¾âĢĿ .
à¦¾âĢĿ à¥¤
à¦¾âĢĿ à¥¤âĢĻ
Ġm s
Ġm et
à§ªà§® à§©
ahmed q
Ġà¦ļà¦ª à¦²à¦¤
Ġà¦§à¦ķà¦² à¦Ł
ad o
me m
à¦Ĩà¦ĩà¦Ĩà¦° à¦¡
à¦Ĩà¦ĩà¦Ĩà¦° à¦Ĩà¦ĩà¦¯
à¦¿!âĢĻ âĢĺ
Ġfaruk wasif
à¦®à¦¹à¦¨à¦¨ à¦ķ
Ġg o
Ġg ov
Ġg ood
Ġg overn
Ġg eneral
op tor
Ġd is
Ġd ire
Ġd own
à§ªà§ª à§ª
im it
à¦¿âĢĿ -
à§§à§¯à§¨ à§«
à§§à§¯à§¨ à§©
oo b
201 3
201 4
ĠF or
ĠL aw
Ġà¦ıà¦Ĩà¦ĩ à¦ĩà¦īà¦¬
Ġà¦¶à¦² à¦Ĺà¦¤
Ġà§§à§®à§ª à§¬
ig her
ĠH A
ĠH igher
Ġà¦Ĩà¦ķà¦¬ à¦°à¦ķ
à§§à§§à§ ®
ĠIn dia
ĠIn dian
tic le
ĠW ealth
Ġà¦°à¦ĩ à¦°à¦ĩ
Ãĳ à¦¤
à§ĩâĢĭ à¦¾
à§§à§¯à§© à§¬
à¦ħà¦ªà¦¹à¦°à¦£ à¦ķ
à¦ıà¦¨à¦ıà¦² à¦ı
à§ĭ... âĢĻà¥¤
à§¬à§Ń à§®à§¯
Ġà§¯à§§à§ ¨
ĠG lobal
ĠÃ ľ
mahfuz kabir
af tabragib
à§§à§¯à§§à§ ®
ĠV elue
iz ation
fer ence
Ġà¦¬à¦°à¦¬ à¦Ł
Ġà¦ıà¦¸à¦ıà¦® à¦ıà¦¸à¦Ł
over eign
à¦ıà¦Ĩà¦ĩ à¦ĩà¦īà¦¡
our nal
ys tem
Ġà¦ĩà¦¤à¦° à¦ľà¦¨
ear ch
Ġk ill
à§§à§¯à§¦ à§¬
Ġà¦Ĩà¦ĩà¦ıà¦® à¦ĩà¦¡
Ġsa w
Ġsa iful
Ġà¦ıà¦«à¦ıà¦¸ à¦ıà¦®
à¦Ĩà¦²à¦¬à¦¦à¦° à¦°
Ġi de
ism iss
ug h
ight ning
à¦°à¦Ĩ à¦¨à¦ķ
à¦°à¦«à¦° à¦«
duc t
ĠPro ject
Ġà¦ıà¦ıà¦¸ à¦Ĩà¦ĩà¦¯
à§Ģ... à¥¤
iss ion
res ident
sp erity
Ġju dic
Ġà¦Ńà¦ľ à¦ķà¦Ł
Ġà¦Ĩà¦ĩà¦ıà¦« à¦Ĩà¦ĩà¦¸
ĠCom m
ĠCom munic
olog ical
erv ation
ex t
pre ss
ĠCo de
ES H
out amroy
à¦ķmahfuz er
ny times
à¦īà§İ à¦ªà¦²
Ġà¦ıà¦²à¦ĩ à¦ıà¦®à¦ĵ
à§¯à§¯à§ ¯
11 22
fess e
lus ive
Ġà¦¹à¦°à¦Ĺ à¦Ļ
arch ive
tiv ity
ĠCent ral
riv ate
ibra him
Ġbas ic
fra struc
shan tonabi
tin yur
Ġag ainst
olu tion
ĠDem ocra
ass ination
brac u
lut ful
Ġni r
Ġmus t
Ġà¦ļà¦®à¦ļ à¦®
Ġfo uzul
ĠApr il
ĠEth ic
forma tion
echn ology
ĠEng lish
rjew el
vir on
à¦²à¦«à¦¤ à¦Ĺà¦ŀ
à¦ĩà§İ à¦¤à¦ľ
Ġà¦®à¦¸à¦® à¦ĩà¦²
Ġà¦ĩà¦ı à¦ĵà¦°
à¦Ĺà¦²à¦¡à¦Łà¦ķ à¦®à¦¡à¦Łà¦¬
rame work
thys optor
Ġà§§à§¨à§©à§ªà§« à§¬à§Ńà§®à§¯
Ġwhic h
Ġjudic iary
ĠCommunic ations
frastruc ture
tinyur l
thysoptor shi
! à¥¤âĢĻ
! âĢĿ
" ;
% âĢĻ
' s
' à¥¤
) }
) âĢĺ
) ]à¥¤
/ -
/ >
0 4
1 7
1 8
1 10
2 5
2 7
2 9
6 6
7 9
9 4
? _
A M
A l
A m
C D
C G
C O
C Q
D i
D ESH
E N
E lec
E ff
E ACE
F ac
G LA
H E
H uman
I F
J ac
L R
M y
N O
P O
P ar
P resident
R O
S S
S ul
W hy
a ha
a ra
a mr
a ter
a tic
a pp
b is
b and
b ardhan
b ank
c c
c il
c ri
c ation
c tor
c to
c ip
d s
e o
e am
f l
f y
f ar
g a
g h
g s
g an
g ab
g ram
g outamroy
h p
h al
h sohrab
h ys
i i
i q
i ma
i ul
i ew
i ence
j k
j p
k b
k hok
l es
l ood
m n
m y
m ocracy
m owdudur
n on
o y
o om
o und
p u
p en
p se
p ost
p end
p ower
p hic
r an
r it
r ity
r gan
s j
s n
s y
s ho
s tic
s up
s ina
t t
t v
t ro
t as
t rac
u is
u es
u el
u age
v es
v ing
w e
w heed
w sj
x y
y mp
z i
z ip
Â į
Ã į
Å ³
Ġ 6
Ġ 9
Ġ ..
Ġ il
Ġ ?âĢĻ
Ġ ra
Ġ !âĢĻ
Ġ maj
Ġ du
Ġ )-
Ġ ent
Ġ 195
Ġ im
Ġ 15
Ġ protik
Ġ 2003
Ġ bir
Ġ 78
Ġ manik
Ġ 2008
Ġ 2009
Ġ watch
à¦¾ (
à§ĩ (
à§ĩ âĢĺ
à§ĩ âĢĿà¥¤
à¦° à¦ĸà¦¨
à¦° à¦ī
à¦° à¦¨à¦¤
à¦° à¦Ĩà¦°
à¦° à¦ıà¦®à¦¨
à¦° à¦Ĩà¦ªà¦¨
à¦° à¦¡à¦¸
à¦° à¦ıà¦ķà¦ľà¦¨
à¦° à¦Ĳà¦ķ
à¦° fmainuddin
à§į /
à§į à¥¤âĢĻ
à§į ...
à¦¿ à§į
à¦¿ ]à¥¤
à¦¿ ïģ®
à¦¨ à¦ķà¦Ł
à¦¨ à¦®à¦²
à¦¨ à¦¨à¦¯
à¦¨ à¦¹à¦°
à¦¨ à¦²à¦¬
à¦¨ à¦īà¦¨
à¦¨ à¦ľà¦¯
à¦¨ à¦ĸà¦¯
à¦¨ à¦Ĩà¦ĩà¦¨
à¦¨ à¦ħà¦Ń
à¦¨ à¦īà¦¤
à¦¨ à¦Ĩà¦Ĺ
à¦¨ à¦Ĩà¦¦
à¦¨ à¦Ĩà¦¤
à¦¨ à¦°à¦®à¦ľ
à¦¨ à¦ħà¦ªà¦°
à¦¨ à¦Ĩà¦ª
à¦¨ à¦Ĩà¦¯
à¦¨ à¦ıà¦¸à¦¡
à¦¨ à¦Ŀà¦°
à¦¨ à¦¸à¦°à¦«
à¦¨ à¦¬à¦¬à¦²à¦¯
à¦¨ à¦ħà¦¬à¦¸à¦°à¦ª
à¦¨ Åĵ
à¦¯ à¦ĵà¦¯
à¦¯ à¦¹à¦²
à¦¯ à¦Ńà¦¬
à¦¯ à¦¸à¦°
à¦¯ à¦§à¦¨
à¦¯ à¦Ĺà¦łà¦¨
à¦¯ à¦¹à¦¯
à¦¯ à¦ĭà¦£
à¦¯ à¦¸à¦¨à¦¦
à¦¯ à¦ªà¦°à¦®
à¦¯ à¦ĸà¦ļ
à¦¤ à¦¸à¦²
à¦¤ à¦¹à¦²
à¦¤ à¦²à¦®
à¦¤ à¦ªà¦Ł
à¦¤ à¦²à¦¸
à¦¤ à¦¸à¦Ń
à¦¤ à¦īà¦²
à¦¤ à¦°à¦£à¦¯
à¦¤ à¦¥à¦²
à¦¤ à¦¸à¦ļ
à¦¤ à¦¸à¦®à¦°
à¦¤ à¦·à¦Ł
à¦¤ à¦°à¦¤à¦®
à¦¤ à¦²à¦¤à¦®
à¦ķ à¦Ĩ
à¦ķ à¦¯à¦¨
à¦ķ à¦ªà¦¦
à¦ķ à¦ĩà¦¯
à¦ķ à¦¨à¦®
à¦ķ à¦īà¦¨
à¦ķ à¦¨à¦¦
à¦ķ à¦§à¦°
à¦ķ à¦¡à¦¨
à¦ķ à¦ļà¦Ł
à¦ķ à¦ıà¦ķ
à¦ķ à¦ĩà¦®
à¦ķ à¦Ĩà¦ĵà¦¯
à¦ķ sohrabhassan
à¦ķ akmzakaria
à¦ķ à¦ĺà¦£
à¦ķ muslima
à¦ķ purba
à¦ķ à¦ĺà¦°à¦Ĺ
à¦¬ à¦«à¦²
à¦¬ à¦Łà¦ķ
à¦¬ à§İà¦¸
à¦¬ à¦Ĺà¦²
à¦¬ à¦ĺà¦°
à¦¬ à¦ªà¦¨à¦ķ
à¦¬ à¦¤à¦®à¦¯
à¦¬ à¦Ĺà¦£à¦®
à¦¬ à¦ľà¦°à¦Ļ
à¦² à¦¬à¦¸
à¦² à¦ĩà¦¨
à¦² à¦¸à¦¬
à¦² à¦Ĺà¦¤
à¦² à¦°à¦ĩ
à¦² à¦¬à¦ª
à¦² à¦ıà¦ĩ
à¦² à¦Ĺà¦ķ
à¦² à¦¡à¦¨
à¦² à¦¶à¦¯
à¦² à¦¬à¦¨à¦ķ
à¦® à¦¬à¦¨
à¦® à¦°à¦¬
à¦® à¦īà¦¨
à¦® à¦Ĺà¦łà¦¨
à¦® à¦Ńà¦°
à¦® à¦ĺà¦¨
à¦® à¦Łà¦¬
à¦® à¦°à¦¸à¦¹
à¦® à¦ħà¦°
à¦® à¦ħà¦¬à¦¸à¦°à¦ª
Ġà¦ķ à¦¤à¦°
Ġà¦ķ à¦¹à¦²
Ġà¦ķ à¦¸à¦Ń
Ġà¦ķ à¦Ľà¦®
Ġà¦ķ à¦ĵà¦¸
Ġà¦ķ à¦²à¦¤à¦²
à§ģ à¦¾
Ġà¦¸ à¦ľà¦¨
Ġà¦¸ à¦°à¦®
Ġà¦¸ à¦ķà¦¦
Ġà¦¸ à¦ĩà¦¸
Ġà¦¸ à¦ıà¦«
Ġà¦¬ à¦ľà¦¨
Ġà¦¬ à¦¤à¦°
Ġà¦¬ à¦¬à¦°
Ġà¦¬ à¦¨à¦¤
Ġà¦¬ à¦¸à¦®
à¦¦ à¦ľà¦¨
à¦¦ à¦¶à¦ķ
à¦¦ à¦īà¦ľ
à¦¦ à¦īà¦¤
à¦¦ à¦°à¦¸à¦®
Ġà¦ª à¦¬à¦¨
Ġà¦ª à¦¹à¦°à¦£
Ġà¦ª à¦²à¦Ł
Ġà¦ª à¦ĩà¦¡
Ġà¦ª à¦ªà¦²
Ġà¦ª à¦ªà¦Ń
à§ĭ âĢĮ
à§ĭ âĢĻ-
à§ĭ âĢĭà§ĩ
à¥¤ |
à¥¤ âĢ¢
à¦¸ à¦°à¦®
à¦¸ à¦Ĩ
à¦¸ à¦ķà¦¬
à¦¸ à§İà¦ķ
à¦¸ à¦ľà¦°
à¦¸ à¦Ĩà¦°
à¦¸ à¦īà¦²
à¦¸ à¦Łà¦¬
à¦¸ à¦¦à¦¨à¦Ĺ
à¦¸ à¦īà¦²à¦ķ
à¦¸ à¦ĩà¦¨à¦Ńà¦¯
à¦Ł à¦¬à¦°
à¦Ł à¦¶à¦¨
à¦Ł à¦¨à¦¯
à¦Ł à¦°à¦¨
à¦Ł à¦²à¦¬
à¦Ł à¦ľà¦°
à¦Ł à¦ľà¦¯
à¦Ł à¦ĺà¦°
à¦Ł à¦ļà¦°
à¦Ł à¦ľà¦ª
à¦Ł à¦Ĩà¦īà¦Ł
à¦Ł à¦Ĩà¦ªà¦¦
Ġà¦¨ à¦ľà¦¨
Ġà¦¨ à¦¶à¦¨
Ġà¦¨ à¦ªà¦¤
Ġà¦¨ à¦®à¦ª
Ġà¦¨ à¦²à¦ĸ
Ġà¦¨ à¦²à¦¹
à§Ģ âĢĭà¦¿
à§Ģ âĢĿ.
à¦¶ à¦¸à¦¨
à¦¶ à¦ªà¦ķ
à¦¶ à¦¬à¦¹
à¦¶ à¦ļà¦°
à¦¶ à¦Ĩà¦¬à¦¦
Ġà¦Ĩ à¦£
Ġà¦Ĩ à¦ī
Ġà¦Ĩ à¦ªà¦ķ
Ġà¦Ĩ à¦«à¦²
Ġà¦Ĩ à¦īà¦ľ
Ġà¦Ĩ à¦ĵà¦ľ
Ġà¦Ĩ à¦īà¦Ĺ
Ġà¦Ĩ à¦īà¦Łà¦Ĺ
à¦ª à¦¯à¦¨
à¦ª à¦¸à¦²
à¦ª à¦¬à¦¤
à¦ª à¦²à¦®
à¦ª à¦¶à¦¨à¦¸
Ġà¦ı à¦Ľ
Ġà¦ı à¦°à¦¬
Ġà¦ı à¦Ĩà¦ĩà¦¸
Ġà¦ı à¦Ĩà¦ĩà¦Ł
Ġà¦ı à¦Ĩà¦ĩà¦Ĩà¦°
Ġà¦ı à¦Ĩà¦°à¦ĩ
Ġà¦ı à¦ıà¦«à¦ıà¦¸à¦ª
Ġà¦¹ à¦¶
Ġà¦¹ à¦®à¦¦
Ġà¦¹ à¦ķà¦¶
Ġà¦¹ à¦ĩà¦¸
Ġà¦¹ à¦Łà¦¸
Ġà¦¹ à¦°à¦ķà¦°
Ġà¦¹ à¦°à¦¬à¦Ľà¦°
à¦Ľ à¦¹
à¦Ľ à¦«
à¦Ľ à¦¨à¦¯
à¦Ľ à¦¨à¦ķ
à¦Ľ à¦§à¦°
à¦Ľ à¦²à¦Ń
à¦Ľ à¦¦à¦Ł
à¦ĩ à¦§
à¦ĩ à¦¶à¦¨
à¦ĩ à¦²à¦¨
à¦ĩ à¦¬à¦²
à¦ĩ à¦¸à¦¦
à¦ĩ à¦¶à¦ķ
à¦ĩ à¦¹à¦¤
à¦ĩ à¦ĸà¦²
à¦ĩ à¦ĸà¦¤
à¦ĩ à¦¬à¦¤
à¦ĩ à¦¸à¦°à¦ķ
à¦ĩ à¦Ĩà¦ĩ
à¦ĩ à¦ľà¦¸
à¦ĩ à¦ľà¦ķ
à¦ĩ à¦ªà¦¡
à¦ĩ à¦Ĺà¦¨
à¦ĩ à¦¹à¦ķ
à¦ĩ à¦¶à¦ª
à¦ĩ à¦ĸà¦¸
à¦ĩ à¦ĩà¦īà¦°
à¦ĩ à¦ĵà¦¸
à¦ĩ à¦ıà¦ª
à¦ĩ à¦ıà¦ĵ
à¦· à¦¬à¦¨
à¦· à¦ĺà¦°
à¦· à¦²à¦Ĺ
à¦· à¦ļà¦°
à¦· à¦°à¦¸à¦®
Ġà¦¦ à¦Ł
Ġà¦¦ à¦ªà¦¦à¦ª
Ġà¦¤ à¦¶
Ġà¦¤ à¦¨à¦¤
Ġà¦¤ à¦ķà¦²
Ġà¦¤ à¦ķà¦°à¦£
Ġà¦¤ à¦¹à¦¨
Ġà¦¤ à¦Ĩà¦¤
Ġà¦¤ à¦Ľà¦²
Ġà¦¤ à¦ĵà¦¸
à¦Ĺ à¦®à¦°
à¦Ĺ à¦Ĺà¦°
à¦Ĺ à¦¨à¦Ł
à¦Ĺ à¦¬à¦¹
à¦Ĺ à¦ķà¦°à¦£
à¦Ĺ à¦§à¦°
à¦Ĺ à¦ļà¦°
à¦Ĺ à¦°à¦¸à¦®
à¦Ĺ à¦¨à¦¬à¦¦
Ġà¦® à¦Ľ
Ġà¦® à¦¸à¦¹
Ġà¦® à¦ĩà¦¯
Ġà¦® à¦ĩà¦²
Ġà¦® à¦ĩà¦Ł
Ġà¦® à¦ķà¦¶
Ġà¦® à¦Łà¦²
Ġà¦® à¦ĺà¦Ł
Ġà¦® à¦£à¦ķ
Ġà¦® à¦¶à¦°
Ġà¦® à¦īà¦¤
Ġà¦® à¦ĵà¦¸
Ġà¦® à¦¶à¦ķà¦ķ
Ġà¦® à¦°à¦®à¦°
à¦¼à§ĩ à¦Ĥ
à¦¼à§ĩ à¦ģ
à¦¼à§ĩ âĢĿ
à¦¼à§ĩ !âĢĻ
à¦ľ à¦ªà¦ķ
à¦ľ à¦²à¦¤
à¦ľ à¦ķà¦¬
à¦ľ à¦¬à¦¹
à¦ľ à¦ħà¦¨
à¦ľ à¦Ĺà¦¦
à¦ľ à¦¬à¦¨à¦¬
à¦ľ à¦«à¦«à¦°à¦¨à¦Ĺà¦°
Ġà¦ķà¦° à¦°
Ġà¦ķà¦° à¦¸à¦®
à¦§ à¦§
à¦§ à¦¤à¦°
à¦§ à¦¤à¦®
à¦§ à¦ķà¦¬
à¦§ à¦¬à¦¹
à¦§ à¦¸à¦Ń
à¦§ à¦¬à¦¸à¦¹
Ġà¦ħ à¦ĩ
Ġà¦ħ à¦°à¦®
Ġà¦ħ à¦¹à¦²
Ġà¦ħ à¦²à¦¬
Ġà¦ħ à¦ĩà¦²
Ġà¦ħ à¦°à¦£à¦ķ
à¦ļ à¦°à¦¬
à¦ļ à¦¶à¦ķ
Ġà¦¯ à¦ļ
Ġà¦¯ à¦¹
Ġà¦¯ à¦ĵ
à¦¥ à¦²à¦ķ
à¦¥ à¦°à¦ĵ
à¦¥ à¦ļà¦ķ
à¦¥ à¦°à¦¸à¦¹
à¦¥ à¦¡à¦ķ
à¦¹ à¦§
à¦¹ à¦®à¦¤
à¦¹ à¦¤à¦®
à¦¹ à¦¨à¦¬
à¦¹ à¦¨à¦¸
à¦¹ à¦ĩà¦¤
à¦¹ à¦£à¦ķ
à¦¹ à¦¸à¦¹à¦¯
à¦¹ à¦¸à¦¹à¦ķ
à¦Ĥ à¦¿
à¦Ĥ à¥¤âĢĻ
à¦Ĥ ?âĢĻ
à¦£ à¦¤à¦¨
à¦£ à¦¬à¦¹
à¦£ à¦¬à¦ķ
à¦£ à¦¸à¦¤
à¦ĸ à¦¸à¦®
Ġà¦ľ à¦ĩ
Ġà¦ľ à¦ĵ
Ġà¦ľ à¦ľà¦¶
à¦ĵ à¦ªà¦¨
à¦ĵ à¦°à¦¸
à¦ĵ à¦Ŀ
à¦ĵ à¦°à¦ĩ
à¦ĵ à¦ıà¦ķ
à¦ĵ à¦°à¦¸à¦¹
à¦ĵ à¦ıà¦ĩà¦ļà¦¸
à¦¡ à¦Ļ
à¦¡ à¦¨à¦¬
à¦¡ à¦ĩà¦¯
à¦¡ à¦¦à¦²
à¦¡ à¦¨à¦¸
à¦¡ à¦¨à¦Ĺ
à¦¼à¦¾ à¦ģ
à¦Ń à¦¹
à¦Ń à¦°à¦ĵ
à¦Ń à¦²à¦Ĺ
à¦Ń à¦¬à¦¨à¦ķ
à§ĩà¥¤ ]
à§ĩà¥¤ |
à§ĩà¥¤ âĢĶ
à§ĩà¥¤ âĢ¢
Ġà¦° à¦ĵà¦¯
Ġà¦° à¦ļà¦²
Ġà¦° à¦§à¦°
Ġà¦° à¦¤à¦²
Ġà¦° à¦£à¦®
Ġà¦° à¦¸à¦°à¦ŀ
Ġà¦¶ à¦¤à¦°
Ġà¦¶ à¦ķà¦¦
Ġà¦¶ à¦¨à¦ķ
Ġà¦¶ à¦°à¦¨
Ġà¦Ĺ à¦ĩ
Ġà¦ĵ à¦¥
Ġà¦ĵ à¦Ļ
Ġà¦ĵ à¦¬à¦°
Ġà¦ĵ à¦¥à¦®
Ġà¦ĵ à¦°à¦ĵ
Ġà¦ĵ à¦°à¦Ĺ
Ġà¦ĵ à¦ªà¦¥
Ġà¦ĵ à¦ıà¦ıà¦¸
Ġà¦ĵ à¦Ĩà¦°à¦ıà¦¸
Ġà¦ĵ à¦ĵà¦ıà¦«
Ġà¦ļ à¦ĸ
Ġà¦ļ à¦°à¦¶
Ġà¦ļ à¦°à¦ļ
Ġà¦ļ à¦īà¦ķ
Ġà¦ļ à¦°à¦£à¦¬
Ġà¦ļ à¦°à¦£à¦Ĺ
Ġà¦ļ à¦°à¦£à¦®
Ġà¦Ń à¦¦à¦¨
Ġà¦Ń à¦Ĺà¦¨
Ġà¦Ń à¦²à¦Ń
Ġà¦ªà¦° à¦Ĺà¦£
Ġà¦ªà¦° à¦ľà¦Ĺà¦¤
Ġà¦ī à¦°à¦¬
Ġà¦ī à¦²à¦¨
Ġà¦ī à¦¶à¦ķ
Ġà¦ī à¦Ĺà¦²
Ġà¦ī à¦ĩà¦¸
Ġà¦ī à¦ĸà¦°
Ġà¦ī à¦¶à¦°
Ġà¦ıà¦ķ à¦¡
Ġà¦ıà¦ķ à¦°à¦ķ
Ġà¦ıà¦ķ à¦¤à¦°
Ġà¦ıà¦ķ à¦¸à¦¨
Ġà¦ıà¦ķ à¦·à¦Ł
Ġà¦ıà¦ķ à¦«à¦¸à¦²
Ġà¦¸à¦® à¦²
Ġà¦¸à¦® à¦Ĺà¦¤
Ġà¦¸à¦® à¦¸à¦®
Ġà¦¸à¦® à¦ªà¦¦
à¦°à¦¤ à¦Ĺ
à¦°à¦¤ à¦®à¦¦
à¦¾à¦ģ !
à¦¾à¦ģ )
à¦¾à¦ģ à§ĩ
à¦¾à¦ģ )à¥¤
à¦¾à¦ģ âĢĻ-
Ġà¦¥ à¦Ĺ
Ġà¦¥ à¦®à¦¨
Ġà¦¥ à¦ŀ
à¦°à¦ķ à¦¯
à¦°à¦ķ à¦¶
à¦°à¦ķ à¦¬à¦²
à¦°à¦ķ à¦®à¦¯
à§Ĥ à§Ĥ
à§Ĥ âĢĻ
à§Ĥ à¥¤âĢĻ
à§Ĥ âĢĮ
à§ĥ Âį
Ġà¦Ĩà¦® à¦ĩ
Ġà¦Ĩà¦® à¦¬à¦¸
Ġà¦Ĩà¦® à¦¸à¦¤
Ġà¦ħà¦¨ à¦ª
Ġà¦ħà¦¨ à¦ªà¦¨
à¦ł à¦¹
à¦ł à¦¤à¦²
à¦Ļ à¦¸
à¦Ļ à¦Ĺ
Ġà¦² à¦«
Ġà¦² à¦ķà¦¦
Ġà¦² à¦ĵà¦¹
Ġà¦Ľ à¦Ĺ
Ġà¦Ľ à¦°à¦«
à¦°à¦£ à¦ļ
à¦°à¦£ à¦¤à¦¨
à¦°à¦£ à¦¸à¦®
à¦ľà¦¨ à¦¸à¦ļ
à¦ľà¦¨ à¦¸à¦®à¦ķ
à¦¾à¦Ĥ âĢĶ
Ġà¦ľà¦¨ à¦¤à¦¨
Ġà¦¬à¦² à¦¨
Ġà¦¬à¦² à¦¬à¦ĩ
Ġà¦ĸ à¦®
Ġà¦ĸ à¦¨à¦ķ
Ġà¦ĸ à¦²à¦¸
Ġà¦ĩ à¦·
Ġà¦ĩ à¦¨à¦¤
Ġà¦ĩ à¦¨à¦¬
Ġà¦ĩ à¦ķà¦¸
Ġà¦ĩ à¦Łà¦¬
Ġà¦ĩ à¦Ĩà¦ĩà¦ıà¦°
Ġà¦ĩ à¦ıà¦¸à¦Ĩà¦°
Ġà¦ĩ à¦¸à¦ķà¦¨
Ġà¦ĩ à¦ĵà¦¶
Ġà¦ıà¦ĩ à¦¤
Ġà¦ıà¦ĩ à¦ľà¦¨
Ġà¦ıà¦ĩ à¦īà¦°
Ġà¦ıà¦ĩ à¦Łà¦¸
Ġà¦Ĩà¦° à¦¨
Ġà¦Ĩà¦° à¦ī
Ġà¦Ĩà¦° à¦ħ
à¦®à¦¨ à¦°
à¦®à¦¨ à¦¶
à¦®à¦¨ à¦ª
à¦®à¦¨ à¦¨à¦¶
Ġà¦§ à¦°à¦ķ
à¦ªà¦° à¦Ł
à¦« à¦Ń
à¦« à¦¸à¦ķ
à¦« à¦Łà¦ķ
à¦« à¦Ĩà¦®
à¦« à¦¢
à¦« à¦Łà¦®
à¦« à¦Łà¦¸
à¦« à¦°à¦Ĺà¦ŀ
à¦ĸà¦¨ à¦¯
à¦ĸà¦¨ à¦¸
à¦ĸà¦¨ à¦¨à¦ķ
à¦ļà¦¨ à¦°
à¦ı à¦¤à¦¤
à¦ı à¦Ńà¦°
à¦ı à¦ıà¦¸à¦ª
Ġà¦ĺ à¦°à¦¸à¦¹
à¦ī à¦Ļ
à¦ī à¦ħ
à¦ī à¦ĩà¦°
à¦ī à¦ıà¦°
à¦ī à¦ıà¦ķ
à¦ī à¦¡à¦¸
à¦ī à¦Ĩà¦ĩà¦ª
à¦ī à¦ıà¦¤
à¦ī à¦ıà¦ª
à¦ī à§İà¦¸à¦°
à¦ī à¦ıà¦¸à¦ı
à¦ī à¦ıà¦²à¦ı
à¦¿à¥¤ (
à¦¿à¥¤ ]
à¦¿à¥¤ à¥¤âĢĻ
à¦¤à¦° à¦°
à¦¤à¦° à¦ľà¦¨
à¦¬à¦¸ à¦¶à¦°
âĢĻ (
âĢĻ âĢĺ
âĢĻ âĢĻà¥¤
Ġà¦Ł à¦®à¦¸
Ġà¦Ł à¦²à¦¬
Ġà¦Ł à¦ĩà¦Ł
Ġà¦Ł à¦²à¦Ľ
à¦¾. !)
à¦¼à¦¿ à§ĩ
à¦¼à¦¿ ?âĢĻ
à¦¼à¦¿ âĢĻâĢĶ
à¦¬à¦° à¦¯
à¦¬à¦° à¦«
à¦¬à¦° à¦¨à¦ķ
à¦ŀ à¦¨
à¦ŀ à¦¬
à¦ŀ à¦Ń
Ġà¦¸à¦¬ à¦¹
Ġà¦¸à¦¬ à¦²à¦¦
Ġà¦®à¦¨ à¦¬
Ġà¦®à¦¨ à¦Ĺ
Ġà¦®à¦¨ à¦¨à¦ļà¦°
à¦¬à¦¨ à¦²
à¦¬à¦¨ à¦°à¦¤
à¦¬à¦¨ à¦ľà¦¨
à¦¬à¦¨ à¦°à¦¸
à¦¬à¦¨ à¦Ĺà¦łà¦¨
à¦¬à¦¨ à¦¨à¦¦
à¦¬à¦¨ à¦ªà¦£
à¦¬à¦¨ à¦¤à¦ļ
à§İ à¦°
Ġà¦Ĩà¦² à¦¨
Ġà¦Ĩà¦² à¦īà¦¦
à¦ªà¦¨ à¦°à¦¤
à¦ªà¦¨ à¦ķà¦°
à¦®à¦¤ à¦¯
à¦®à¦¤ à¦ĵà¦¯
à¦®à¦¤ à¦Ĺà¦£
Ġà¦Ĩà¦¸ à¦°à¦Ĺ
à¦°à¦® à¦Ļ
à¦°à¦® à¦¹à¦²
à¦°à¦® à¦¬à¦¹
à¦°à¦® à¦¸à¦ļ
à§Į à¥¤
à§Į âĢĶ
Ġà¦ķà¦® à¦¦
à¦ķà¦° à¦¸
à¦ķà¦° à¦¶
à¦ķà¦° à¦¨à¦ľ
à¦ķà¦° à¦ļà¦Ĺ
Ġà¦¦à¦² à¦ĵà¦¯
à¦ĩà¦¨ à¦¹
à¦ĩà¦¨ à¦«à¦°
à¦ĩà¦¨ à¦Ĩà¦ª
à¦ĩà¦¨ à¦Ńà¦²
à¦°à¦¬ à¦®
à¦°à¦¬ à¦Ł
à¦°à¦¬ à¦ľ
à¦°à¦¬ à¦¹à¦¨
Ġà¦Ĩà¦Ĺ à¦°
Ġà¦Ĩà¦Ĺ à¦¤à¦¦
à¦¶à¦¨ à¦§
à¦¶à¦¨ à¦ľà¦¨
à¦¶à¦¨ à¦¸à¦ķ
à¦¶à¦¨ à¦¤à¦¤
à¦¸à¦¬ à¦ŀ
à¦¸à¦¬ à¦¹à¦°
à¦¿. âĢĺ
Ġà¦ħà¦° à¦¹à§İ
à¦°à¦¸ à¦¡
à¦°à¦¸ à¦¹à¦ķ
à¦ĺ à¦¯
à¦ĺ à¦°à¦ª
à¦ĺ à¦¬à¦¤
à¦ĺ à¦Łà¦¤
à¦ĺ à¦°à¦¸à¦¹
à¦·à¦£ à¦ľ
à¦Ĩ à¦ĵ
à¦Ĩ à¦Ń
à¦Ĩ à¦¨à¦¤
à¦Ĩ à¦¬à¦¶
à¦Ĩ à¦Ĺà¦²
à¦Ĩ à¦ľà¦Ł
à¦Ĩ à¦¹à¦¯
à¦Ĩ à¦ĸà¦¬à¦°
à¦Ĩ à¦®à¦¤à¦²
à¦Ĩ à¦¹à¦¤à¦¦
Ġà¦Ĩà¦¨ à¦¡à¦ķ
à¦²à¦¨ à¦°
à¦²à¦¨ à¦Ń
à¦¼à§ĭ ;
à¦¼à§ĭ à¦Ĥ
Ġà¦¡ à¦¡
Ġà¦¡ à¦¬à¦¸à¦¨
à¦°à¦¶ à¦¯
Ġ( ?
Ġ( à§į
Ġ( âĢĻ
Ġ( ...
Ġ( -)
Ġà¦ıà¦Ł à¦²
à¦°à¦¯ à¦¦
Ġà¦ļà¦² à¦Ł
Ġà¦®à¦¤ à¦²
Ġà¦¬à¦° à¦¦à¦ĸà¦²
à¦¿à¦Ĥ âĢĿ
à¦¯à¦® à¦®
à¦¯à¦® à¦ľà¦Ĺà¦¤
Ġà§¨à§¦ à§¬à§¦
Ġà§¨à§¦ à§©à§®
Ġà§¨à§¦ à§©à§¬
à¦¸à¦¨ à¦ªà¦¤
à¦¸à¦¨ à¦¸à¦®
à¦¸à¦¨ à¦¸à¦®à¦¸
à¦°à¦¥à¦® à¦ªà¦¤
Ġà¦Ĺà¦£ à¦Ĩà¦¨
Ġà¦Ĺà¦£ à¦Ĳà¦ķ
Ġà¦¸à¦¹ à¦ªà¦°
Ġà¦¸à¦¹ à¦ļà¦°à¦¦
à¦°à¦¦ à¦¹
à¦°à¦§ à¦°à¦ķ
à¦°à¦§ à¦°à¦ĵ
à¦°à¦§ à¦°à¦¸à¦¹
à¦·à¦ķ à¦¬à¦²
à¦·à¦ķ rushad
à¦°à¦¹ à¦¨
à¦°à¦¹ à¦ļ
à¦°à¦¹ à¦¸à¦¹à¦ķ
à¦¯à¦¬ à¦Ļ
à¦¯à¦¬ à¦ŀ
à¦¯à¦¬ à¦Ľà¦°
à¦¯à¦¬ à¦ĩà¦Ł
à¦¤à¦¬ à¦²
à¦¤à¦¬ à¦¦
à¦¤à¦¬ à¦Ł
à¦ªà¦ķ à¦®
à¦ªà¦ķ à¦Ł
à¦ªà¦ķ à¦Ĺ
à¦ªà¦ķ à¦²à¦ķ
à¦ªà¦ķ à¦°à¦£à¦¸
Ġà¦ħà¦¸ à¦«
à¦ķà¦² à¦Ń
Ġà¦¢ à¦²à¦ķ
Ġà¦¬à¦¨ à¦¯
Ġà¦¬à¦¨ à¦Ľ
Ġà¦ħà¦¬à¦¸ à¦°à¦¬
Ġà¦ħà¦¬à¦¸ à¦°à¦Ĺ
Ġà¦ĵà¦ªà¦° à¦Ł
à¦Ŀ à¦¬à¦°
à¦Ŀ à¦²à¦¸
à¦®à¦° à¦¨
à¦®à¦° à¦²
à¦®à¦° à¦Ł
à¦®à¦° à¦ĵ
à¦ķà¦¤ à¦ĵ
à¦²à¦ķ à¦¶
à¦²à¦ķ à¦ľ
à¦²à¦ķ à¦¹
à¦²à¦ķ à¦¶à¦ķ
à¦²à¦ķ à¦¬à¦¹à¦°
Ġà¦Ĩà¦¶ à¦ĸ
à¦Ĺà¦° à¦°
Ġà¦¸à¦¨ à¦ķ
Ġà¦¸à¦¨ à§İ
Ġà¦¶à¦¤ à¦®
Ġà¦¶à¦¤ à¦ľà¦²
à¦¤à¦® à¦¦
à¦¤à¦® à¦ŀ
Ġà¦Ĩà¦¦ à¦ª
Ġà¦Ĩà¦¦ à¦°à¦ĵ
Ġà¦Ĩà¦¦ à¦®à¦¬
Ġà¦Ĩà¦¦ à¦®à¦ª
à¦¼à§Ģ /
à¦¼à§Ģ )à¥¤
à¦¥à¦¨ à¦²
à¦¥à¦¨ à¦®
Ġà¦«à¦² à¦ķà¦Ł
à¦ıà¦¨ à¦ıà¦¬
à¦ıà¦¨ à¦Ĩà¦ĩà¦ı
à¦ıà¦¨ à¦ıà¦¨à¦¸
à¦ıà¦¨ à¦Ĩà¦°à¦ĩ
à¦¹à¦² à¦¦
à¦¹à¦² à¦¹
à¦¨à¦¬ à¦ªà¦¤
à¦¨à¦¬ à¦¶à¦ķ
à¦¨à¦¬ à¦Ĺà¦ł
à¦°à¦ļ à¦¯
à¦¸à¦¦ à¦²
à¦¸à¦¦ à¦®
à¦¸à¦¦ à¦®à¦¨
à¦¸à¦¦ à¦ªà¦¨
Ġà¦ħà¦¤ à¦ĸ
Ġà¦ıà¦¤ à§İ
à¦¶à¦ķ à¦Ĺ
à¦¶à¦ķ à¦®à¦¨
à¦¶à¦ķ à¦®à¦¹à¦²
Ġà¦ıà¦¸ à¦ľ
Ġà¦ıà¦¸ à¦ħ
Ġà¦ıà¦¸ à¦Ĩà¦°
Ġà¦ıà¦¸ à¦ĩà¦ī
Ġà¦ıà¦¸ à¦ıà¦¸à¦ıà¦«
Ġà¦ıà¦¸ à¦ĵà¦Ł
Ġà¦ıà¦¸ à¦ıà¦®à¦ĵ
à¦¨à¦¨ à¦Ń
à¦¨à¦¨ à¦¸à¦¹
Ġà¦ĩà¦ī à¦Ń
Ġà¦ĩà¦ī à¦ıà¦ĩà¦ļà¦ıà¦¨à¦¡à¦¬
Ġà¦§à¦°à¦¨ à¦Ń
à¦¸à¦® à¦ª
à¦¹à¦¤ à¦²
à¦Ńà¦¬ à¦ĺ
à¦Ńà¦¬ à¦®à¦¯
à¦°à¦¹à¦£ à¦¸à¦®
à§ĭ. /
Ġà¦ł à¦²
Ġà¦ł à¦ª
à¦ļà¦² à¦®à¦¤
Ġà¦ıà¦ķà¦ľà¦¨ à¦®
à¦¹à¦° à¦°à¦®
à¦¦à¦° à¦ĸ
à¦¯à¦¤ à¦¦
à¦¯à¦¤ à¦Ń
à¦¸à¦¹ à¦¬
à¦¸à¦¹ à¦¸à¦®
à¦ĸà¦² à¦®
à§ĩ? /
à¦Ĺà¦£ à¦¤à¦²
à¦Ĺà¦£ à¦ķà¦£
à¦Ĺà¦£ à¦Ńà¦¬à¦¨
à¦®à¦ķ à¦¨
Ġà§© à§¯à§Ń
Ġà¦¸à¦¤ à¦¤à¦ĩ
à§ģà¦ģ âĢĻ
à¦¨à¦ķ à¦¨
Ġà¦¾ âĢĵ
Ġà¦¾ âĢĻà¥¤
à¦ķà¦¬ à¦¦
Ġà¦¬à¦¹ à¦°à¦ķ
à¦ħ à¦¥
à¦ħ à¦®à¦¨
à¦ħ à¦ķà¦°
à¦ħ à¦¶à¦¨
à¦ħ à¦Ĺà¦£
à¦ħ à¦¯à¦¥
à¦ħ à¦¬à¦¨à¦¤
à¦ħ à¦ªà¦¦à¦¸
à¦¦à¦ķ à¦°à¦ķ
à¦¦à¦ķ à¦¸à¦¨
Ġà¦Ĩà¦ªà¦¨ à¦ķ
Ġà¦Ĩà¦ªà¦¨ à¦ľà¦¨à¦ĵ
à¦°à¦¨ à¦Ĺ
à¦°à¦¨ à¦ĵ
à¦°à¦¨ à¦¸à¦¹
à§¨ à§§à§ª
à§¨ à§ªà§¦
à¦°à¦² à¦ĩ
Ġà¦ķà¦² à¦Ĺ
Ġà¦ķà¦² à¦¸à¦ķ
Ġà¦ķà¦² à¦®à¦ļ
Ġà¦ķà¦² à¦®à¦ĵ
à¦¸à¦° à¦Ĺ
à¦¬à¦ª à¦²
Ġà¦¬à¦¸ à¦«à¦°
Ġà¦¸à¦¦ à¦¦
Ġà¦¸à¦¦ à¦°à¦¸à¦¹
à¦²à¦¬ à¦®
à¦²à¦¬ à¦¶
à¦ĩà¦² à¦²
à¦ĩà¦² à¦ĩ
à¦ĩà¦² à¦ĵ
à¦ĩà¦² à¦°à¦ķ
Ġà¦ľà¦¨à¦Ĺà¦£ à¦¬
à¦°à¦ª à¦Ĩà¦īà¦Ł
à¦¸à¦ķ à¦ľ
à¦¦à¦² à¦®à¦¤à¦¨
à¦¤à¦ķ à¦®
à¦¤à¦ķ à¦ļ
à¦§à¦¨ à¦²
à¦§à¦¨ à¦ķà¦²
à¦§à¦¨ à¦Ĩà¦¨
à¦§à¦¨ à¦¶à¦¶
Ġà§ĩ :
à¦ıà¦¸ à¦ıà¦¨
à¦ıà¦¸ à¦ıà¦°
à¦ıà¦¸ à¦Ĩà¦ĩà¦ı
à¦ıà¦¸ à¦Ĩà¦ĩà¦Ł
à¦ıà¦¸ à¦ıà¦®à¦ıà¦¸
à¦ıà¦¸ à¦ıà¦¨à¦Ń
Ġà§ª à§§à§ª
Ġà¦Ĩà¦¤ à¦¶
Ġà§§à§¦ à§¯à§¬
à§« à§ªà§¦
à¦Łà¦ķ à¦¯
à¦Łà¦ķ à¦ĩ
à§Ģà¥¤ ...
à§Ģà¥¤ âĢĿâĢĻ
à¦ĩà¦ķ à¦¸à¦¹
à¦ĩà¦° à¦°
à¦ĩà¦° à¦¡
à¦ĩà¦° à¦Ļ
à¦¬à¦¦ à¦¦
à¦¬à¦¦ à¦ĵ
à¦īà¦¨ à¦ĩ
à¦·à¦® à¦¦
à¦¨à¦¸ à¦ļà¦°
Ġà¦¦à¦°à¦ķ à¦·
à¦Ĺà¦łà¦¨ à¦Ń
à¦Ĺà¦łà¦¨ à¦Ĺà¦¤
à¦¨à¦° à¦Ļ
à¦¨à¦° à¦ĵà¦¯
Ġà¦¿ ?
Ġà¦¿ âĢĶ
Ġà¦¿ )à¥¤
à¦¼à§ĩà¥¤ ...
Ġà¦¶à¦¹à¦° à¦°à¦ķ
à¦¬à¦ķ à¦Ĺ
à¦¨à¦¦ à¦¯
à¦¨à¦¦ à¦¸
à¦¤à¦¤ à¦ĩ
à¦¤à¦¤ à¦Ń
à§© à§§à§®
à§© à§«à§¦
à§© à§ªà§®
à§© à§ªà§¨
Ġà¦ħà¦Ĺ à¦ªà¦°
Ġà§¬ à§§à§¨
Ġà§¬ à§§à§ª
Ġà§¬ à§¯à§ª
Ġà¦¨à¦¦ à¦¬
Ġà¦¨à¦¦ à¦¸
à¦§à¦¤ à§İà¦ªà¦°à¦¤
Ġà§Ń à§¯à§¬
Ġà§Ń à§¯à§§
Ġà§Ń à§¯à§©
à¥¤âĢĻ :
à¥¤âĢĻ âĢĻ
à¦¯à¦¸ à¦°à¦ķ
Ġà¦Ĩà¦ĩ à¦ĵà¦°
Ġà¦Ĩà¦ĩ à¦Ĩà¦ĩà¦ıà¦®
Ġà¦Ĩà¦ĩ à¦ĩà¦īà¦¡
Ġà¦Ĩà¦ĩ à¦ıà¦¨à¦ıà¦¸
Ġà¦Ĩà¦ĩ à¦ıà¦®à¦ĵ
Ġà¦Ĩà¦ĩ à¦Ĩà¦ĩà¦ıà¦¸à¦ıà¦¸
Ġà¦Ĩà¦ĩ à¦Ĩà¦ĩà¦Ĩà¦ĩà¦Ł
à¦ķà¦¸ à¦ķà¦²
à¦·à¦¦ à¦¬
à¦®à¦¦ à¦Ĩà¦®
à§¬ à§¨à§®
à§¬ à§©à§¨
à¦Ĩà¦® à¦Ĺ
à¦Ĩà¦® à¦²à¦¯
Ġà¦Ĳ à¦¹
à¦®à¦¬ à¦¯
à¦¶à¦² à¦¸à¦¹
Ġà¦ħà¦ķ à¦ª
à¦¼à§ģ )
à¦¼à§ģ âĢĶ
Ġà¦Ĩà¦®à¦² à¦ĩ
Ġà¦Ĩà¦®à¦² à¦ľ
Ġà¦Ĩà¦®à¦² à¦Ń
à¦ĩà¦Ł à¦¦
à¦ĩà¦Ł à¦¸à¦¹
à¦ıà¦ĩ à¦¬
à¦ıà¦ĩ à¦®
à¦°à¦Ĺ à¦ķ
à¦°à¦Ĺ à¦Ł
à¦¾âĢĻ âĢĵ
Ġà§® à§§à§¬
Ġà§® à§¯à§®
Ġà§® à§¯à§¨
Ġà§® à§¯à§«
à¦¯à¦ª à¦Łà¦Ł
Ġà¦¦à¦¶à¦ķ à¦ĩ
Ġà¦¦à¦¶à¦ķ à¦ĵ
à¦ķà¦ľà¦¨ à¦ķà¦Ń
à¦łà¦ķ à¦¨à¦¨
à¦łà¦ķ à¦¸à¦¹
Ġà¦Ĩà¦¸à¦¨ à¦¶
à¦¾? âĢĿ
à¦¼à¦¾à¥¤ )
Ġà¦ıà¦¨ à¦¶
Ġà¦ıà¦¨ à¦°à¦¨
Ġà¦ıà¦¨ à¦ıà¦¬
Ġà¦ıà¦¨ à¦Ĩà¦ĩà¦¸
Ġà¦ıà¦¨ à¦Ĩà¦ĩà¦ı
Ġà¦ıà¦¨ à¦Ĩà¦ĩà¦ıà¦¸à¦ª
à¦¥à¦ķ à¦¨
à¦¥à¦ķ à¦ķà¦°à¦£
Ġà¦¬à¦¦à¦² à¦Ł
à§¦à§¦ à§§
à§¦à§¦ à§¦à§¦
à¦Ĺà¦² à¦¶
à¦Ĺà¦² à¦«
à¦ķà¦°à¦£ à¦¯
à¦ķà¦°à¦£ à¦Ĺà¦¤
Ġà¦ĺà¦° à¦ľ
Ġà¦ĺà¦° à¦¬à¦¨
à¦Ĩà¦ĩ à¦¸à¦²
à¦Ĩà¦ĩ à¦Ĩà¦ĩ
à¦Ĩà¦ĩ à¦ĩà¦Ĩà¦°
à¦Ĩà¦ĩ à¦ıà¦ĩà¦ļà¦ıà¦¸
Ġà¦Ĩà¦ª à§İ
à¦¯à¦¥ à¦ĵ
à¦ªà¦¥ à¦Ń
Ġà§§à§« à§§à§®
om atic
à§Įà¦ģ à¦ģ
Ġà¦¦à¦ĸà¦² à¦ļ
à§ĩ- -
à¦¤à¦Ń à¦ķ
à§ĩà¥¤âĢĻ (
à§ĭ: âĢĺ
à¦ķà¦¶ à¦Ń
Ġà¦¬à¦ĩ à¦¹
Ġà¦¬à¦ĩ à¦¸à¦®
Ġà¦Ĺà¦² à¦Ĺà¦£
Ġà¦Ĺà¦² à¦¦à¦Ĺ
Ġà¦¹à¦ķ à¦¹
Ġà¦Ĩà¦ļà¦°à¦£ à¦¸à¦¹
à¦ĸà¦ķ à¦Ĺ
à¦ĸà¦ķ à¦ľ
à¦ĸà¦ķ à¦Ĺà¦£
à¦ĸà¦ķ hhintlbd
à¦¿) (
à¦¿) âĢĻ
Ġà¦īà§İà¦¸ à¦¬à¦¸
Ġà¦īà§İà¦¸ à¦¸à¦®
Ġà¦īà§İà¦¸ à¦¬à¦¸à¦¹
à¦ªà¦Ł à¦®
Ġà¦Ĩà¦¹ à¦¡
com e
ma d
ma g
ma tive
ma mun
à¦īà¦¦ à¦ª
Ġà¦· à¦Ĺ
Ġà¦§à¦¨ à¦ª
Ġà¦§à¦¨ à¦Ń
Ġà¦Ī à¦·à¦¦
à¦ĩà¦¸ à¦Ń
à¦īà¦Ł à¦²
Ġà¦ħà¦« à¦¨
Ġà¦ħà¦« à¦¸
Ġà¦ıà¦® à¦ĩ
Ġà¦ıà¦® à¦Ĩà¦°à¦¸
Ġà¦ıà¦® à¦ıà¦®à¦ıà¦¸
Ġà¦ıà¦® à¦ıà¦®à¦¸
Ġà¦ıà¦® à¦Ĩà¦°à¦¡
Ġà¦ıà¦® à¦ıà¦¨à¦ıà¦°
à¦¯à¦¤à¦® à¦ķ
à¦¯à¦¤à¦® à¦ĵ
à¦¹à¦°à¦£ à¦®
à¦°à¦®à¦£ à¦¶
à¦ľà¦® à¦¹
à¦ľà¦® à¦¹à¦²à¦ķ
Ġà¦Ńà¦¬à¦¨ à¦¨
Ġà¦Ńà¦¬à¦¨ à¦¬
à¦ıà¦® à¦ªà¦¨
à¦ıà¦® à¦ıà¦¬
à¦¿? âĢĿ
à¦ªà¦£ à¦¯
à¦ªà¦£ à¦®
à¦ªà¦£ à¦Ń
à¦ªà¦£ à¦¸à¦¹
à¦²à¦Ł à¦ª
à¦²à¦Ł à¦Ńà¦°
âĢĮ à¦¾
Ġà¦ľà¦² à¦¶
Ġà¦ľà¦² à¦¹
Ġà¦ľà¦² à¦ĺ
à¦ķà¦¨ à¦¡
à¦²à¦Ĺ à¦ª
à¦¹à¦¨ à¦ľ
Ġà§§à§® à§¯à§¬
Ġà§§à§® à§¦à§¦à§¦
Ġà§§à§® à§¯à§«
Ġà§§à§® à§Ńà§©
Ġà¦ıà¦ķà¦¦ à¦²à¦ķ
à¦¤à¦² à¦¹
à¦¤à¦² à¦¸à¦¹
à¦Ĩà¦° à¦¬à¦°
à¦Ĩà¦° à¦ħ
à¦Ĩà¦° à¦ıà¦ĩà¦ļ
à¦Ĩà¦° à¦ıà¦¸à¦ª
à¦ľà¦ķ à¦ĵ
à¦ľà¦ķ à¦¸à¦¹
il ed
à¦¸à¦Ń à¦¬à¦¨à¦ķ
Ġà§§à§ª à§©à§¦
Ġà§§à§ª à§§à§ª
Ġà§§à§ª à§¨à§«
Ġà§§à§ª à§¨à§¬
Ġà§§à§ª à§¨à§¯
Ġà¦«à¦° à¦ĵà¦¯
Ġà¦¦à¦®à¦¨ à¦ĩ
à¦ķà¦Ĺ à¦Ń
à¦ľà¦§ à¦®
à¦¦à¦ª à¦¸
Ġà§§à§¬ à§¬à§¬
Ġà§§à§¬ à§¬à§Ń
à¦ĩà¦¡ à¦¦
à¦ĩà¦¡ à¦ĩ
à¦ĩà¦¡ à¦Ĺ
Ġà¦Ĩà¦¡ à¦īà¦ĩà¦¨
à¦īà¦² à¦«
à¦īà¦² à¦¸à¦¹
Ġà¦®à¦¸ à§İà¦ª
Ġà¦Ĩà¦Ł à¦¦à¦²
Ġà¦¨à¦ľ à¦°à¦ª
Ġà§§à§© à§¨à§«
Ġà§§à§© à§ªà§«
Ġà§§à§© à§ªà§¨
Ġà§«à§¦ à§©
Ġà§«à§¦ à§®
Ġà¦¸à¦«à¦² à¦¦
à¦ĩà¦¤ à¦ª
à¦ĺà¦¨ à¦¸à¦¹
à¦¸à¦°à¦£ à¦ĩ
à¦¸à¦°à¦£ à¦ĵ
Ġà¦°à¦¬ à¦ĵ
à¦ĩà¦ľ à¦Ĺ
à¦ĩà¦ľ à¦ľ
Ġà§ģ à¥¤
Ġà§ģ âĢĵ
à¦²à¦¦ à¦£
Ġà¦®à¦¹à¦² à¦¦
Ġà§§à§Ń à§¯à§®
Ġà§§à§Ń à§Ńà§«
Ġà§§à§Ń à§¯à§«
Ġà§§à§Ń à§Ńà§ª
Ġà§§à§Ń à§¬à§¬
Ġà§§à§Ń à§®à§§
à¦ıà¦« à¦ĵ
à¦ıà¦« à¦ĩà¦ľ
à¦ıà¦« à¦ıà¦¸à¦¬
Ġà¦īà¦ªà¦¦ à¦²à¦ķ
à¦¾; âĢĻ
Ġà¥¤ *
à¦¯à¦Ł à¦¨à¦¨à¦Ĺà¦°
Ġà¦ķà¦Ł à¦ķà¦Ł
à§įâĢĮ à§ģ
à§§à§¦ à§®
à¦¦à¦°à¦¬à¦¨ à¦ĺ
à¦¾: âĢĺ
à¦¤à¦°à¦£ à¦ªà¦°
Ġà¦ķà¦¨ à¦¡à¦®
à¦ıà¦ķ à¦ĺà¦°
Ġà¦īà¦¡ à¦ĵà¦¯
Ġà¦Ĩà¦²à¦® à¦Ĩà¦®à¦°
Ġà¦Ĩà¦¹à¦¤ à¦ķ
à¦Łà¦² à¦°
Ġà§¨à§¨ à§§à§¦
Ġà§§à§¦à§¦ à§¯
à¦Łà¦¬ à¦Ĺ
à¦ĩà¦® à¦®
à¦ĩà¦® à¦Ł
à¦¾! âĢĺ
à¦¾! âĢĻà¥¤
à¦¾! !!
à¦Łà¦¸ à¦ĵ
à¦ļà¦® à¦Ł
à¦Ī à¦¯
Ġà¦¤à¦² à¦¹
à¦¬à¦ľ à¦Ĺà§İ
Ġà¦¸à¦« à¦°à¦¨
à§ĩ: (
Ġà¦«à¦¸à¦² à¦¸à¦¹
à§§à§¯à§ §
Ġà§¬à§¦ à§¯
à¦īà¦ľ à¦ĵ
à¦¿à¥¤âĢĻ âĢĶ
à¦°à¦¬à¦² à¦ĵ
à¦¨à¦ľ à¦Ļ
Ġà§Ńà§¦ à§®
Ġà§Ńà§¦ à§¯
à¦¨à¦¶à¦¨ à¦¯
à¦¨à¦¶à¦¨ à¦®
à¦¶à¦¸ à¦«à¦°
Ġà¦¸à¦¨à¦¦ à¦¸à¦°
Ġà¦Ĩà¦ĸ à¦®
Ġà¦ıà¦ķà¦ķ à¦£
Ġà¦ħà¦¨à¦² à¦¬à¦°
à¦¿âĢĶ /
à¦¨à¦Ĺà¦° à¦Ń
à¦ıà¦² à¦ıà¦²
à¦ıà¦² à¦ĵà¦¸
à¦ĩà¦« à¦¬
à¦ĩà¦« à¦«
à¦ĩà¦« à¦°à¦®
à¦¦à¦¤ à¦ĵ
à¦¯à¦Ń à¦Ł
Ġà§®à§¦ à§¨
à¦¨à¦ľà¦Ł à¦¹
à¦Łà¦¦ à¦·
à¦ķà¦¶à¦¨ à¦ķ
à¦ķà¦¶à¦¨ à¦Ł
à¦ķà¦¶à¦¨ à¦¸à¦¹
à¦ĩà¦ī à¦ı
à¦ĩà¦ī à¦ıà¦®à¦ıà¦¨
à¦®à¦® à¦ŀ
Ġà§©à§« à§©
à¦¬à¦Ł à¦ĩ
al ue
à¦¾) ]
à¦¾) âĢĶ
à¦¡à¦² à¦ĩà¦¸
Ġà§¯à§¦ à§«
Ġà§¯à§¦ à§®
Ġà¦¸à¦¦à¦° à¦ªà¦¨
ho n
ho u
ho wdhury
à§ĩ) :
à¦Łà¦¬à¦² à¦ĵ
à¦¨à¦ľà¦¨ à¦ĵ
in k
in o
in s
in u
in ing
in dex
in formation
Ġà¦ıà¦ķà¦®à¦¤ à¦ĵ
à¦ħà¦° à¦ĵà¦¯
Ġà¦ıà¦« à¦ĩà¦Ł
Ġà¦ıà¦« à¦Ĩà¦ĩ
Ġà¦ıà¦« à¦Ĩà¦°à¦Ł
Ġà¦ıà¦« à¦ıà¦¸à¦ıà¦«
Ġà¦ıà¦« à¦ıà¦¸à¦ı
à¦Ĩà¦ªà¦¨ à¦ľà¦¨à¦¦
à¦ħà¦Ń à¦¦
Ġà¦ķà¦ª à¦ļ
à¦¨à¦®à¦¤ à¦¦
à¦¼âĢĻ âĢĵ
à¦¤à¦¶ à¦¶
ha m
ha ea
Ġà¦¶à¦ªà¦¥ à¦Ĺ
Ġà¦¶à¦ªà¦¥ à¦¬à¦¦
à¦ľà¦ªà¦¥ à¦Ĺ
à¦¬à¦£ à¦§
à¦¿! !
à¦¿! âĢĺ
à¦¿! !!
à¦ĩà¦ª à¦ĵ
ya h
ya ho
à¦ķà¦ª à¦¥à¦ķ
hoo d
à§¯à§ §à§
Ġà§ªà§« à§©
Ġà§ªà§« à§Ń
Ġà§ªà§« à§¯
ra y
ra zi
Ġà§«à§¦à§¦ à§¦
à¦Ĺà¦°à¦£ à¦¬
à¦Ĺà¦°à¦£ à¦Ł
Ġà¦«à¦°à¦® à¦¸
Ġà¦«à¦°à¦® à¦ĩ
Ġà¦«à¦°à¦® à¦ĵ
à¦ĺà¦® à¦¹à¦²
à¦¤à¦¸ à¦ĩà¦Ń
à¦°à¦¦à¦² à¦¸à¦¹
Ġà¦§à¦¸ à¦ĩ
Ġà§©à§¨ à§¦à§¦
à¦ļà¦°à¦£ à¦Ń
Ġà¦¨à¦Ĺ à¦°à¦ĵ
âĢį .
âĢį âĢĶ
Ġïģ¬ ïĢł
Ġà¦¹à¦¨à¦¨ à¦¨
on ado
à§©à§¦ à§ª
Ġà§¨à§¦à§¦à§¬ à§«
Ġà¦£ à¦¨
Ġà¦£ à¦¸
Ġà¦£ à¦¶
Ġà¦£ à¦ª
Ġà¦£ à¦Ĺà¦ŀ
Ġà¦¸à¦«à¦²à¦¤ à¦®
Ġà¦Ĺà¦£à¦Ń à¦¬à¦¨à¦ķ
Ġà¦ħà¦Ĺà¦£ à¦¤à¦¨
han if
Ġà§«à§Ń à§¨
Ġà§«à§Ń à§¨à§ª
Ġà§ªà§¨ à§¯
à¦®à¦Ń à¦ľà¦¨
er i
er gy
Ġà¦ĩà¦Ł à¦²à¦¸
Ġà¦Ĩà¦¬à¦¹ à¦Ł
Ġà§©à§¬ à§Ńà§ª
Ġà¦ĩà¦īà¦ıà¦¨ à¦ıà¦ĩà¦¡à¦¸
Ġà¦¬à¦¸à¦¨ à¦¹
Ġà¦ķà¦¬à¦° à¦Ĺ
Ġà¦ķà¦¬à¦° à¦ĵ
à¦īà¦® à¦ĸà¦¨
à¦¯à¦Łà¦¨ à¦ĩ
à¦¸à¦ĵ à¦¦
à¦¬à§İ à¦ĩ
Ġs c
Ġs u
Ġs al
Ġs on
Ġs mus
Ġs ec
Ġs tr
Ġs im
Ġs tar
à¦īà¦¡ à¦Ĺ
Ġà§Ńà§« à§Ń
Ġà§Ńà§« à§ª
Ġl e
Ġl à¦°
Ġl à¦¦
Ġl à¦¸
Ġl à¦ħà¦¨
Ġl à¦ıà¦Ł
Ġl ear
Ġl eg
Ġl ive
Ġl imit
à§§à§« à§ª
à¦ĭà¦£ à¦¦
Ġà¦ļà¦® à§İ
à¦¼à¦¾âĢĻ !
Ġà¦¨à¦«à¦² à¦ĵ
khan dk
à¦ļà¦ľà¦¨ à¦ĵ
mu r
Ġà§¬à§« à§©
Ġà§¬à§« à§ª
Ġà§«à§ª à§®
Ġà¦Ĩà¦ªà¦¸ à¦ªà¦¨
ro ss
ro up
ro ugh
à§ĭâĢĻ ?
à¦Ĺà¦« à¦²à¦ķ
Ġà§©à§Ń à§ª
Ġà¦ķà¦¦ à¦°à¦ķ
Ġà¦ķà¦¦ à¦°à¦ĵ
Ġà¦¼ à§Ģ
Ġà¦¼ à§ĩà¥¤
Ġà¦¼ à§ĩ.
Ġà¦ľà¦¬à¦° à¦ľ
Ġà§ªà§Ń à§¨
à§§à§¨ à§ª
à§§à§¨ à§¬
à§§à§¨ à§®à§«
à§§à§¬ à§¨
à§§à§¬ à§©
à§§à§¬ à§¬
à§§à§® à§«
à§§à§® à§¬
à§§à§® à§¨à§¦
à§§à§® à§Ńà§¦
à§§à§® à§¨à§¬
à§§à§® à§¯à§¦
à§§à§® à§¯à§®
à§§à§® à§«à§®
Ġà§ªà§ª à§§
Ġà§ªà§ª à§Ń
à¦Ĩà¦ľ à¦ĵà¦¯
um e
um bd
à¦ıà¦ķà¦ľà¦¨ à¦¸
à¦ıà¦ķà¦ľà¦¨ à¦ĵ
Ġà¦Ĩà¦Ĺà¦®à¦¨ à¦ĵ
à§§à§ª à§®
à§§à§ª à§Ń
à§ĭà¦Ĥ à¥¤
à¦¤à¦ļ à¦°à¦ķ
Ġà¦°à¦¹à¦®à¦¤ à¦ķ
Ġà¦°à¦¹à¦®à¦¤ à¦ª
à¦°à¦°à¦« à¦¸à¦¹
à¦ıà¦®à¦ĩ à¦ıà¦¤
Ġà¦īà¦ĩ à¦ł
Ġà¦ĵà¦ľà¦¨ à¦¬
ul f
ul l
à¦Ĩà¦¶ à¦¹
Ġà§ªà§¦à§¦ à§¦
Ġà¦°à¦£ à¦¸à¦ľ
à¦¨à¦ľà¦¨à¦ķ à¦ĵ
à§ģà¦Ĥ -
à§§à§Ń à§«
à§§à§Ń à§Ńà§¨
à§§à§Ń à§®à§¯
à§§à§Ń à§ªà§©
à¦°à¦£à¦¬ à¦²à¦¯
à¦¶à¦¸à¦¹ à¦ķ
wa ter
wa ys
Ġà¦Ĩà¦ķà¦¬à¦° à¦¨
à¦ķà¦ľ à¦®à¦ķà¦Ń
Ġà§¬à§ª à§¬
ti z
Ġà¦ħà¦ĺà¦Łà¦¨ à¦ĺà¦Łà¦¨à¦ªà¦Ł
ed i
Ġà§«à§¬ à§«
Ġà§«à§¬ à§®
Ġà§«à§¬ à§¬à§«
à¦¼à¦¿à¦Ĥ à¥¤
Ġà§®à§« à§§
Ġà§®à§« à§®
Ġà§®à§« à§Ń
Ġà§®à§« à§¬
Ġà§Ńà§¨ à§§
Ġà§Ńà§¨ à§¬
Ġà§Ńà§¨ à§¯
Ġà¦ľà¦Ĺà§İ à¦ĸ
Ġà¦ľà¦Ĺà§İ à¦ĵ
Ġà¦Ĩà¦īà¦Ł à¦¬
à¦ľà¦ĸà¦¬à¦° à¦ĩ
Ġà§¦ à§§à§¨
Ġà§¦ à§«à§«
à¦²à¦ªà¦¥ à¦Ĺ
à¦²à¦ªà¦¥ à¦ĵ
Ġà¦²à¦¬à¦£ à¦ªà¦¤
ak en
à¦¯à¦Łà¦ķ à¦¸
à¦¯à¦Łà¦ķ à¦¶
à¦¯à¦Łà¦ķ à¦ĵ
en tu
en ess
or ker
Ġà¦ļà¦²à¦¨ à¦¬à¦²à¦¨
Ġà§¬à§¨ à§Ń
mr im
Ġà¦īà¦ĩà¦² à¦¹
à¦ľà¦Ń à¦¸
Ġà§¬à§¬ à§§
à¦°à¦¹à¦¸à¦¨ à¦ĩ
à¦ĵà¦ĩ à¦¹
Ġà§¬à§® à§©
ba cho
à¦Ĩà¦ĩà¦ı à¦®à¦¸
Ġà¦®à¦¹à§İ à¦ĩ
à¦²à¦§à¦¨ à¦¸
à¦²à¦§à¦¨ à¦Ł
à¦²à¦§à¦¨ à¦ĵ
à¦Ĩà¦°à¦¬ à¦¦
gon g
Ġà§¯à§« à§ª
Ġà§¬à§Ń à§¨
Ġà§¬à§Ń à§¯
Ġà¦¬à¦°à¦ķ à¦¤à¦ª
Ġà§¬à§© à§«
Ġà¦Ĩà¦°à¦ıà¦¸à¦ıà¦¸ à¦ĩ
Ġà§¯à§¬ à§ª
Ġà¦ħà¦¸à§İ à¦Ń
à¦ĩà¦¶ à¦Ĺà¦£
Ġà¦ıà¦¹ à¦Ľ
20 30
à¦¯à¦¬à¦ĩ à¦¬à¦¹
à¦§à¦Ĺ à¦¯
du tuhin
Ġà§®à§Ń à§®
Ġà¦Ĩà¦ĩà¦ıà¦®à¦ıà¦« à¦ĵ
Ġà¦®à¦°à¦£ à¦ĸ
Ġà¦®à¦°à¦£ à¦ĺ
Ġà§¯à§Ń à§©
Ġà§Ńà§Ń à§¬
Ġà§Ńà§Ń à§¯
Ġà¦ħà¦Łà¦² à¦ĩ
Ġà§Ńà§® à§§
Ġà§Ńà§® à§©
Ġà§Ńà§® à§ª
à¦¥à¦¬à¦¹ à¦Ń
à¦¹à¦¤à¦Ń à¦®
Ġà§Ńà§ª à§§
Ġà§Ńà§ª à§©
Ġà§Ńà§ª à§ª
à¦Ĳ à¦ļ
Ġà§®à§© à§©
Ġà§®à§© à§®
Ġà§®à§© à§Ń
à¦ıà¦®à¦ĩà¦ı à¦¸à¦¹
Ġf ri
Ġf un
Ġf ail
tu n
tu al
ia s
ia tion
Ġo o
is e
is on
Ġà¦Łà¦® à¦Łà¦®
Ġà¦¬à¦¦à¦¨ à¦ľà¦°
Ġà§Ńà§¬ à§¨
Ġà§Ńà§¬ à§§
Ġà§Ńà§¬ à§Ń
Ġà§¯à§¨ à§¦
200 2
Ġà§®à§ª à§§
Ġà§®à§ª à§©
shi d
Ġà§®à§® à§Ń
à¦¼à¦¾) :
Ġà§®à§¬ à§¦
Ġà§®à§¬ à§¨
Ġà§®à§¬ à§Ń
à§¨à§ª à§©
à§¨à§ª à§ª
ay s
à¦§à¦¶à¦¤ à¦¬à¦°
à§¨à§¨ à§¨
à§¨à§¨ à§Ń
à¦ķà¦ĭà¦£ à¦ĵ
à¦ķà¦ĭà¦£ à¦¸à¦¹
Ġà§¯à§® à§¦
Ġà§¯à§® à§«
Ġa hoo
Ġa ss
ur ve
Ġ... à¥¤âĢĻ
har ed
à¦ıà¦¨à¦ıà¦¨ à¦ĵ
Ġà¦¬à¦°à¦« à¦¶
Ġà§¯à§© à§§
à¦Łà¦ķà¦² à¦Ł
à¦ĩà¦īà¦ıà¦¨ à¦ĵà¦¡
à¦ĩà¦īà¦ıà¦¨ à¦Ĩà¦°à¦¡à¦¬
à¦·à¦°à¦£ à¦¸à¦¹
moh sina
Ġà¦ªà¦°à¦¶ à¦īà¦²
Ġà§¯à§ª à§¨
Ġà§¯à§ª à§ª
Ġà¦ħà¦¬à¦¤à¦°à¦£ à¦ķ
Ġà¦ħà¦¬à¦¤à¦°à¦£ à¦¸
Ġà¦°à¦¥ à¦®à¦¤
à¦°à¦ĭà¦£ à¦¬
à¦§à¦¨à¦ķ à¦°à¦£
à§¨à§® à§¦
Ġà¦¤à¦²à¦¬ à¦ķ
bi di
bi thysoptorshi
Ġt error
ic i
Ġà¦Ńà¦Ĺ à¦¬à¦¦
19 8
19 44
à¦Ĩà¦īà¦Ł à¦²
à§¨à§¬ à§©
Ġà¦ļà¦ķà¦¬ à¦°à¦ķà¦¤
à§©à§« à§ª
Ġà¦ħà¦§à¦° à¦ļà¦¨
Ġp er
Ġp oc
Ġp ers
Ġp overty
Ġp rivate
ĠS haraf
ĠS ou
ĠS ocial
ĠS omatic
ah ram
à§ĩà¥¤... âĢĻ
ĠB e
ĠB ri
ĠB ang
ĠB angla
ĠB AN
ĠB IP
à¦ĸà¦²à¦¨ à¦ĵ
Ġà§¨à§¦à§ª à§¨
ing ton
el e
el ec
el ess
ĠC ord
ĠC hit
ĠC entu
ol in
ol le
Ġà¦°à¦¸à¦¦ à¦ĵ
niv ers
ĠT o
ĠT rans
ĠT ort
ĠT HE
Ġà¦¨à¦°à¦ķ à¦¤
ĠA d
ĠA nal
Ġà§§à§®à§« à§¨
Ġà§§à§®à§« à§©
Ġà§§à§®à§« à§¯
wadu dutuhin
ĠP eople
ĠP overty
à§§à§¯à§ª à§©
Ġà§§à§¨à§© à§§
Ġw ife
Ġw ould
Ġb est
Ġb ook
Ġb ank
à§§à§¯à§« à§«
à§¨à§Ń à§Ń
ĠI t
us iness
Ġà§§à§®à§® à§Ń
Ġc ap
Ġc mahmed
à§ģà§ģ à§ģà§ģ
ta tion
ta gong
:âĢĺ ...
ir mative
à¦ıà¦¸à¦ı à¦ıà¦«
ud d
Ġà¦¸à¦°à¦¸ à¦ķ
Ġà¦¹à¦°à¦ķ à¦¤
ĠD haka
ĠD iv
ĠD riv
ĠR ev
ĠR and
ĠR em
ĠR ice
à¦ħà¦« à¦¶
tr an
tr al
Ġà§§à§®à§¬ à§¬
ac y
oc al
à§®à§® à§«
Ġà¦Ĩà¦ĩà¦ıà¦²à¦ĵ à¦¸à¦¹
ĠE mp
Ġà¦¨à¦ĵ à¦«
à¦ıà¦«à¦Ĩà¦ĩ à¦Ĩà¦°
à¦¾âĢĮ à¦¿
à¦¨à¦ķà¦² à¦Ł
à¦²à¦ķà¦² à¦Ĺ
à¦¦à¦ľ à¦Ĺà¦¨
Ġto wheed
li g
li ght
Ġm o
Ġm ost
Ġm izanur
Ġm owdudur
Ġm inis
Ġà§§à§¦à§« à§®
à¦¡à¦ī à¦ĩà¦²
à¦¯à¦°à¦¸ à¦ª
à¦Ĺà¦«à¦² à¦ĩ
ce p
ce ment
ce pt
Ġà§§à§Ńà§¦ à§Ń
Ġà§§à§Ńà§« à§«
Ġà§§à§Ńà§« à§¯à§®
ad i
Ġà§§à§¦à§ª à§ª
Ġà§¯à§¯à§ ¨
Ġà§¯à§¯à§ ©
Ġà§¯à§¯à§ «
le ss
le khok
ree ment
ĠM o
ĠM em
Ġg reat
Ġg reed
Ġà§§à§®à§© à§Ń
Ġà§§à§®à§© à§ª
Ġà§§à§®à§© à§¯
op a
si an
Ġà§§à§©à§® à§ª
Ġà§§à§§à§© à§«
Ġà§§à§§à§© à§¬
Ġd i
Ġd ie
Ġd ismiss
Ġà¦®à¦ĩ à¦§
ang uage
à¦¿âĢĿ .
à¦¿âĢĿ à¥¤âĢĻ
à¦īà§İà¦¸ à¦¬à¦¸à¦¹
à§§à§¯à§¨ à§Ń
Ġà§§à§§à§ª à§¬
à¦¦à¦ªà¦¸à¦°à¦£ à¦ĵ
ĠF ac
ĠF ire
ĠF rom
ĠF ranc
ĠF ramework
ĠL e
ĠL ife
ĠL ightning
à¦ķs arfuddin
à¦ħà¦¹ à¦°à¦¹à¦ĩ
à¦ıà¦¸à¦Ĩà¦° à¦ıà¦®
à¦ıà¦¸à¦Ĩà¦° à¦ıà¦ĩà¦ļ
Ġà§§à§®à§ª à§¯
ĠH e
ĠH ar
ĠH igh
à§§à§§à§ ¬
à§§à§§à§ Ń
Ġà¦ıà¦®à¦ıà¦² à¦ĩ
ĠIn sp
ĠIn stitu
lima te
ĠâĢį à§į
ĠN ations
ĠN ina
ĠN ature
ĠN ino
à¦Ńà¦°à¦Ń à¦ķ
à¦ıà¦«à¦ıà¦¸ à¦Ĩà¦°à¦ĩà¦ī
Ġfor fe
ab ility
à¦Ķ à¦¦
à¦¶à¦§ à¦°à¦ķ
à¦¶à¦§ à¦°à¦°
Ġh rab
Ġh elp
à¦ıà¦ķà¦¨ à¦ľà¦°
à¦ħà¦¸à¦¹ à¦¨
Ġà¦¦à¦®à¦ķà¦² à¦ķà¦°
ĠThe ological
san ket
Ġma t
Ġma de
à¦īà¦ªà¦¸ à¦ļ
à¦ıà¦¨à¦ıà¦² à¦ıà¦°
à§ĭ... à¥¤
Ġà§¯à§§à§ ª
Ġà§¯à§§à§ Ń
tor al
Ġr et
Ġr el
Ġà§§à§Ńà§Ń à§¬
à§ĩÂŃ ÂŃ
à¦Ĩà¦°à¦ĩ à¦¬
à¦Ĩà¦°à¦ĩ à¦īà¦°
à¦ıà¦®à¦ĵ à¦ĩà¦ī
at es
ĠG od
Ġà¦¤à¦ªà¦¨ à¦ľ
à¦Ńà¦Ĺ à¦¬à¦¤
Ġà¦ĩà¦®à¦¨ à¦¦
à¦īà¦ªà¦ķ à¦°à¦£à¦Ĺ
anglade shi
à§«à§Ń à§®
and a
mahfuz faruk
Ġà¦ķà¦¹ à¦¤à¦¬
ess ment
og ni
à¦²à¦Ĺà¦£ à¦ķ
Ġ55 08
Ġdr eam
à§ĩâĢĿ à¥¤âĢĻ
Ġà¦Ĩà¦ķà¦² à¦®à¦¨
à¦ıà¦«à¦ıà¦² à¦ıà¦²à¦ıà¦«
ĠO ff
Ġar t
Ġà¦ħà¦«à¦² à¦ª
à¦·Ã¿ à¦®
Ġà¦ļà¦°à¦Ł à¦¬à¦Ĺ
Ġbe yond
ĠJ ournal
ĠU SA
à¦ıà¦«à¦ı à¦ĵà¦°
Ġà¦ıà¦«à¦ı à¦Ĩà¦°
cho log
Ġà¦¨à¦« à¦Ľ
ys is
ear ning
ĠÃ¿ à¦¸
à¦Ĩà¦°à¦ıà¦¸ à¦ĵ
ĠBeng ali
à§§à§¯à§¦ à§©
Ġà¦ıà¦¸à¦ıà¦¸ à¦ıà¦°
Ġcon f
Ġcon cept
di tion
tan t
Ġ1 8
Ġ19 8
Ġ19 74
hossain du
Ġà¦ıà¦«à¦ıà¦¸ à¦Ĩà¦°à¦ĩà¦ī
Ġde c
Ġde velopment
à¦ıà¦¨à¦Ĩà¦ĩ à¦ıà¦ĩà¦ļ
à¦¬à¦¹à¦¨à¦¸ à¦ļ
ap er
ĠâĢĿ âĢĻ
for um
st and
à¦°à¦Ĩ à¦īà¦¨
Ġà¦²à¦Łà¦ķ à¦¨
ĠAc t
ĠRe present
ï¿½ï¿½ ï¿½
sha h
Ġpro ject
Ġà¦ıà¦ıà¦¸ à¦ıà¦®
ms islam
min tu
Ġal most
ff irmative
res ent
à¦ıà¦¸à¦ıà¦² à¦ıà¦«à¦ª
Ġju d
Ġju stice
à¦īà¦ªà¦¶ à¦¹à¦°
ens is
Ġun der
Ġup az
Ġà¦ıà¦²à¦ıà¦« à¦ĵ
erv ice
the y
Ġac coun
olla pse
dic tion
uk der
tab ility
Ġ8 9
à¦ĵà¦ķà¦¨ à¦ľ
Ġà¦Ĩà¦ĩà¦ĩà¦ĩ à¦ĩ
Ġab out
SO T
gma i
ny ti
Ġà¦ļà¦ĩ à¦²à¦¤
à¦īà§İ à¦ĸ
Ġà¦ĩà¦īà¦ıà¦ĩ à¦¤
à¦¾à¥¤âĢĻ... âĢĺ
mun na
Ġhow ever
Pro fesse
SI NA
cr m
fess ion
world bank
Ġro ck
Ġà¦¸à¦ĵ à¦®à¦ķ
à¦ıà¦Ĩà¦° à¦ıà¦¸à¦ı
à¦¥à¦¬à¦Ľ à¦°à¦ķ
Ġso ul
ĠAg ricul
ĠAn d
ibra ry
Doc te
au khandk
ci ence
equ ality
lan ts
Ġà¦°à¦ī à¦«à¦ķ
Ġsup port
ĠAss assination
mahb ub
mahb oob
ĠGovern ment
ĠGovern ance
Ac t
fac ebook
lar s
selim cpb
Ġà¦°à¦¸à¦ķ à¦·à¦¹
ament al
ĠSoci ety
Ġbet ter
Ġnah iduttar
ĠRight s
ope ration
ĠFa ith
Ġevery one
uv a
you tu
à¦ķar nab
Ġà¦¨à¦Ī à¦®à¦ķ
Ġà¦Ĩà¦°à¦ĩà¦īà¦ıà¦¸ à¦ĩà¦ī
anim ist
orrup tion
Ġtr ue
Ġtri ed
ĠCour t
ĠThought s
Ġmet hod
mem ber
Ġgovern ment
Ġdire ctor
ĠHA SINA
ĠComm ission
Ġà¦ıà¦²à¦ĩà¦ıà¦®à¦ĵ à¦ı
Ġnir bacho
viron ment
110 5
Am irulkhan
Eff ective
Fac e
GLA DESH
Sul ek
amr ul
gab alla
rgan ization
ymp haea
Ġà¦ıà¦Ĩà¦°à¦ĩ à¦Ń
Ġà¦Ĩà¦°à¦ī à¦ĩà¦¨à¦ķ
à¦ıà¦¨à¦Ĩà¦°à¦ĩ à¦ľ
à¦ĩà¦īà¦ıà¦®à¦ıà¦¨ à¦ĵ
hanif sanket
Ġlear n
Ġfri end
Ġpers on
ĠSou th
ĠBAN GLADESH
ĠBIP SOT
ĠCord ial
ĠChit tagong
ĠCentu ry
ĠAnal ysis
ĠDriv en
ĠRand om
ĠMem ory
ĠInstitu te
Ġforfe iture
à¦ıà¦«à¦ıà¦²à¦ıà¦²à¦ıà¦« à¦ĩà¦ı
cholog y
ĠRepresent ation
Ġupaz ila
Ġnirbacho ne
! /
' >
) /
) =
) |
) ...
) !âĢĻ
- -
- /
. "
. (
. -
. :
. à¥¤
. âĢĶâĢĺ
. !!
0 9
0 02
1 47
2 8
2 84
3 1
4 8
6 8
7 0
: )
: *
: /
: ...
; -
< ï¿½ï¿½ï¿½
> à¥¤
? -
? ....
? ï¿½
? ...âĢĻ
A C
A G
A H
A P
A r
A rt
A ffirmative
B E
B R
B T
B as
B ud
B angladesh
C l
C om
C ent
C ont
C howdhury
D H
E D
E L
E n
E du
E CE
F P
F R
F e
F inal
G old
G onado
H O
H y
H om
H istory
H CD
H olle
I E
I G
I N
I R
I S
I T
I X
I f
I s
I CE
I ON
J ul
J une
L O
L V
L eg
L ip
M an
M ar
M ob
N o
N s
N ew
N ational
N ymphaea
O h
O n
O ne
O rganization
P C
P R
P o
P eter
P EACE
Q EP
R e
R ef
R eg
R hinoceros
R PO
S P
S h
S p
S ha
S und
S elf
S tal
T E
T Y
T in
T oo
U C
U n
U ni
U ET
V I
W e
W hat
W hen
X X
] -
] )à¥¤
] à¥¤âĢĺ
a ba
a du
a de
a ta
a un
a ve
a ut
a use
b l
b m
b p
b t
b y
b or
b if
b ia
b es
b le
b ub
b our
b angladeshi
c g
c ut
c ord
c hange
c limate
c ogni
c ollapse
d K
d a
d n
d ing
e ni
e igh
e umbd
f i
g i
g n
g il
g es
g le
g ue
g rity
h ul
h is
h med
h ury
i an
i ka
i ver
i ere
j ic
j our
j sp
j abin
j oly
j rjewel
k o
k r
k in
k ni
k ti
k he
k le
k hawat
k gaballa
l it
l tra
l anguage
m i
m o
m on
m or
m ing
m ol
m os
m od
m dg
n h
n as
n ec
n ew
n ection
o us
o ter
o ard
o tic
o int
o ko
p l
p in
p han
p alo
p le
p overty
p lus
p olitics
p aul
p hp
p kb
p aper
q s
q x
r en
r is
r ch
r karzon
s k
s l
s u
s on
s um
s ul
s mus
s ol
s us
s try
s tate
s oci
s aken
t d
t ho
t um
t en
t el
t os
t est
u ni
u tl
u ation
u ture
u ence
v i
v ar
v ent
v ail
v est
w o
w ar
w ill
w est
w hy
x oom
y e
y an
z e
z ia
z ah
z as
z le
z zaman
} à¥¤
Â ©
Ã Ĺ
Ä ª
Å ¨
â Ī
Ġ &
Ġ 7
Ġ z
Ġ ).
Ġ hoo
Ġ er
Ġ rab
Ġ ee
Ġ ak
Ġ if
Ġ âĢĶâĢĺ
Ġ akaria
Ġ info
Ġ wasif
Ġ //
Ġ ÂŃ
Ġ ec
Ġ main
Ġ ]à¥¤
Ġ umme
Ġ alim
Ġ 10
Ġ 1515
Ġ 69
Ġ use
Ġ ïĢł
Ġ akash
Ġ editorial
Ġ ibrahim
Ġ %âĢĻ
Ġ mahbub
Ġ Å¨
à§ ¥
à¦¾ ïģ¬
à¦¾ à¥¥
à§ĩ '
à§ĩ |
à§ĩ }
à§ĩ ]à¥¤
à§ĩ à¥¥
à¦° à¦ł
à¦° à¦ĩà¦¨
à¦° à¦īà¦¨
à¦° à¦ıà¦®
à¦° à¦ıà¦Ł
à¦° à¦ıà¦ķà¦Ł
à¦° à¦ħà¦Ń
à¦° à¦Ĩà¦¸
à¦° à¦ħà¦¬
à¦° à¦Īà¦¦
à¦° à¦ħà¦¸
à¦° à¦Ĩà¦¹
à¦° à¦ħà¦²
à¦° à¦ħà¦¬à¦¸
à¦° à¦Ŀà¦°
à¦° à¦īà¦ªà¦¦
à¦° à¦ıà¦Ĩà¦ĩ
à§į )
à§į à¦¿
à§į à¦ģ
à§į âĢĻ-
à§į à§ģà§į
à¦¿ à§ģ
à¦¿ Â§
à¦¨ à¦°à¦¬
à¦¨ à¦²à¦¨
à¦¨ à¦¹à¦¤
à¦¨ à¦ĸà¦²
à¦¨ à¦¹à¦®
à¦¨ à¦ħ
à¦¨ à¦¦à¦ķ
à¦¨ à¦°à¦²
à¦¨ à¦ĩà¦Ł
à¦¨ à¦ıà¦ĩ
à¦¨ à¦ªà¦Ł
à¦¨ à¦ĩà¦¸
à¦¨ à¦ıà¦ķ
à¦¨ à¦ªà¦¯
à¦¨ à¦ĺà¦Ł
à¦¨ à¦¥à¦®à¦¨
à¦¨ à¦Ľà¦¤
à¦¨ à¦ıà¦ķà¦Ł
à¦¨ à¦Ĩà¦¸
à¦¨ à¦¡à¦®
à¦¨ à¦ħà¦§
à¦¨ à¦Īà¦¦
à¦¨ à¦ıà¦ķà¦ľà¦¨
à¦¨ à¦ıà¦ĸ
à¦¨ à¦Ĩà¦¸à¦²
à¦¨ à¦ıà¦¦
à¦¨ à¦īà¦ªà¦ľ
à¦¨ à¦ħà¦²
à¦¨ à¦ªà¦°à¦®
à¦¨ à¦īà¦¤à¦°
à¦¨ à¦ĸà¦¨à¦¨
à¦¨ amirulkhan
à¦¯ à¦£
à¦¯ à¦¤à¦¬
à¦¯ à¦ħ
à¦¯ à¦ıà¦ĩ
à¦¯ à¦¹à¦¸
à¦¯ à¦ľà¦Ł
à¦¯ à¦ĺà¦Łà¦¨
à¦¯ à¦¢
à¦¯ à¦¸à¦®à¦¯
à¦¯ à¦¡à¦¬
à¦¯ à¦ħà¦°
à¦¯ à¦°à¦ķà¦®
à¦¯ à¦ľà¦¨à¦¦
à¦¯ à¦Ĩà¦¯
à¦¯ à¦¸à¦¦à¦¸
à¦¯ à¦Ĺà¦£à¦¨
à¦¤ à¦·
à¦¤ à¦ŀ
à¦¤ à¦¯à¦¨
à¦¤ à¦«à¦²
à¦¤ à¦Ĺà¦ŀ
à¦¤ à¦ħà¦¨
à¦¤ à¦ľà¦¬
à¦¤ à¦Ĩà¦ĩà¦¨
à¦¤ à¦Ĩà¦¬
à¦¤ à§İà¦ªà¦°
à¦¤ à¦Ĩà¦Ĺ
à¦¤ à¦¸à¦¹à¦¯
à¦¤ à¦ĺà¦¡
à¦ķ à¦ı
à¦ķ à¦ī
à¦ķ à¦¤à¦¬
à¦ķ à¦¸à¦¦
à¦ķ à¦¸à¦°
à¦ķ à¦«à¦²
à¦ķ à¦ļà¦¯
à¦ķ à¦ķà¦Ń
à¦ķ à¦Ĺà¦²
à¦ķ à¦īà¦¦
à¦ķ à¦¸à¦®à¦¯
à¦ķ à¦¹à¦¬
à¦ķ à¦ľà¦ķ
à¦ķ à¦īà¦²
à¦ķ à¦ħà¦°
à¦ķ à¦¸à¦¨à¦ķ
à¦ķ à¦ħà¦§
à¦ķ à¦Ĩà¦ľ
à¦ķ à¦Ĩà¦¤
à¦ķ mrkhanbd
à¦ķ à¦¬à¦¸à¦¤
à¦ķ à¦ħà¦¯
à¦ķ à¦®à¦²à¦ķ
à¦ķ chowdhury
à¦ķ afef
à¦ķ bithysoptorshi
à¦ķ mintu
à¦¼ '
à¦¼ à§Ī
à¦¼ âĢĺ
à¦¼ ÂŃ
à¦¬ à¦ł
à¦¬ à¦¬à¦¨
à¦¬ à¦ĩà¦¨
à¦¬ à¦Ŀ
à¦¬ à¦®à¦°
à¦¬ à¦Łà¦¨
à¦¬ à¦ĩà¦ķ
à¦¬ à¦Ĩà¦®
à¦¬ à¦Łà¦Ĺ
à¦¬ à¦ıà¦®
à¦¬ à¦ľà¦²
à¦¬ à¦Łà¦ª
à¦¬ à¦Łà¦¦
à¦¬ à¦īà¦®
à¦¬ à¦Ĩà¦ľ
à¦¬ à¦Ĩà¦¤
à¦² à¦£
à¦² à¦ł
à¦² à¦ı
à¦² à¦¶à¦ķ
à¦² à¦¢
à¦² à¦§à¦°
à¦² à¦¥à¦¤
à¦² à¦ľà¦²
à¦² à¦ıà¦ķ
à¦² à¦«à¦¸
à¦² à¦Ĩà¦ľ
à¦² à¦°à¦¤à¦¨
à¦² à¦ªà¦°à¦®
à¦² à¦ķà¦°à¦¦
à¦® à¦¸à¦¬
à¦® à¦°à¦¸
à¦® à¦Ĩ
à¦® à¦°à¦¦
à¦® à¦¦à¦²
à¦® à¦¬à¦¦
à¦® à¦®à¦§
à¦® à¦¹à¦¸
à¦® à¦¹à¦¨
à¦® à¦®à¦¹
à¦® à¦Ńà¦ķ
à¦® à¦ıà¦¸à¦¬
à¦® à¦£à¦Ń
à¦® à¦¶à¦°
à¦® à¦Ĩà¦ªà¦¨
à¦® à¦ıà¦ĸà¦¨
à¦® à¦Ĩà¦Ĺ
à¦® à¦Ĩà¦ĵà¦¯
à¦® à¦¸à¦¹à¦¯
à¦® à¦ıà¦¸à¦ıà¦¸à¦¸
à¦® à¦¦à¦²à¦Ĺ
Ġà¦ķ à¦§
Ġà¦ķ à¦¹à¦°
Ġà¦ķ à¦ķà¦¬
Ġà¦ķ à¦¸à¦ķ
Ġà¦ķ à¦¸à¦ª
Ġà¦ķ à¦ªà¦¥
Ġà¦ķ à¦ļà¦°
Ġà¦ķ à¦ªà¦¸
Ġà¦ķ à¦¨à¦¶
Ġà¦ķ à¦ĩà¦®
Ġà¦ķ à¦¸à¦ĩ
Ġà¦ķ à¦Łà¦®à¦Ł
à§ģ ]
à§ģ à§ģà¦ģ
à§ģ ...à¥¤
à§ģ ...âĢĻà¥¤
Ġà¦¸ à¦ĩà¦¨
Ġà¦¸ à¦Ĺà¦²
Ġà¦¸ à¦°à¦¸à¦°
Ġà¦¸ à¦°à¦¬à¦¤
Ġà¦¬ à¦Ĺà¦¤
Ġà¦¬ à¦ķà¦¬
Ġà¦¬ à¦¦à¦ķ
Ġà¦¬ à¦Łà¦ķ
Ġà¦¬ à¦®à¦¦
Ġà¦¬ à¦īà¦°
Ġà¦¬ à¦ļà¦¨à¦ķ
Ġà¦¬ à¦°à¦¸à¦¹
Ġà¦¬ à¦¦à¦¸
Ġà¦¬ à¦°à¦ķà¦°
Ġà¦¬ à¦ļà¦¨à¦Ĺ
Ġà¦¬ à¦ļà¦¨à¦ĩ
Ġà¦¬ à¦ĩà¦¨à¦Ł
à¦¦ à¦ªà¦°
à¦¦ à¦ī
à¦¦ à¦°à¦¶
à¦¦ à¦°à¦¹
à¦¦ à¦®à¦°
à¦¦ à¦¤à¦®
à¦¦ à¦ıà¦°
à¦¦ à¦¶à¦¬
à¦¦ à¦ıà¦®
à¦¦ à¦Ĩà¦®à¦°
à¦¦ à¦ļà¦Ł
à¦¦ à¦ħà¦°
à¦¦ à¦Ĩà¦ªà¦¨
à¦¦ à¦Ĩà¦ĵà¦¯
à¦¦ à¦°à¦®à¦¹
à¦¦ anu
à¦¦ à¦ľà¦Ĺà§İ
à¦¦ à¦²à¦¬à¦¦à¦²
à¦¦ à¦Ĩà¦ĩà¦Ĩà¦ĩà¦¡
à¦¦ à¦Ŀà¦²à¦®à¦²
à¦¦ à¦²à¦¤à¦¤
Ġà¦ª à¦Ľ
Ġà¦ª à¦ªà¦°
Ġà¦ª à¦ķà¦°
Ġà¦ª à¦²à¦¬
Ġà¦ª à¦ĩà¦°
Ġà¦ª à¦ªà¦¸
Ġà¦ª à¦Łà¦²
Ġà¦ª à¦łà¦¤
Ġà¦ª à¦ļà¦¤
Ġà¦ª à¦ļà¦¬
Ġà¦ª à¦ªà¦¶
Ġà¦ª à¦ªà¦Ĺ
à¥¤ -
à¥¤ à¦¿
à¥¤ à¥¤âĢĻ
à¥¤ ÂŃ
à¦¸ à¦ļà¦²
à¦¸ à¦°à¦Ń
à¦¸ à¦¸à¦ķ
à¦¸ à¦ĺà¦°
à¦¸ à¦ĺà¦¨
à¦¸ à¦¸à¦ļ
à¦¸ à¦Łà¦ª
à¦¸ à¦ıà¦ķ
à¦¸ à¦®à¦¨à¦¸
à¦¸ à¦Ĩà¦ĩà¦ıà¦²
à¦¸ à¦ıà¦¨à¦Ĺ
à¦Ł à¦ı
à¦Ł à¦¬à¦¸
à¦Ł à¦¨à¦¨
à¦Ł à¦®à¦ķ
à¦Ł à¦ªà¦¦
à¦Ł à¦«à¦²
à¦Ł à¦ľà¦¨à¦ķ
à¦Ł à¦īà¦¡
à¦Ł à¦°à¦¤à¦®
à¦Ł à¦ıà¦ĩà¦¡
à¦Ł aftabragib
Ġà¦¨ à¦§
Ġà¦¨ à¦ªà¦¨
Ġà¦¨ à¦¸à¦®
Ġà¦¨ à¦¸à¦¹
Ġà¦¨ à¦°à¦²
Ġà¦¨ à¦°à¦ªà¦¤
Ġà¦¨ à¦¹à¦¨
Ġà¦¨ à¦²à¦Ń
Ġà¦¨ à¦Łà¦¬
Ġà¦¨ à¦ĵà¦²
Ġà¦¨ à¦²à¦¶
Ġà¦¨ à¦ĵà¦ķ
Ġà¦¨ à¦°à¦ķà¦ķ
Ġà¦¨ à¦§à¦°à¦ķ
à§Ģ âĢĮ
à§Ģ âĢĭ
à§Ģ âĢĭà§ĩ
à¦¶ à¦£
à¦¶ à¦ĩà¦¨
à¦¶ à¦°à¦¦
à¦¶ à¦Ĺà¦£
à¦¶ à¦®à¦ķ
à¦¶ à¦Ĩà¦®
à¦¶ à¦¢
à¦¶ à¦¬à¦¶à¦¤
à¦¶ à¦¬à¦¨à¦ª
Ġà¦Ĩ à¦ªà¦°
Ġà¦Ĩ à¦ĸà¦°
Ġà¦Ĩ à¦ĵà¦ķ
Ġà¦Ĩ à¦ķà¦²à¦ķ
à¦ª à¦«
à¦ª à§İ
à¦ª à¦¹à¦°
à¦ª à¦¸à¦°à¦ķ
à¦ª à¦ªà¦¥
à¦ª à¦§à¦°
à¦ª à¦Ńà¦ķ
à¦ª à¦ľà¦²
à¦ª à¦¬à¦¦à¦²
à¦ª à¦®à¦¨à¦¸
à¦ª à¦īà¦ª
à¦ª à¦īà¦¡
à¦ª à¦ĸà¦°à¦ļ
à¦ª à¦¬à¦¸à¦¨
à¦ª à¦ªà¦¦à¦®
Ġà¦ı à¦°à¦ķ
Ġà¦ı à¦ªà¦°
Ġà¦ı à¦ıà¦¨
Ġà¦ı à¦¨à¦¦
Ġà¦ı à¦ªà¦¸
Ġà¦ı à¦Ĩà¦°à¦Ł
Ġà¦ı à¦®à¦ķà¦®
Ġà¦ı à¦ıà¦²à¦Ĩà¦°
Ġà¦ı à¦ıà¦¸à¦ĩ
Ġà¦ı à¦§à¦°à¦¨
Ġà¦ı à¦ıà¦²à¦ı
Ġà¦ı à¦°à¦ķà¦®à¦Ł
Ġà¦ı à¦ıà¦²à¦ıà¦²
Ġà¦ı à¦ıà¦¸à¦Ĩà¦°à¦ıà¦ĩà¦ļ
Ġà¦¹ à¦Ń
Ġà¦¹ à¦®à¦¤
Ġà¦¹ à¦°à¦¬
Ġà¦¹ à¦°à¦¸
Ġà¦¹ à¦¨à¦ķ
Ġà¦¹ à¦¸à¦ķ
Ġà¦¹ à¦ĵà¦°
Ġà¦¹ à¦«à¦¸
à¦Ľ à¦¸
à¦Ľ à¦ĸ
à¦Ľ à¦ªà¦°
à¦Ľ à¦¤à¦®
à¦Ľ à¦¸à¦®
à¦Ľ à¦¦à¦®
à¦Ľ à¦²à¦¦
à¦Ľ à¦Ĩà¦¬
à¦Ľ à¦¦à¦ĵ
à¦ĩ à¦¬à¦¸
à¦ĩ à¦ĩà¦¨
à¦ĩ à¦²à¦¯
à¦ĩ à¦¥à¦¨
à¦ĩ à¦¹à¦²
à¦ĩ à¦¦à¦ķ
à¦ĩ à¦°à¦²
à¦ĩ à¦¤à¦¤
à¦ĩ à¦¶à¦Ł
à¦ĩ à¦¸à¦ª
à¦ĩ à¦ľà¦Ł
à¦ĩ à¦Ĩà¦²
à¦ĩ à¦Ĺà¦ŀ
à¦ĩ à¦Ĩà¦¨
à¦ĩ à¦¹à¦¬
à¦ĩ à¦ĩà¦ľ
à¦ĩ à¦ļà¦Ł
à¦ĩ à¦ıà¦Ł
à¦ĩ à¦Ĺà¦¡
à¦ĩ à¦ĸà¦ª
à¦ĩ à¦Ĩà¦¤
à¦ĩ à¦ıà¦®à¦¬
à¦ĩ à¦ĵà¦Ĺ
à¦ĩ à¦ħà¦ķ
à¦ĩ à¦¹à¦¦
à¦ĩ à¦Ĩà¦ĩà¦ıà¦¸
à¦ĩ à¦¶à¦«
à¦ĩ à¦Ĩà¦ĩà¦Ł
à¦ĩ à¦ıà¦®à¦ıà¦¸
à¦ĩ à¦Ĩà¦°à¦ľ
à¦· à¦ĺ
à¦· à¦¸à¦¨
à¦· à¦®à¦°
à¦· à¦¸à¦¦
à¦· à¦¨à¦¨
à¦· à¦ĸà¦²
à¦· à¦®à¦ķ
à¦· à¦¸à¦°
à¦· à¦¶à¦¯
à¦· à¦¬à¦¦à¦²
à¦· à¦·à¦¬
à¦· à¦ľà¦¨à¦¦
à¦· à¦¦à¦ķà¦ķ
Ġà¦¦ à¦°à¦ĵ
Ġà¦¦ à¦®à¦¯
Ġà¦¦ à¦ľà¦²
Ġà¦¦ à¦®à¦Ł
Ġà¦¤ à¦ļ
Ġà¦¤ à¦ķà¦°
Ġà¦¤ à¦¨à¦¬
Ġà¦¤ à¦¸à¦°
Ġà¦¤ à¦ķà¦Ń
Ġà¦¤ à¦¨à¦¸
Ġà¦¤ à¦Łà¦°
Ġà¦¤ à¦²à¦Ł
Ġà¦¤ à¦ıà¦¬
Ġà¦¤ à¦¶à¦°
Ġà¦¤ à¦°à¦ķà¦ķ
à¦Ĺ à¦¸à¦ķ
à¦Ĺ à¦¶à¦Ł
à¦Ĺ à¦ªà¦Ł
à¦Ĺ à¦¸à¦Ń
à¦Ĺ à¦Ĺà¦ľ
à¦Ĺ à¦ļà¦Ł
à¦Ĺ à¦Ĺà¦¦
à¦Ĺ à¦Ĺà¦¤à¦Ń
à¦Ĺ à§İà¦¬
à¦Ĺ à¦«à¦²à¦ĵ
à¦Ĺ à¦īà¦Ľ
Ġà¦® à¦Ń
Ġà¦® à§İ
Ġà¦® à¦²à¦¨
Ġà¦® à¦Ĺà¦°
Ġà¦® à¦¸à¦ķ
Ġà¦® à¦ķà¦®
Ġà¦® à¦°à¦£à¦¯
Ġà¦® à¦ķà¦Ľ
Ġà¦® à¦łà¦ª
Ġà¦® à¦¬à¦Ļ
Ġà¦® à¦ľà¦¨à¦¤
Ġà¦® à¦¤à¦¨à¦ĵ
à¦¼à§ĩ à§ĩ
à¦¼à§ĩ âĢĭ
à¦¼à§ĩ âĢĻâĢĶ
à¦¼à§ĩ ...à¥¤
à¦¼à§ĩ ...à¥¤âĢĻ
à¦ľ à¦ŀ
à¦ľ à¦ªà¦¨
à¦ľ à¦°à¦¸
à¦ľ à¦°à¦¦
à¦ľ à¦¬à¦¬
à¦ľ à¦®à¦°
à¦ľ à¦°à¦ĵ
à¦ľ à¦Ĺà¦łà¦¨
à¦ľ à¦¶à¦®
à¦ľ à¦²à¦®
à¦ľ à¦Ńà¦°
à¦ľ à¦¢
à¦ľ à¦ĺà¦°
à¦ľ à¦ļà¦°
à¦ľ à¦Ľà¦¤
à¦ľ à¦°à¦¸à¦¹
à¦ľ à¦īà¦ĩ
à¦ľ à¦ķà¦¬à¦ļ
Ġà¦ķà¦° à¦ļ
Ġà¦ķà¦° à¦¸à¦¹
Ġà¦ķà¦° à¦Łà¦ķ
Ġà¦ķà¦° à¦ļà¦Ĺ
à¦§ à¦¦à¦ķ
à¦§ à¦¬à¦¤
à¦§ à¦¤à¦¤
à¦§ à¦Ĺà¦²
à¦§ à¦Ńà¦°
à¦§ à¦¯à¦ľ
à¦§ à¦¦à¦Ĺ
Ġà¦ħ à¦ĵà¦¯
Ġà¦ħ à¦ĸà¦¨
Ġà¦ħ à¦ĩà¦¨
Ġà¦ħ à¦²à¦¨
Ġà¦ħ à¦¹à¦¸
Ġà¦ħ à¦²à¦®
Ġà¦ħ à¦ļà¦°
Ġà¦ħ à¦ĺà¦Ł
Ġà¦ħ à¦®à¦¨à¦ĩ
à¦ļ à¦§
à¦ļ à¦ªà¦¨
à¦ļ à¦ĩà¦¨
à¦ļ à¦²à¦¯
à¦ļ à¦®à¦°
à¦ļ à¦°à¦ľ
à¦ļ à¦Ńà¦°
à¦ļ à¦īà¦ķ
à¦ļ à¦ĺà¦°
à¦ļ Ã¿à¦ķ
Ġà¦¯ à¦Ń
Ġà¦¯ à¦ªà¦¨
Ġà¦¯ à¦¸à¦¹
Ġà¦¯ à¦®à¦Ĺ
Ġà¦¯ à¦¬à¦§
Ġà¦¯ à¦¶à¦ª
Ġà¦¯ à¦®à¦Ł
à¦¥ à¦ĸ
à¦¥ à¦¤à¦°
à¦¥ à¦ķà¦¬
à¦¥ à¦Łà¦¸
à¦¥ à¦°à¦¸à¦®
à¦¹ à¦Ľ
à¦¹ à¦ľà¦¨
à¦¹ à¦°à¦¬
à¦¹ à¦¤à¦¨
à¦¹ à¦¬à¦²
à¦¹ à¦ķà¦Ń
à¦¹ à¦¨à¦®
à¦¹ à¦¬à¦¤
à¦¹ à§İà¦ķ
à¦¹ à¦¸à¦ª
à¦¹ à¦¹à¦¸
à¦¹ à¦ªà¦¥
à¦¹ à¦¢
à¦¹ à¦ħà¦¨
à¦¹ à¦ļà¦Ł
à¦¹ à¦£à¦ĩ
à¦Ĥ ?
à¦£ à¦ŀ
à¦£ à¦¹à¦°
à¦£ à¦¬à¦¦
à¦£ à¦¬à¦¤
à¦£ à¦¹à¦¸
à¦£ à¦ªà¦¥
à¦£ à¦¹à¦°à¦£
à¦£ à¦¦à¦¶
à¦£ à¦ļà¦¡
à¦£ à¦«à¦²à¦ķ
à¦ĸ à¦ķà¦²
à¦ĸ à¦¤à¦®
à¦ĸ à¦Łà¦ķ
à¦ĸ à¦§à¦°
à¦ĸ à¦²à¦¨à¦ķ
Ġà¦ľ à¦ĸ
Ġà¦ľ à¦°à¦¬
Ġà¦ľ à¦¤à¦¨
Ġà¦ľ à¦ªà¦¤
Ġà¦ľ à¦¸à¦ª
Ġà¦ľ à¦ªà¦¥
Ġà¦ľ à¦ªà¦Ľ
à¦ĵ à¦ĵ
à¦ĵ à¦ĵà¦¯
à¦ĵ à¦¬à¦°
à¦ĵ à¦ķà¦²
à¦ĵ à¦²à¦ķ
à¦ĵ à¦¨à¦ķ
à¦ĵ à¦¸à¦ķ
à¦ĵ à¦°à¦Ł
à¦ĵ à¦ĩà¦Ł
à¦ĵ à¦ĩà¦¡
à¦ĵ à¦ıà¦ĩà¦ļ
à¦ĵ à¦ıà¦¨à¦ľ
à¦ĵ à¦Ĩà¦°à¦¸
à¦ĵ à¦Ĩà¦°à¦¬
à¦ĵ à¦§à¦°à¦¦
à¦ĵ à¦ıà¦¸à¦ıà¦¨
à¦¡ à¦ķà¦°
à¦¡ à¦°à¦¸
à¦¡ à¦ªà¦¤
à¦¡ à¦°à¦¹
à¦¡ à¦¸à¦¦
à¦¡ à¦°à¦ĩ
à¦¡ à¦¸à¦ķ
à¦¡ à¦Ĺà¦²
à¦¡ à¦²à¦Ł
à¦¡ à¦¸à¦¨à¦ķ
à¦¡ à¦Ĩà¦ª
à¦¼à¦¾ +
à¦¼à¦¾ ?âĢĻ
à¦¼à¦¾ !!
à¦Ń à¦Ľ
à¦Ń à¦²à¦ķ
à¦Ń à¦«à¦²
à¦Ń à¦¨à¦ĩ
à¦Ń à¦¬à¦¨à¦Ł
à¦Ń à¦Łà¦Ńà¦Ł
à§ĩà¥¤ :
à§ĩà¥¤ )à¥¤
à§ĩà¥¤ ....
Ġà¦° à¦¤à¦¬
Ġà¦° à¦¹à¦°
Ġà¦° à¦²à¦¬
Ġà¦° à¦®à¦¬
Ġà¦° à¦¥à¦ķ
Ġà¦° à¦Łà¦¤
Ġà¦° à¦¸à¦®à¦¯
Ġà¦° à¦¸à¦Ń
Ġà¦° à¦¨à¦Ĺà¦°
Ġà¦° à¦£à¦Ń
Ġà¦° à¦ľà¦ª
Ġà¦° à¦ĩà¦ļ
Ġà¦° à¦¸à¦ķà¦·
Ġà¦° à¦¦à¦ķà¦°à¦£
Ġà¦¶ à¦¦
Ġà¦¶ à¦°à¦ķ
Ġà¦¶ à¦®à¦¨
Ġà¦¶ à¦°à¦¬
Ġà¦¶ à¦¤à¦¨
Ġà¦¶ à¦ĩà¦ķ
Ġà¦Ĺ à¦ī
Ġà¦Ĺ à¦ĺ
Ġà¦Ĺ à¦ªà¦¤
Ġà¦Ĺ à¦°à¦¦
Ġà¦Ĺ à¦²à¦ķ
Ġà¦Ĺ à¦ľà¦¨à¦ķ
Ġà¦Ĺ à¦łà¦ķ
Ġà¦Ĺ à¦ľà¦ķ
Ġà¦Ĺ à¦®à¦¨à¦ĩ
Ġà¦Ĺ à¦«à¦«
Ġà¦Ĺ à¦ľà¦®à¦¹à¦²
Ġà¦ĵ à¦§
Ġà¦ĵ à¦°à¦®
Ġà¦ĵ à¦¸à¦¨
Ġà¦ĵ à¦¤à¦¬
Ġà¦ĵ à¦ķà¦¤
Ġà¦ĵ à¦ľà¦¤
Ġà¦ĵ à¦²à¦«
Ġà¦ĵ Ã¿
Ġà¦ĵ à¦Ľà¦®
Ġà¦ļ à¦¶
Ġà¦ļ à¦ĵ
Ġà¦ļ à¦°à¦¸
Ġà¦ļ à¦°à¦¯
Ġà¦ļ à¦¨à¦®
Ġà¦ļ à¦ķà¦¸
Ġà¦ļ à¦ķà¦®
Ġà¦ļ à¦ªà¦ļ
Ġà¦ļ à¦°à¦ļà¦°
Ġà¦ļ à¦°à¦£à¦Ł
à¦ģ à¥¤
Ġà¦Ń à¦¤
Ġà¦Ń à¦°à¦®
Ġà¦Ń à¦°à¦¯
Ġà¦Ń à¦§à¦¤
Ġà¦Ń à¦ļà¦ķ
Ġà¦ªà¦° à¦¯
Ġà¦ªà¦° à¦§à¦¨
Ġà¦ī à¦ĵ
Ġà¦ī à¦ŀ
Ġà¦ī à¦®à¦¤
Ġà¦ī à¦¤à¦¬
Ġà¦ī à¦ıà¦¨
Ġà¦ī à¦¸à¦¤
Ġà¦ī à¦ĩà¦Ł
Ġà¦ī à¦ĵà¦¨
Ġà¦ī à¦Ĩà¦ª
Ġà¦ī à¦ĩà¦Łà¦¸
Ġà¦ıà¦ķ à¦®à¦¨
Ġà¦ıà¦ķ à¦ķà¦¤
Ġà¦ıà¦ķ à¦¸à¦®
Ġà¦ıà¦ķ à¦ļà¦²
Ġà¦ıà¦ķ à¦ķà¦ķ
Ġà¦ıà¦ķ à¦¶à¦¤
Ġà¦¸à¦® à¦ļ
Ġà¦¸à¦® à¦¶à¦ķ
Ġà¦¸à¦® à¦¦à¦°
Ġà¦¸à¦® à¦ħ
Ġà¦¸à¦® à¦¶à¦¤
Ġà¦¸à¦® à¦¤à¦Ł
Ġà¦¸à¦® à¦°à¦¤à¦¨
Ġà¦¸à¦® à¦¸à¦¦à¦¸
à¦°à¦¤ à¦¬à¦¨
à¦°à¦¤ à¦ľà¦¯
à¦¾à¦ģ âĢĶ
à¦¾à¦ģ âĢĿ
Ġà¦¥ à¦ķà¦¤
Ġà¦¥ à¦¬à¦¹
Ġà¦¥ à¦¬à¦Ľà¦°
Ġà¦¥ à¦²à¦ª
à¦°à¦ķ à¦Ń
à¦°à¦ķ à¦ļà¦ķ
à¦°à¦ķ à¦Ĺà¦£à¦ķ
à§Ĥ âĢĶ
Ġà¦Ĩà¦® à¦ĸ
Ġà¦Ĩà¦® à¦ĵà¦¯
Ġà¦Ĩà¦® à¦²à¦¤
Ġà¦Ĩà¦® à¦¸à¦®
Ġà¦Ĩà¦® à¦ľà¦¨à¦Ĺà¦£
Ġà¦ħà¦¨ à¦¬à¦¹
à¦ł à¦ľà¦¨à¦ķ
à¦ł à¦ªà¦Ł
à¦ł à¦ļà¦°
à¦ł à¦¦à¦¶
à¦ł à¦®à¦£
à¦ł à¦Ĺà¦°à¦®
à¦Ļ à¦ľ
à¦Ļ à¦®à¦¯
à¦Ļ à¦¨à¦¸à¦¹
à¦Ļ à¦²à¦ĩ
à§ĩ. à¥¤
Ġà¦² à¦§
Ġà¦² à¦ļ
Ġà¦² à¦¥
Ġà¦² à¦ĵà¦¯
Ġà¦² à¦ĸà¦¨
Ġà¦² à¦Ĺà¦¤
Ġà¦² à¦¸à¦¹
Ġà¦² à¦¨à¦ķ
Ġà¦² à¦¨à¦Ł
Ġà¦² à¦ĩà¦Ł
Ġà¦² à¦¸à¦¡
Ġà¦² à¦Ĺà¦¤à¦Ń
Ġà¦² à¦ıà¦¨à¦ľ
Ġà¦Ľ à¦ľà¦¨
Ġà¦Ľ à¦°à¦ĩ
Ġà¦Ľ à¦ķà¦ĵ
Ġà¦Ľ à¦«à¦«
à¦°à¦£ à¦²
à¦°à¦£ à¦¹à¦²
à¦°à¦£ à¦ķà¦¬
à¦°à¦£ à¦ĺà¦Ł
à¦ľà¦¨ à¦§
à¦ľà¦¨ à¦ı
à¦ľà¦¨ à¦°à¦¶
à¦ľà¦¨ à¦Ĺà¦£à¦¤à¦¨
à¦ľà¦¨ à¦¬à¦¸à¦¤
à¦ľà¦¨ à¦ĺà¦¨à¦¤
à¦¾à¦Ĥ !
à¦¾à¦Ĥ /
à¦¾à¦Ĥ :
à¦¾à¦Ĥ âĢĻà¥¤
à¦¾à¦Ĥ ...
à¦¾à¥¤ /
à¦¾à¥¤ [
Ġà¦ľà¦¨ à¦¬à¦¨
Ġà¦ľà¦¨ à¦ķà¦°
Ġà¦ľà¦¨ à¦°à¦¬
Ġà¦ľà¦¨ à¦ĺ
Ġà¦ľà¦¨ à¦¦à¦ķ
Ġà¦ľà¦¨ à¦¦à¦²
Ġà¦ľà¦¨ à¦§à¦¨
Ġà¦ľà¦¨ à¦ļà¦ķ
Ġà¦ľà¦¨ à¦ľà¦¬
Ġà¦ľà¦¨ à¦ļà¦¤
Ġà¦ľà¦¨ à¦®à¦£
Ġà¦ľà¦¨ à¦¸à¦¨à¦ķ
Ġà¦ľà¦¨ à¦¹à¦¯
Ġà¦ľà¦¨ à¦¸à¦¨à¦ĵ
Ġà¦¬à¦² à¦ĩ
Ġà¦¬à¦² à¦Ĺ
Ġà¦¬à¦² à¦¬à¦¨
Ġà¦¬à¦² à¦ªà¦¯
Ġà¦ĸ à¦«
Ġà¦ĸ à¦²à¦ķ
Ġà¦ĸ à¦¦à¦ķ
Ġà¦ĸ à¦ĩà¦²
Ġà¦ĸ à¦ľà¦¨à¦ķ
Ġà¦ĸ à¦°à¦°
Ġà¦ĸ à¦²à¦ľ
Ġà¦ĸ à¦°à¦ĸà¦°
Ġà¦ĩ à¦ĸ
Ġà¦ĩ à¦ĵ
Ġà¦ĩ à¦¤à¦¨
Ġà¦ĩ à¦¨à¦¨
Ġà¦ĩ à¦¦à¦°
Ġà¦ĩ à¦¨à¦®à¦¨
Ġà¦ĩ à¦®à¦¸
Ġà¦ĩ à¦°à¦Ł
Ġà¦ĩ à¦ıà¦®à¦ĩ
Ġà¦ĩ à¦Ĩà¦°à¦ª
Ġà¦ĩ à¦ıà¦®à¦ķ
Ġà¦ĩ à¦ıà¦¨à¦Ł
Ġà¦ĩ à¦Ĩà¦°à¦¡
Ġà¦ĩ à¦ıà¦²à¦ıà¦¨
Ġà¦ĩ à¦ĸà¦ĵà¦¯
Ġà¦ıà¦ĩ à¦ª
Ġà¦ıà¦ĩ à¦¹
Ġà¦ıà¦ĩ à¦¸à¦°
Ġà¦ıà¦ĩ à¦®à¦¸
Ġà¦ıà¦ĩ à¦¡à¦¸à¦¹
Ġà¦« à¦®
Ġà¦« à¦·
Ġà¦« à¦Ĺ
Ġà¦« à¦ĸ
Ġà¦« à¦°à¦¬
Ġà¦« à¦°à¦Ł
Ġà¦« à¦Łà¦°
Ġà¦« à¦ĩà¦ľ
Ġà¦Ĩà¦° à¦¹
Ġà¦Ĩà¦° à¦ı
Ġà¦Ĩà¦° à¦¬à¦¶
à¦®à¦¨ à¦¬
à¦®à¦¨ à¦ļ
à¦®à¦¨ à¦¹
à¦®à¦¨ à¦¦à¦°
Ġà¦§ à¦ľ
Ġà¦§ à¦ķà¦¤
Ġà¦§ à¦¨à¦¨
Ġà¦§ à¦¨à¦Ĺ
Ġà¦§ à¦²à¦ª
Ġà¦§ à¦ĩà¦ŀ
Ġà¦§ à¦®à¦ķà¦Ł
à¦ªà¦° à¦¯
à¦ªà¦° à¦Ĺ
à¦ªà¦° à¦ľ
à¦ªà¦° à¦¹
à¦¼à¥¤ |
à§¦ à§§à§¬
à§¦ à§¨à§¬
à¦« à¦Ľ
à¦« à¦£
à¦« à¦ĵà¦¯
à¦« à¦¨à¦ķ
à¦« à¦Łà¦¨
à¦« à¦°à¦Ĺ
à¦« à¦ķà¦¬à¦²
à¦« à¦²à¦¤à¦²
à¦ĸà¦¨ à¦ĩ
à§Ī à§į
à§Ī âĢĵ
à¦ļà¦¨ à¦ľà¦¨
à¦ļà¦¨ à¦¤à¦ķ
à¦ļà¦¨ à¦¬à¦¹
[...]
